{
  "</s>": 0,
  "<unk>": 1,
  ",": 2,
  ".": 3,
  "\u2581de": 4,
  "\u2581the": 5,
  "\u2581la": 6,
  "\u2581of": 7,
  "\u2581a": 8,
  "s": 9,
  "\u2581and": 10,
  "\u2581y": 11,
  "\u2581en": 12,
  "\u2581to": 13,
  "\u2581el": 14,
  "\u2581que": 15,
  "\u2581in": 16,
  "\u2581los": 17,
  "\u2581las": 18,
  "\u2581del": 19,
  "'": 20,
  "?": 21,
  "\u2581(": 22,
  "\u2581for": 23,
  "\u2581para": 24,
  "\u2581": 25,
  "\u2581se": 26,
  "\u2581that": 27,
  "\u2581un": 28,
  "\u2581con": 29,
  "-": 30,
  "\u2581is": 31,
  "\u2581-": 32,
  "\u2581I": 33,
  ":": 34,
  "\u2581on": 35,
  "\u2581por": 36,
  "\u2581no": 37,
  "\u2581una": 38,
  ")": 39,
  "\u2581you": 40,
  "\u2581with": 41,
  "\u2581The": 42,
  "\u2581es": 43,
  "\u2581be": 44,
  "\u2581su": 45,
  "\u2581by": 46,
  "\u2581al": 47,
  "\u2581it": 48,
  "\u2581as": 49,
  "\u2581\u00bf": 50,
  ";": 51,
  "\u2581\"": 52,
  "\u2581are": 53,
  "\u2581El": 54,
  "!": 55,
  "t": 56,
  "\u2581lo": 57,
  "\u2581this": 58,
  "\u2581was": 59,
  "\u2581o": 60,
  "n": 61,
  "\u2581or": 62,
  "\u2581from": 63,
  "\u2581not": 64,
  "\u2581have": 65,
  "\u2581sobre": 66,
  "...": 67,
  "\u2581como": 68,
  "\u2581La": 69,
  "\u2581A": 70,
  "\u2581No": 71,
  "\u2581m\u00e1s": 72,
  "\u2581at": 73,
  "\u2581me": 74,
  "a": 75,
  "\u2581an": 76,
  "/": 77,
  "\u2581En": 78,
  "\u2581will": 79,
  "\u2581which": 80,
  "\u2581all": 81,
  "\u2581has": 82,
  "\u2581your": 83,
  "\u2581sus": 84,
  "\u2581we": 85,
  "\u2581its": 86,
  "\u2581ha": 87,
  "\u2581can": 88,
  "\u2581In": 89,
  "\u2581their": 90,
  "r": 91,
  "m": 92,
  "ing": 93,
  "\u2581It": 94,
  "\u2581he": 95,
  "d": 96,
  "o": 97,
  "es": 98,
  "\u2581You": 99,
  "re": 100,
  "\u2581been": 101,
  "\u2581they": 102,
  ").": 103,
  "\u2581este": 104,
  "\u2581one": 105,
  "\u2581also": 106,
  "\u2581\u00a1": 107,
  "\u2581est\u00e1": 108,
  "\u2581were": 109,
  "e": 110,
  "\u25811": 111,
  "\u2581entre": 112,
  "\u2581do": 113,
  "\u2581other": 114,
  "\u2581had": 115,
  "\u2581more": 116,
  "),": 117,
  "ed": 118,
  "\u2581his": 119,
  "\u2581out": 120,
  "\u2581but": 121,
  "\u2581si": 122,
  "\u2581son": 123,
  "\u2581We": 124,
  "\u2581my": 125,
  "A": 126,
  "\"": 127,
  "\u2581United": 128,
  "\u2581e": 129,
  "\u2581should": 130,
  "\u2581Los": 131,
  "\u2581tambi\u00e9n": 132,
  "\u2581about": 133,
  "\u2581would": 134,
  "\u2581esta": 135,
  "\u2581General": 136,
  "\u2581ser": 137,
  "\u2581who": 138,
  "\u2581there": 139,
  "\u2581our": 140,
  "\u2581up": 141,
  "\u2581Estados": 142,
  "\u2581This": 143,
  "\u2581\u201c": 144,
  "\u25812": 145,
  "\u2581'": 146,
  "\u2581so": 147,
  "\u25813": 148,
  "\u2581Comisi\u00f3n": 149,
  "\u2581what": 150,
  "y": 151,
  "se": 152,
  "\u2581States": 153,
  "\u2581todos": 154,
  "\u2581mi": 155,
  "do": 156,
  "\u2581puede": 157,
  "\u2581time": 158,
  "\u2581han": 159,
  "\u2581He": 160,
  "\u2581know": 161,
  "S": 162,
  "\u2581todo": 163,
  "\u2581Se": 164,
  "\u2581le": 165,
  "\u2581pero": 166,
  "\u2581them": 167,
  "\u2581Naciones": 168,
  "\u2581Unidas": 169,
  "\u2581Committee": 170,
  "\u2581Y": 171,
  "\u2581like": 172,
  "\u2581Nations": 173,
  "\u2581if": 174,
  "\u2581S": 175,
  "\u2581into": 176,
  "\u2581Es": 177,
  "\u2581te": 178,
  "\u2581such": 179,
  "\u2581people": 180,
  "\u2581desarrollo": 181,
  "\u2581informaci\u00f3n": 182,
  "\u2581any": 183,
  "\u2581What": 184,
  "\u2581pa\u00edses": 185,
  "\u2581Consejo": 186,
  "\u2581parte": 187,
  "\u2581And": 188,
  "\u2581right": 189,
  "C": 190,
  "\u2581Council": 191,
  "\u2581as\u00ed": 192,
  "\u2581Por": 193,
  "\u2581sin": 194,
  "\u2019": 195,
  "\u2581new": 196,
  "\u2581Commission": 197,
  "\u2581work": 198,
  "da": 199,
  "\u2581contra": 200,
  "\u25814": 201,
  "\u2581C": 202,
  "te": 203,
  "\u2581information": 204,
  "\u2581a\u00f1os": 205,
  "\u2581these": 206,
  "\u25815": 207,
  "\u2581when": 208,
  "\u2581just": 209,
  "ll": 210,
  "\u2581only": 211,
  "\u2581bien": 212,
  "\u2581tu": 213,
  "\u2581under": 214,
  "mos": 215,
  "\u2581Si": 216,
  "\u258110": 217,
  "\u2581may": 218,
  "\u2581Las": 219,
  "\u2581him": 220,
  "\u2581cuando": 221,
  "\u2581international": 222,
  "\u2581fue": 223,
  "\u2581De": 224,
  "\u2581her": 225,
  "\u2581derechos": 226,
  "\u2581here": 227,
  "\u2581us": 228,
  "\u2581shall": 229,
  "c": 230,
  "\u2581qu\u00e9": 231,
  "\u2581dos": 232,
  "\u2581social": 233,
  "\u2581some": 234,
  "\u2581than": 235,
  "\u2581tiene": 236,
  "er": 237,
  "\u2581particular": 238,
  "\u2581muy": 239,
  "\u2581countries": 240,
  "\u2581those": 241,
  "\u2581re": 242,
  "ve": 243,
  "\u2581don": 244,
  "\u2581art\u00edculo": 245,
  "\u2581s": 246,
  "\u2581rights": 247,
  "\u2581E": 248,
  "\u2581made": 249,
  "ly": 250,
  "\u2581personas": 251,
  "\u2581development": 252,
  "\u2581desde": 253,
  "\u2581between": 254,
  "\u2581well": 255,
  "\u2581Comit\u00e9": 256,
  "\u2581European": 257,
  "\u2581hacer": 258,
  "\u2581vez": 259,
  "la": 260,
  "b": 261,
  "\u2581otros": 262,
  "\u2581two": 263,
  "\u00e1": 264,
  "\u2581need": 265,
  "\u2581B": 266,
  "\u2581ya": 267,
  "\u2581use": 268,
  "\u2581first": 269,
  "i": 270,
  "\u2581over": 271,
  "\u2581get": 272,
  "\u2581take": 273,
  "\u2581trabajo": 274,
  "\u2581must": 275,
  "ndo": 276,
  "\u2581report": 277,
  "Qu\u00e9": 278,
  "lo": 279,
  "\u2581medidas": 280,
  "\u2581through": 281,
  "\u2581now": 282,
  "\u2581tiempo": 283,
  "in": 284,
  "\u25816": 285,
  "\u2581could": 286,
  "mente": 287,
  "on": 288,
  "\u2581human": 289,
  "\u2581go": 290,
  "\u2581where": 291,
  "\u2581years": 292,
  "\u2581aqu\u00ed": 293,
  "\u2581general": 294,
  "\u2581per\u00edodo": 295,
  "\u2581miembros": 296,
  "\u2581lugar": 297,
  "\u2581make": 298,
  "de": 299,
  "\u2581P": 300,
  "\u2581hay": 301,
  "\u2581hasta": 302,
  "\u2581State": 303,
  "\u2581cada": 304,
  "\u2581informe": 305,
  "\u2581per": 306,
  "\u2581including": 307,
  "\u2581Estado": 308,
  "\u2581est\u00e1n": 309,
  "\u2581very": 310,
  "\u2581support": 311,
  "\u2581\u2013": 312,
  "\u2581servicios": 313,
  "\u2581durante": 314,
  "al": 315,
  "\u2581national": 316,
  "\u2581programa": 317,
  "\u258118": 318,
  "\u2581todas": 319,
  "\u00f3": 320,
  "\u258115": 321,
  "l": 322,
  "\u2581said": 323,
  "en": 324,
  "\u2581want": 325,
  "ba": 326,
  "\u2581way": 327,
  "\u2581[": 328,
  "\u25817": 329,
  "\u2581vida": 330,
  "\u2581against": 331,
  "\u2581But": 332,
  "\u2581see": 333,
  "\u2581most": 334,
  "\u2581That": 335,
  "\u2581forma": 336,
  "\u2581internacional": 337,
  "\u2581eso": 338,
  "\u2581sistema": 339,
  "\u2581women": 340,
  "\u2581mejor": 341,
  "\u2581era": 342,
  "\u2581system": 343,
  "\u2581Article": 344,
  "\u2581actividades": 345,
  "no": 346,
  "\u2581If": 347,
  "\u2581children": 348,
  "\u258120": 349,
  "\u2581Lo": 350,
  "\u2581Con": 351,
  "\u2581\u2014": 352,
  "\u2581nos": 353,
  "\u2581debe": 354,
  "\u2581Al": 355,
  "me": 356,
  "\u2581esto": 357,
  "\u2581derecho": 358,
  "g": 359,
  "\u2581aplicaci\u00f3n": 360,
  "to": 361,
  "\u25818": 362,
  "\u2581cuenta": 363,
  "\u2581she": 364,
  "\u258130": 365,
  "\u2581ese": 366,
  "\u258112": 367,
  "\u2581world": 368,
  "\u2581Mr": 369,
  "\u2581how": 370,
  "\".": 371,
  "\u2581mundo": 372,
  "]": 373,
  "\u2581So": 374,
  "\u2581pueden": 375,
  "\u2581fin": 376,
  "\u2581Me": 377,
  "\u2581Member": 378,
  "\u2581otras": 379,
  "le": 380,
  "\u2581being": 381,
  "\u2581sido": 382,
  "\u2581sea": 383,
  "\u2581country": 384,
  "\u2581Pero": 385,
  "\u2581God": 386,
  "\u2581good": 387,
  "\u2581seguridad": 388,
  "\u2581For": 389,
  "\u2581order": 390,
  "\u2581humanos": 391,
  "\u2581Dios": 392,
  "ci\u00f3n": 393,
  "\u2581S\u00ed": 394,
  ".\"": 395,
  "\u2581ni\u00f1os": 396,
  "\u2581many": 397,
  "\u2581law": 398,
  "L": 399,
  "\u2581tanto": 400,
  "\u2581hab\u00eda": 401,
  "\u2581did": 402,
  "\u2581...": 403,
  "\u2581pa\u00eds": 404,
  "\u2581number": 405,
  "\u2581Para": 406,
  "th": 407,
  "\u2581mismo": 408,
  "\u2581There": 409,
  "\u2581services": 410,
  "\u2581control": 411,
  "2": 412,
  "\u2581think": 413,
  "\u2581because": 414,
  "\u2581uno": 415,
  "\u2581s\u00f3lo": 416,
  "\u2581before": 417,
  "\u2581Oh": 418,
  "\u2581gran": 419,
  "\u2581They": 420,
  "\u2581after": 421,
  "\u2581same": 422,
  "an": 423,
  "\u2581proyecto": 424,
  "\u2581O": 425,
  "\u2581\u00e9l": 426,
  "\u2581life": 427,
  "\u2581hecho": 428,
  "\u2581personal": 429,
  "\u2581measures": 430,
  "\u2581caso": 431,
  "\u2581To": 432,
  "I": 433,
  "\u2581d\u00eda": 434,
  "\u2581resoluci\u00f3n": 435,
  "\u2581a\u00f1o": 436,
  "\u2581antes": 437,
  "\u2581sesiones": 438,
  "\u2581part": 439,
  "\u2581sector": 440,
  "\u25819": 441,
  "\u2581within": 442,
  "\u2581respecto": 443,
  "\u2581ahora": 444,
  "\u2581then": 445,
  "\u2581D": 446,
  "\u2581total": 447,
  "\u2581yo": 448,
  "\u2581resolution": 449,
  "\u2581back": 450,
  "\u2581activities": 451,
  "\u2581used": 452,
  "\u2581year": 453,
  "\u2581mayor": 454,
  "\u2581even": 455,
  "\u2581mujeres": 456,
  "\u2581public": 457,
  "\u2581place": 458,
  "\u2581As": 459,
  "\u2581esa": 460,
  "\u2581porque": 461,
  "\u2581area": 462,
  "\u2581man": 463,
  "\u2581come": 464,
  "\u2581International": 465,
  "\u2581algo": 466,
  "\u2581At": 467,
  "\u258111": 468,
  "\u2581acuerdo": 469,
  "\u2581best": 470,
  "\u2581menos": 471,
  "\u2581apoyo": 472,
  "\u2581Sr": 473,
  "\u2581nivel": 474,
  "\u2581implementation": 475,
  "\u2581down": 476,
  "or": 477,
  "\u2581during": 478,
  "\u2581recursos": 479,
  "\u2581Convention": 480,
  "\u2581Su": 481,
  "\u2581presente": 482,
  "\u2581got": 483,
  "\u2581hace": 484,
  "3": 485,
  "\u2581Un": 486,
  "\u00e9": 487,
  "\u2581ni": 488,
  "\u2581regional": 489,
  "E": 490,
  "\u258114": 491,
  "\u2581Gobierno": 492,
  "\u258116": 493,
  "B": 494,
  "\u201d": 495,
  "\u2581programas": 496,
  "\u2581Government": 497,
  "\u2581plan": 498,
  "\u2581All": 499,
  "\u2581F": 500,
  "\u2581relaci\u00f3n": 501,
  "\u2581day": 502,
  "dos": 503,
  "\u2581without": 504,
  "\u2581despu\u00e9s": 505,
  "\u2581datos": 506,
  "\u2581nuevo": 507,
  "\u2581L": 508,
  "\u2581T": 509,
  "\u2581economic": 510,
  "\u2581following": 511,
  "\u2581going": 512,
  "\u2581important": 513,
  "ra": 514,
  "\u2581session": 515,
  "\u2581manera": 516,
  "\u2581situaci\u00f3n": 517,
  "\u2581estos": 518,
  "\u2581each": 519,
  "\u2581otra": 520,
  "\u2581local": 521,
  "\u2581Re": 522,
  "\u2581Assembly": 523,
  "das": 524,
  "\u2581tres": 525,
  "\u2581otro": 526,
  "\u2581three": 527,
  "\u2581ellos": 528,
  "\u2581nacional": 529,
  "\u2581case": 530,
  "\u2581tipo": 531,
  "\u258117": 532,
  "\u2581Asamblea": 533,
  "\u2581help": 534,
  "\u258119": 535,
  "\u2581proceso": 536,
  "\u2581both": 537,
  "\u2581tener": 538,
  "\u2581Este": 539,
  "\u2581New": 540,
  "\u2581process": 541,
  "\u2581donde": 542,
  "\u2581pol\u00edtica": 543,
  "\u00ad": 544,
  "\u2581provide": 545,
  "\u2581tienen": 546,
  "ta": 547,
  "co": 548,
  "\u2581casa": 549,
  "\u2581non": 550,
  "\u2581usted": 551,
  "\u2581She": 552,
  "\u258113": 553,
  "\u2581meeting": 554,
  "\u2581ver": 555,
  "\u2581set": 556,
  "\u2581importante": 557,
  "\u2581Presidente": 558,
  "\u2581level": 559,
  "\u2581say": 560,
  "\u2581base": 561,
  "\u2581n\u00famero": 562,
  "\u2581b": 563,
  "\u2581own": 564,
  "\u00eda": 565,
  "\u2581security": 566,
  "\u2581does": 567,
  "\u2581G": 568,
  "\u2581Uni\u00f3n": 569,
  "\u2581cualquier": 570,
  "\u2581nuestro": 571,
  "\u2581Social": 572,
  "com": 573,
  "\u258125": 574,
  "\u2581tan": 575,
  "ar": 576,
  "\u2581organizaciones": 577,
  "No": 578,
  "\u258124": 579,
  "\u2581health": 580,
  "\u2581provided": 581,
  "\u2581productos": 582,
  "\u2581mucho": 583,
  "\u2581Esta": 584,
  "Y": 585,
  "\u2581Sin": 586,
  "\u2581M": 587,
  "\u2581programme": 588,
  "General": 589,
  "\u2581much": 590,
  "\u2581p": 591,
  "\u2581different": 592,
  "k": 593,
  "\u2581How": 594,
  "\u2581policy": 595,
  "\u2581embargo": 596,
  "\u2581real": 597,
  "\u2581cooperaci\u00f3n": 598,
  "\u2581medio": 599,
  "\u2581protecci\u00f3n": 600,
  "\u2581favor": 601,
  "\u2581high": 602,
  "\u2581Well": 603,
  "\u2581legal": 604,
  "\u2581Te": 605,
  "\u2581Union": 606,
  "\u2581financial": 607,
  "\u2581ensure": 608,
  "ron": 609,
  "\u2581Grupo": 610,
  "\u2581cooperation": 611,
  "\u2581long": 612,
  "\u2581Secretary": 613,
  "el": 614,
  "D": 615,
  "\u2581still": 616,
  "\u2581period": 617,
  "na": 618,
  "\u2581decir": 619,
  "\u2581Le": 620,
  "\u2581taken": 621,
  "\u2581toda": 622,
  "\u2581Secretario": 623,
  "\u2581internacionales": 624,
  "\u2581condiciones": 625,
  "\u2581President": 626,
  "\u2581available": 627,
  "\u2581d\u00edas": 628,
  "\u2581solo": 629,
  "\u2581members": 630,
  "\u2581paz": 631,
  "\u2581final": 632,
  "\u2581data": 633,
  "\u2581find": 634,
  "\u2581millones": 635,
  "\u2581ejemplo": 636,
  "\u2581nuestra": 637,
  "\u2581Reglamento": 638,
  "\u2581On": 639,
  "\u2581last": 640,
  "\u2581possible": 641,
  "\u2581nacionales": 642,
  "\u2581end": 643,
  "\u2581Internacional": 644,
  "\u2581posible": 645,
  "\u2581Convenci\u00f3n": 646,
  "\u2581civil": 647,
  "\u2581mediante": 648,
  "\u2581Mi": 649,
  "\u2581momento": 650,
  "\u2581Europea": 651,
  "\u2581areas": 652,
  "\u2581give": 653,
  "\u2581c": 654,
  "\u2581Yeah": 655,
  "\u2581free": 656,
  "\u2581resources": 657,
  "\u2581nombre": 658,
  "\u2581estaba": 659,
  "is": 660,
  "\u2581further": 661,
  "\u2581Rep\u00fablica": 662,
  "\u258131": 663,
  "\u2581Una": 664,
  "as": 665,
  "\u2581estas": 666,
  "\u2581Republic": 667,
  "\u2581ella": 668,
  "\u2581asistencia": 669,
  "\u2581Do": 670,
  "\u2581since": 671,
  "\u2581deben": 672,
  "\u2581mujer": 673,
  "\u2581Community": 674,
  "\u2581am": 675,
  "\",": 676,
  "\u2581calidad": 677,
  "\u2581political": 678,
  "\u2581les": 679,
  "\u2581siempre": 680,
  "\u2581estar": 681,
  "\u2581cosas": 682,
  "\u2581great": 683,
  "\u2581salud": 684,
  "\u2581_": 685,
  "\u2581access": 686,
  "\u2581U": 687,
  "\u2581too": 688,
  "\u2581\u00ab": 689,
  "\u2581while": 690,
  "\u2581estado": 691,
  "\u2581San": 692,
  "\u2581decision": 693,
  "\u2581uso": 694,
  "\u2581online": 695,
  "\u258121": 696,
  "\u2581II": 697,
  "f": 698,
  "\u2581algunos": 699,
  "\u2581view": 700,
  "\u2581Adem\u00e1s": 701,
  "h": 702,
  "ma": 703,
  "z": 704,
  "\u00e1n": 705,
  "\u2581DE": 706,
  "\u2581nada": 707,
  "\u2581action": 708,
  "\u2581protection": 709,
  "\u2581party": 710,
  "\u2581Yo": 711,
  "\u2581Rights": 712,
  "\u2581December": 713,
  "\u2581capacidad": 714,
  "(": 715,
  "\u2581N": 716,
  "\u2581cuestiones": 717,
  "\u2581working": 718,
  "\u2581education": 719,
  "\u2581p\u00e1rrafo": 720,
  "\u2581necessary": 721,
  "\u2581ex": 722,
  "\u2581Regulation": 723,
  "\u2581nosotros": 724,
  "\u2581marco": 725,
  "\u258122": 726,
  "\u2581organizations": 727,
  "u": 728,
  "P": 729,
  "\u2581d": 730,
  "\u2581R": 731,
  "\u2581situation": 732,
  "p": 733,
  "ciones": 734,
  "\u2581special": 735,
  "\u2581My": 736,
  "\u2581web": 737,
  "\u2581&": 738,
  "\u2581article": 739,
  "os": 740,
  "\u2581paragraph": 741,
  "\u2581issues": 742,
  "\u2581conformidad": 743,
  "\u2581va": 744,
  "\u2581efforts": 745,
  "x": 746,
  "\u2581acceso": 747,
  "\u2581pol\u00edticas": 748,
  "\u2581primera": 749,
  "\u2581Security": 750,
  "\u2581diciembre": 751,
  "\u2581s\u00ed": 752,
  "\u2581d\u00f3lares": 753,
  "\u2581every": 754,
  "1": 755,
  "\u2581dijo": 756,
  "\u2581V": 757,
  "\u2581among": 758,
  "\u2581ser\u00e1": 759,
  "\u2581Unidos": 760,
  "\u2581atenci\u00f3n": 761,
  "\u2581Tambi\u00e9n": 762,
  "di": 763,
  "\u2581partes": 764,
  "\u2581casos": 765,
  "\u2581means": 766,
  "\u2581family": 767,
  "\u2581Israel": 768,
  "\u2581K": 769,
  "\u2581business": 770,
  "Por": 771,
  "\u2581full": 772,
  "O": 773,
  "\u2581training": 774,
  "\u2581something": 775,
  "\u2581service": 776,
  "\u2581cual": 777,
  "\u2581problemas": 778,
  "\u2581ayuda": 779,
  "\u2581materia": 780,
  "\u2581tal": 781,
  "\u2581/": 782,
  "\u2581Seguridad": 783,
  "\u25810": 784,
  "\u2581car": 785,
  "\u2581hotel": 786,
  "\u2581primer": 787,
  "\u2581Development": 788,
  "\u2581hacia": 789,
  "\u2581pre": 790,
  "\u2581adopted": 791,
  "\u2581regard": 792,
  "\u2581accordance": 793,
  "\u2581products": 794,
  "\u2581market": 795,
  "man": 796,
  "\u2581hombre": 797,
  "\u2581Derechos": 798,
  "\u2581cuesti\u00f3n": 799,
  "\u2581present": 800,
  "mo": 801,
  "\u2581little": 802,
  "\u2581Group": 803,
  "\u2581grupo": 804,
  "\u2581never": 805,
  "The": 806,
  "ca": 807,
  "\u2581H": 808,
  "\u2581really": 809,
  "\u2581pro": 810,
  "\u2581esos": 811,
  "\u2581:": 812,
  "\u2581management": 813,
  "ro": 814,
  "\u2581assistance": 815,
  "\u2581global": 816,
  "\u2581persona": 817,
  "\u2581draft": 818,
  "\u2581cent": 819,
  "\u2581better": 820,
  "\u2581water": 821,
  "\u2581ante": 822,
  "\u2581group": 823,
  "\u258128": 824,
  "\u2581punto": 825,
  "\u2581another": 826,
  "\u2581poco": 827,
  "ce": 828,
  "\u2581dentro": 829,
  "nos": 830,
  "\u2581person": 831,
  "\u258123": 832,
  "\u2581resultados": 833,
  "\u2581respect": 834,
  "\u2581based": 835,
  "\u2581co": 836,
  "the": 837,
  "\u2581persons": 838,
  "CE": 839,
  "\u2581decisi\u00f3n": 840,
  "que": 841,
  "\u2581Conference": 842,
  "\u2581off": 843,
  "+": 844,
  "\u2581Human": 845,
  "\u2581child": 846,
  "\u2581conditions": 847,
  "\u2581When": 848,
  "\u2581sino": 849,
  "\u2581given": 850,
  "\u2581million": 851,
  "\u20ac": 852,
  "\u2581mercado": 853,
  "\u2581muchos": 854,
  "\u2581community": 855,
  "\u2581held": 856,
  "\u2581Como": 857,
  "\u2581bajo": 858,
  "les": 859,
  "\u2581m": 860,
  "\u2581home": 861,
  "\u2581simple": 862,
  "\u2581relevant": 863,
  "\u2581love": 864,
  "\u2581inter": 865,
  "\u2581ciudad": 866,
  "\u2581gonna": 867,
  "\u2581trav\u00e9s": 868,
  "\u2581natural": 869,
  "\u2581podr\u00eda": 870,
  "\u2581point": 871,
  "\u2581Yes": 872,
  "\u2581programmes": 873,
  "\u2581around": 874,
  "\u2581l\u00ednea": 875,
  "\u2581World": 876,
  "\u2581National": 877,
  "\u2581empresas": 878,
  "\u2581poder": 879,
  ");": 880,
  "\u2581agua": 881,
  "\u2581put": 882,
  "\u2581Cuando": 883,
  "\u2581name": 884,
  "\u2581horas": 885,
  "\u2581related": 886,
  "\u2581look": 887,
  "\u2581normas": 888,
  "\u258150": 889,
  "\u2581second": 890,
  "\u2581account": 891,
  "\u2581increase": 892,
  "\u2581fuera": 893,
  "\u2581change": 894,
  "\u2581%": 895,
  "\u2581especial": 896,
  "\u2581EU": 897,
  "ne": 898,
  "\u258127": 899,
  "\u2581already": 900,
  "us": 901,
  "\u2581quality": 902,
  "\u2581again": 903,
  "\u2581gesti\u00f3n": 904,
  "\u2581c\u00f3mo": 905,
  "\u2581days": 906,
  "\u2581nuestros": 907,
  "\u2581found": 908,
  "ers": 909,
  "\u2581cases": 910,
  "\u2581Hotel": 911,
  "\u2581material": 912,
  "\u2581needs": 913,
  "\u2581idea": 914,
  "\u2581s\u00e9": 915,
  "\u2581continue": 916,
  "EC": 917,
  "\u2581veces": 918,
  "\u2581haber": 919,
  "\u2581As\u00ed": 920,
  "\u2581necesario": 921,
  "\u2581tell": 922,
  "\u2581always": 923,
  "\u2581proyectos": 924,
  "\u2581apartado": 925,
  "\u2581Conferencia": 926,
  "\u2581grupos": 927,
  "\u258126": 928,
  "\u2581i": 929,
  "\u2581servicio": 930,
  "\u2581Ya": 931,
  "\u2581educaci\u00f3n": 932,
  "\u25811.": 933,
  "\u2581basis": 934,
  "able": 935,
  "K": 936,
  "\u2581disposiciones": 937,
  "\u2581Esto": 938,
  "\u2581May": 939,
  "\u2581nueva": 940,
  "\u2581things": 941,
  "\u2581dice": 942,
  "\u2581investigaci\u00f3n": 943,
  "un": 944,
  "\u2581peace": 945,
  "ban": 946,
  "\u2581siguiente": 947,
  "\u2581parties": 948,
  "\u2581gente": 949,
  "\u2581esas": 950,
  "\u2581Office": 951,
  "\u2581armas": 952,
  "\u2581June": 953,
  "\u2581small": 954,
  "\u2581Europa": 955,
  "\u2581tema": 956,
  "\u2581established": 957,
  "\u2581Tribunal": 958,
  "\u2581future": 959,
  "\u2581problema": 960,
  "\u2581Europe": 961,
  "\u2581estoy": 962,
  "\u2581These": 963,
  "\u2581seg\u00fan": 964,
  "\u2581let": 965,
  "\u2581Desarrollo": 966,
  "\u2581poblaci\u00f3n": 967,
  "\u2581China": 968,
  "\u2581why": 969,
  "\u2581called": 970,
  "T": 971,
  "\u2581However": 972,
  "\u2581role": 973,
  "\u2581ti": 974,
  "\u2581objetivos": 975,
  "\u2581care": 976,
  "\u2581fueron": 977,
  "\u2581sociedad": 978,
  "\u2581might": 979,
  "\u2581didn": 980,
  "los": 981,
  "\u2581Special": 982,
  "\u2581Why": 983,
  "\u2581objetivo": 984,
  "\u2581together": 985,
  "\u2581haya": 986,
  "\u2581Bueno": 987,
  "\u2581example": 988,
  "\u2581participaci\u00f3n": 989,
  "\u2581project": 990,
  "\u2581fact": 991,
  "\u2581ley": 992,
  "\u2581specific": 993,
  "up": 994,
  "\u2581junio": 995,
  "\u2581trata": 996,
  "\u25812.": 997,
  "\u2581With": 998,
  "\u2581developing": 999,
  "ga": 1000,
  "\u2581acerca": 1001,
  "F": 1002,
  "\u2581appropriate": 1003,
  "ci": 1004,
  "\u2581include": 1005,
  "\u2581review": 1006,
  "\u2581course": 1007,
  "\u2581upon": 1008,
  "\u2581crisis": 1009,
  "\u2581labor": 1010,
  "\u2581mejorar": 1011,
  "\u2581doing": 1012,
  "\u2581Ha": 1013,
  "\u2581necesidad": 1014,
  "\u2581staff": 1015,
  "\u2581ello": 1016,
  "\u2581groups": 1017,
  "\u258129": 1018,
  "\u2581authorities": 1019,
  "\u2581mean": 1020,
  "\u2581ir": 1021,
  "\u2581able": 1022,
  "\u2581question": 1023,
  "\u2581government": 1024,
  "\u2581men": 1025,
  "\u2581comunidad": 1026,
  "\u2581Oficina": 1027,
  "\u2581familia": 1028,
  "\u2581actual": 1029,
  "\u2581away": 1030,
  "\u2581nuclear": 1031,
  "\u2581trade": 1032,
  "\u2581Internet": 1033,
  "\u2581examen": 1034,
  "\u2581Now": 1035,
  "\u2581Don": 1036,
  "\u2581m\u00ed": 1037,
  "\u2581York": 1038,
  "\u2581puedo": 1039,
  "\u2581provisions": 1040,
  "\u2581siguientes": 1041,
  "\u2581Programa": 1042,
  "\u2581acci\u00f3n": 1043,
  "\u2022": 1044,
  "\u2581An": 1045,
  "\u2581autoridades": 1046,
  "\u2581certain": 1047,
  "\u2581importancia": 1048,
  "go": 1049,
  "\u2581reuni\u00f3n": 1050,
  "G": 1051,
  "\u2581effective": 1052,
  "\u2581informes": 1053,
  "\u2581cambio": 1054,
  "\u2581capital": 1055,
  "\u2581call": 1056,
  "\u2581principal": 1057,
  "\u2581body": 1058,
  "\u2581misma": 1059,
  "\u2581a\u00fan": 1060,
  "H": 1061,
  "M": 1062,
  "\u2581next": 1063,
  "\u2581capacity": 1064,
  "La": 1065,
  "\u2581common": 1066,
  "\u2581fecha": 1067,
  "\u2581Hey": 1068,
  "\u2581July": 1069,
  "\u2581Co": 1070,
  "\u2581mis": 1071,
  "\u2581Your": 1072,
  "\u2581necesidades": 1073,
  "\u2581concerned": 1074,
  "\u2581mientras": 1075,
  "\u2581therefore": 1076,
  "\u2581hoy": 1077,
  "\u2581city": 1078,
  "\u2581One": 1079,
  "\u2581*": 1080,
  "\u2581Court": 1081,
  "\u2581main": 1082,
  "\u2581power": 1083,
  "\u2581society": 1084,
  "\u2581diferentes": 1085,
  "\u2581Go": 1086,
  "El": 1087,
  "\u2581unos": 1088,
  "con": 1089,
  "\u00bb": 1090,
  "\u2581institutions": 1091,
  "\u2581instituciones": 1092,
  "\u2581Let": 1093,
  "\u2581debate": 1094,
  "\u2581efectos": 1095,
  "\u2581whether": 1096,
  "\u2581technical": 1097,
  "\u2581regi\u00f3n": 1098,
  "\u2581equipo": 1099,
  "\u2581form": 1100,
  "\u2581today": 1101,
  "C\u00f3mo": 1102,
  "\u2581location": 1103,
  "\u2581done": 1104,
  "\u2581house": 1105,
  "\u2581deber\u00eda": 1106,
  "\u2581algunas": 1107,
  "\u2581nuevas": 1108,
  "\u2581t\u00fa": 1109,
  "\u2581Especial": 1110,
  "\u2581experience": 1111,
  "\u2581tengo": 1112,
  "\u2581thing": 1113,
  "\u2581plazo": 1114,
  "\u2581room": 1115,
  "\u2581medios": 1116,
  "\u2581open": 1117,
  "\u2581third": 1118,
  "\u2581medida": 1119,
  "\u2581esfuerzos": 1120,
  "\u2581various": 1121,
  "\u2581Art\u00edculo": 1122,
  "\u2581above": 1123,
  "\u2581Gracias": 1124,
  "\u2581agenda": 1125,
  "\u2581sesi\u00f3n": 1126,
  "\u2581abogados": 1127,
  "W": 1128,
  "\u2581Come": 1129,
  "\u2581reports": 1130,
  "\u2581results": 1131,
  "\u2581J": 1132,
  "\u2581incluso": 1133,
  "\u2581Ley": 1134,
  "\u2581entonces": 1135,
  "\u258140": 1136,
  "\u2581sociales": 1137,
  "\u2581considered": 1138,
  "\u2581result": 1139,
  "\u2581dicho": 1140,
  "\u2581taking": 1141,
  "\u2581dar": 1142,
  "\u2581rules": 1143,
  "\u2581progress": 1144,
  "\u2014": 1145,
  "\u2581libre": 1146,
  "\u2581julio": 1147,
  "\u2581Se\u00f1or": 1148,
  "\u2581current": 1149,
  "\u2581October": 1150,
  "\u2581hombres": 1151,
  "\u25811,": 1152,
  "\u2581meses": 1153,
  "\u2581responsabilidad": 1154,
  "st": 1155,
  "\u2581become": 1156,
  "\u2581few": 1157,
  "\u2581Africa": 1158,
  "\u2581until": 1159,
  "\u2581modo": 1160,
  "\u2581noche": 1161,
  "\u2581di": 1162,
  "\u2581especialmente": 1163,
  "\u2581mayor\u00eda": 1164,
  "\u2581region": 1165,
  "N": 1166,
  "\u2581100": 1167,
  "\u2581anti": 1168,
  "\u2581issue": 1169,
  "\u2581old": 1170,
  "ia": 1171,
  "\u00b0": 1172,
  "\u2581times": 1173,
  "\u2581November": 1174,
  "\u2581violencia": 1175,
  "\u2581English": 1176,
  "\u2581application": 1177,
  "\u2581Parlamento": 1178,
  "\u2581September": 1179,
  "\u2581producci\u00f3n": 1180,
  "\u2581cultural": 1181,
  "\u2581pueblo": 1182,
  "\u2581lista": 1183,
  "\u2581Humanos": 1184,
  "\u2581zona": 1185,
  "\u2581media": 1186,
  "\u2581field": 1187,
  "\u2581cabo": 1188,
  "\u2581required": 1189,
  "\u2581private": 1190,
  "\u2581March": 1191,
  "\u2581least": 1192,
  "\u2581mundial": 1193,
  "\u2581verdad": 1194,
  "\u2581Mundial": 1195,
  "\u2581Hay": 1196,
  "\u2581centro": 1197,
  "\u2581\u201d": 1198,
  "\u2581Europeo": 1199,
  "ic": 1200,
  "\u25812000": 1201,
  "\u2581improve": 1202,
  "\u2581red": 1203,
  "\u2581large": 1204,
  "\u2581experiencia": 1205,
  "\u2581valor": 1206,
  "\u2581empresa": 1207,
  "\u2581problem": 1208,
  "\u2581tus": 1209,
  "\u2581individual": 1210,
  "\u2581Car": 1211,
  "\u2581addition": 1212,
  "\u2581food": 1213,
  "ity": 1214,
  "\u25812005": 1215,
  "\u2581nuevos": 1216,
  "\u2581pasado": 1217,
  "#": 1218,
  "\u2581light": 1219,
  "\u2581evaluaci\u00f3n": 1220,
  "\u2581est\u00e1s": 1221,
  "\u2581largo": 1222,
  "\u2581state": 1223,
  "\u2581nunca": 1224,
  "\u2581central": 1225,
  "\u2581octubre": 1226,
  "\u2581play": 1227,
  "\u2581subject": 1228,
  "\u2581force": 1229,
  "\u2581Parliament": 1230,
  "\u2581took": 1231,
  "\u2581believe": 1232,
  "\u2581fundamental": 1233,
  "\u2581budget": 1234,
  "\u2581population": 1235,
  "\u2581whole": 1236,
  "\u2581night": 1237,
  "\u2581organizaci\u00f3n": 1238,
  "V": 1239,
  "\u2581principales": 1240,
  "\u2581sexual": 1241,
  "\u2581problems": 1242,
  "\u2581having": 1243,
  "\u2581lucha": 1244,
  "\u2581p\u00fablico": 1245,
  "\u2581hand": 1246,
  "\u2581noviembre": 1247,
  "\u25812007": 1248,
  "\u2581sitio": 1249,
  "ja": 1250,
  "\u2581policies": 1251,
  "pa": 1252,
  "\u2581garantizar": 1253,
  "4": 1254,
  "\u2581Economic": 1255,
  "--": 1256,
  "las": 1257,
  "ation": 1258,
  "\u2581Ahora": 1259,
  "\u2581km": 1260,
  "\u2581anexo": 1261,
  "\u2581documento": 1262,
  "\u2581left": 1263,
  "\u2581objeto": 1264,
  "\u2581etc": 1265,
  "\u2581show": 1266,
  "\u25813.": 1267,
  "\u2581production": 1268,
  "\u2581grandes": 1269,
  "\u2581using": 1270,
  "\u2581Organizaci\u00f3n": 1271,
  "\u2581papel": 1272,
  "\u2581several": 1273,
  "\u2581Nacional": 1274,
  "\u2581Pro": 1275,
  "\u2581quiero": 1276,
  "\u2581Jesus": 1277,
  "\u2581Plan": 1278,
  "\u2581septiembre": 1279,
  "\u2581four": 1280,
  "\u2581empleo": 1281,
  "\u2581money": 1282,
  "\u2581Can": 1283,
  "\u25812006": 1284,
  "\u2581cuatro": 1285,
  "\u2581sub": 1286,
  "\u2581violence": 1287,
  "\u2581January": 1288,
  "\u2581Programme": 1289,
  "\u2581producto": 1290,
  "\u2581treatment": 1291,
  "\u2581Est\u00e1": 1292,
  "\u2581respuesta": 1293,
  "r\u00e1": 1294,
  "\u2581formaci\u00f3n": 1295,
  "\u2581miembro": 1296,
  "w": 1297,
  "\u2581projects": 1298,
  "\u2581months": 1299,
  "):": 1300,
  "\u25812004": 1301,
  "\u2581Eso": 1302,
  "\u2581levels": 1303,
  "ter": 1304,
  "\u2581research": 1305,
  "ti": 1306,
  "\u2581Comunidad": 1307,
  "\u2581sentido": 1308,
  "\u2581Nueva": 1309,
  "\u2581risk": 1310,
  "\u2581hab\u00edan": 1311,
  "\u2581adem\u00e1s": 1312,
  "\u2581came": 1313,
  "\u2581South": 1314,
  "\u2581cuanto": 1315,
  "\u2581frente": 1316,
  "\u2581address": 1317,
  "\u2581others": 1318,
  "\u2581propuesta": 1319,
  "\u2581Where": 1320,
  "\u2581due": 1321,
  "\u2581muchas": 1322,
  "\u2581creaci\u00f3n": 1323,
  "\u2581siendo": 1324,
  "\u2581particularly": 1325,
  "$": 1326,
  "\u2581THE": 1327,
  "\u2581requirements": 1328,
  "idad": 1329,
  "\u2581juego": 1330,
  "\u2581falta": 1331,
  "\u2581dinero": 1332,
  "\u2581da": 1333,
  "\u2581energy": 1334,
  "\u2581cannot": 1335,
  "\u2581young": 1336,
  "\u2581framework": 1337,
  "\u2581gastos": 1338,
  "\u2581--": 1339,
  "\u2581zonas": 1340,
  "\u2581recomendaciones": 1341,
  "\u2581ofrece": 1342,
  "\u2581living": 1343,
  "\u2581tenemos": 1344,
  "\u2581terms": 1345,
  "\u2581funci\u00f3n": 1346,
  "\u2581segundo": 1347,
  "\u2581enero": 1348,
  "\u2581matter": 1349,
  "\u2581sistemas": 1350,
  "\u2581police": 1351,
  "\u2581Partes": 1352,
  "ste": 1353,
  "\u2581mayo": 1354,
  "\u2581less": 1355,
  "so": 1356,
  "\u2581marzo": 1357,
  "\u2581school": 1358,
  "\u2581hizo": 1359,
  "\u2581More": 1360,
  "\u2581tierra": 1361,
  "\u2581recommendations": 1362,
  "\u2581far": 1363,
  "va": 1364,
  "\u2581n": 1365,
  "\u2581keep": 1366,
  "\u2581varios": 1367,
  "\u2581His": 1368,
  "\u2581yet": 1369,
  "it": 1370,
  "\u2581com\u00fan": 1371,
  "\u2581systems": 1372,
  "\u2581pr\u00e1ctica": 1373,
  "\u2581live": 1374,
  "v": 1375,
  "\u2581hemos": 1376,
  "\u2581saber": 1377,
  "\u2581received": 1378,
  "\u2581tratamiento": 1379,
  "\u25812008": 1380,
  "\u2581especially": 1381,
  "pe": 1382,
  "\u2581virtud": 1383,
  "\u2581W": 1384,
  "\u2581importantes": 1385,
  "\u2581estudio": 1386,
  ".1": 1387,
  "dor": 1388,
  "\u2581product": 1389,
  "\u25812,": 1390,
  "\u2581concerning": 1391,
  "\u2581Mar": 1392,
  "\u2581developed": 1393,
  "\u2581obtener": 1394,
  "\u2581principio": 1395,
  "ol": 1396,
  "ado": 1397,
  "tu": 1398,
  "\u2581sure": 1399,
  "\u2581principios": 1400,
  "\u2581April": 1401,
  "\u2581clear": 1402,
  "\u2581list": 1403,
  "\u2581arreglo": 1404,
  "\u2581major": 1405,
  "\u2581edad": 1406,
  "\u2581making": 1407,
  "r\u00eda": 1408,
  "\u2581file": 1409,
  "\u2581buena": 1410,
  "\u2581ambiente": 1411,
  "\u2581heart": 1412,
  "De": 1413,
  "\u2581kind": 1414,
  "\u2581thought": 1415,
  "\u2581partir": 1416,
  "\u2581dem\u00e1s": 1417,
  "\u2581towards": 1418,
  "\u2581America": 1419,
  "\u2581UE": 1420,
  "\u2581five": 1421,
  "\u2581Organization": 1422,
  "\u2581tomar": 1423,
  "\u2581agreement": 1424,
  "\u2581sigue": 1425,
  "\u2581line": 1426,
  "\u25812009": 1427,
  "\u2581age": 1428,
  "\u2581land": 1429,
  "\u2581date": 1430,
  "\u2581importance": 1431,
  "\u25812003": 1432,
  "mi": 1433,
  "\u2581soy": 1434,
  "\u2581crear": 1435,
  "\u2581request": 1436,
  "\u2581hablar": 1437,
  ".2": 1438,
  "\u2581\u00faltimo": 1439,
  "\u25812002": 1440,
  "\u2581presupuesto": 1441,
  "\u2581historia": 1442,
  "\u2581libertad": 1443,
  "\u2581post": 1444,
  "\u2581seguir": 1445,
  "\u2581pueda": 1446,
  "\u2581company": 1447,
  "\u2581riesgo": 1448,
  "\u2581u": 1449,
  "\u2581study": 1450,
  "\u2581environment": 1451,
  "\u2581proposed": 1452,
  "\u2581Nos": 1453,
  "ble": 1454,
  "nte": 1455,
  "\u2581ejecuci\u00f3n": 1456,
  "\u2581aumentar": 1457,
  "\u2581mar": 1458,
  "\u2581aunque": 1459,
  "\u2581gobierno": 1460,
  "\u2581Okay": 1461,
  "\u2581position": 1462,
  "\u2581Asia": 1463,
  "\u2581encontrar": 1464,
  "\u2581\u00c1frica": 1465,
  "por": 1466,
  "\u2581cinco": 1467,
  "\u2581inter\u00e9s": 1468,
  "\u2581additional": 1469,
  "\u2581III": 1470,
  "\u25812010": 1471,
  "\u2581ten\u00eda": 1472,
  "*": 1473,
  "\u2581hijo": 1474,
  "ria": 1475,
  "\u2581decisiones": 1476,
  "\u2581futuro": 1477,
  "\u2581gracias": 1478,
  "\u2581promover": 1479,
  "\u2581ever": 1480,
  "\u201d.": 1481,
  "\u2581feel": 1482,
  "\u2581polic\u00eda": 1483,
  "\u2581regionales": 1484,
  "\u2581art\u00edculos": 1485,
  "\u2581parece": 1486,
  "\u2581attention": 1487,
  "\u2581efecto": 1488,
  "\u2581aumento": 1489,
  "\u2581formas": 1490,
  "\u2581orden": 1491,
  "\u2581relativas": 1492,
  "R": 1493,
  "\u2581Na": 1494,
  "ton": 1495,
  "ry": 1496,
  "\u2581Our": 1497,
  "\u2581key": 1498,
  "\u2581interest": 1499,
  "En": 1500,
  "\u2581nota": 1501,
  "\u2581legislation": 1502,
  "\u2581included": 1503,
  "\u2581meet": 1504,
  "\u2581Central": 1505,
  "\u2581close": 1506,
  "\u2581ninguna": 1507,
  "\u2581mal": 1508,
  "\u2581cerca": 1509,
  "\u2581abril": 1510,
  "\u2581providing": 1511,
  "be": 1512,
  "ten": 1513,
  "\u2581military": 1514,
  "\u2581software": 1515,
  "\u2581Not": 1516,
  "net": 1517,
  "\u2581tras": 1518,
  "\u2581impact": 1519,
  "\u2581Dr": 1520,
  "\u2581ni\u00f1o": 1521,
  "\u2581operaciones": 1522,
  "\u2581M\u00e1s": 1523,
  "\u2581bodies": 1524,
  "\u00fc": 1525,
  "\u2581legislaci\u00f3n": 1526,
  "\u2581similar": 1527,
  "\u2581hijos": 1528,
  "\u2581told": 1529,
  "\u2581debido": 1530,
  "res": 1531,
  "\u2581vista": 1532,
  "\u2581quien": 1533,
  "\u2581puedes": 1534,
  "\u2581Que": 1535,
  "\u2581comunicaci\u00f3n": 1536,
  "\u2581tienes": 1537,
  "\u2581anything": 1538,
  "\u2581hora": 1539,
  "\u2581once": 1540,
  "\u2581item": 1541,
  "\u2581procedimiento": 1542,
  "\u2581energ\u00eda": 1543,
  "\u2581Please": 1544,
  "\u2581haciendo": 1545,
  "\u2581organismos": 1546,
  "\u2581X": 1547,
  "\u2581Act": 1548,
  "\u2581Di": 1549,
  "\u2581member": 1550,
  "\u2581Iraq": 1551,
  "\u25812001": 1552,
  "\u2581correspondiente": 1553,
  "\u2581fondos": 1554,
  "\u2581approach": 1555,
  "\u2581Law": 1556,
  "\u2581lawyers": 1557,
  "\u2581costs": 1558,
  "\u2581podemos": 1559,
  "\u00ed": 1560,
  "\u2581promote": 1561,
  "\u2581space": 1562,
  "\u2581Board": 1563,
  "\u2581transporte": 1564,
  "\u2581lado": 1565,
  "\u2581j\u00f3venes": 1566,
  "\u2581Trabajo": 1567,
  "\u2581p\u00fablica": 1568,
  "\u258160": 1569,
  "\u2581death": 1570,
  "\u2581superior": 1571,
  "\u2581alto": 1572,
  "rse": 1573,
  "\u2581archivo": 1574,
  "\u2581establecimiento": 1575,
  "\u2581resultado": 1576,
  "\u2581Parte": 1577,
  "\u2581TV": 1578,
  "ment": 1579,
  "\u2581Directiva": 1580,
  "\u2581fe": 1581,
  "\u2581participation": 1582,
  "\u2581se\u00f1or": 1583,
  "\u2581an\u00e1lisis": 1584,
  "\u2581amount": 1585,
  "\u2581Miembros": 1586,
  "\u2581aid": 1587,
  "\u2581original": 1588,
  "ya": 1589,
  "\u2581fully": 1590,
  "\u2581lograr": 1591,
  "\u2581financiaci\u00f3n": 1592,
  "\u2581document": 1593,
  "\u2581estamos": 1594,
  "\u2581provides": 1595,
  "\u2581categor\u00eda": 1596,
  "\u2581start": 1597,
  "\u2581serie": 1598,
  "\u2581Vamos": 1599,
  "X": 1600,
  "\u2581locales": 1601,
  "\u2581espacio": 1602,
  "\u2581pr\u00e1cticas": 1603,
  "\u2581talk": 1604,
  "ver": 1605,
  "tra": 1606,
  "\u2581encuentra": 1607,
  "\u2581please": 1608,
  "\u2581Directive": 1609,
  "il": 1610,
  "\u2581precios": 1611,
  "bo": 1612,
  "\u2581sean": 1613,
  "\u2581mind": 1614,
  "\u2581meetings": 1615,
  "\u2581lot": 1616,
  "\u2581bring": 1617,
  "\u2581video": 1618,
  "\u2581padre": 1619,
  "fi": 1620,
  "\u2581seguro": 1621,
  "\u2581cost": 1622,
  "\u2581Just": 1623,
  "sa": 1624,
  "\u2581Ver": 1625,
  "\u2581muerte": 1626,
  "per": 1627,
  "\u2581raz\u00f3n": 1628,
  "\u2581submitted": 1629,
  "\u2581referred": 1630,
  "\u2581puesto": 1631,
  "\u2581Director": 1632,
  "\u2581podr\u00e1": 1633,
  "\u2581context": 1634,
  "\u2581procedure": 1635,
  "J": 1636,
  "r\u00e9": 1637,
  "\u2581alguien": 1638,
  "\u2581mantenimiento": 1639,
  "\u2581offers": 1640,
  "Es": 1641,
  "\u2581leave": 1642,
  "\u2581establecer": 1643,
  "\u2581posibilidad": 1644,
  "\u2581everything": 1645,
  "\u2581often": 1646,
  "\u2581according": 1647,
  "\u2581Tratado": 1648,
  "\u2581luego": 1649,
  "\u2581procedimientos": 1650,
  "\u25812011": 1651,
  "\u2581econ\u00f3mica": 1652,
  "\u2581texto": 1653,
  "\u2581comercio": 1654,
  "\u2581color": 1655,
  "\u2581value": 1656,
  "\u2581gender": 1657,
  "\u2581side": 1658,
  "cha": 1659,
  "cu": 1660,
  "\u2581discriminaci\u00f3n": 1661,
  "\u2581guerra": 1662,
  "\u2581todav\u00eda": 1663,
  "\u2581car\u00e1cter": 1664,
  "li": 1665,
  "\u2581however": 1666,
  "\u2581\u00e1rea": 1667,
  "\u2581understand": 1668,
  "\u2581siento": 1669,
  "\u2581relacionados": 1670,
  "\u2581alguna": 1671,
  "za": 1672,
  "\u2581technology": 1673,
  "\u2581\u00e1mbito": 1674,
  "\u2581Are": 1675,
  "\u2581offer": 1676,
  "\u2581Entonces": 1677,
  "\u2581ning\u00fan": 1678,
  "\u2581llegar": 1679,
  "\u2581Treaty": 1680,
  "\u2581hours": 1681,
  "\u2581Home": 1682,
  "\u2581ser\u00eda": 1683,
  "\u2581price": 1684,
  "si": 1685,
  "\u2581Estoy": 1686,
  "\u2581Desde": 1687,
  "\u2581proposal": 1688,
  "and": 1689,
  "\u2581February": 1690,
  "\u25814.": 1691,
  "\u2581Centro": 1692,
  "\u2581realidad": 1693,
  "\u2581judicial": 1694,
  "\u2581nothing": 1695,
  "&": 1696,
  "\u2581contexto": 1697,
  "\u2581known": 1698,
  "\u2581American": 1699,
  "\u2581past": 1700,
  "\u2581Then": 1701,
  "\u2581Parties": 1702,
  "je": 1703,
  "\u2581relativa": 1704,
  "\u2581\u00f3rganos": 1705,
  "\u2581African": 1706,
  "\u2581justicia": 1707,
  "\u2581games": 1708,
  "\u2581Am\u00e9rica": 1709,
  "\u2581Tu": 1710,
  "\u2581quiere": 1711,
  "\u2581eran": 1712,
  "\u2581air": 1713,
  "\u2581consideration": 1714,
  "\u2581logo": 1715,
  "\u2581minutos": 1716,
  "\u2581igual": 1717,
  "\u2581Annex": 1718,
  "\u2581crecimiento": 1719,
  "\u2581dis": 1720,
  "\u2581By": 1721,
  "ch": 1722,
  "\u2581ayudar": 1723,
  "\u2581later": 1724,
  "emos": 1725,
  "\u2581voy": 1726,
  "\u2581follow": 1727,
  "\u2581Ni": 1728,
  "\u25812012": 1729,
  ".5": 1730,
  "\u2581workers": 1731,
  "\u2581type": 1732,
  "\u2581war": 1733,
  "\u2581note": 1734,
  "ness": 1735,
  "\u2581August": 1736,
  "\u2581Who": 1737,
  "son": 1738,
  "ist": 1739,
  "\u2581juegos": 1740,
  "\u2581econ\u00f3mico": 1741,
  "\u2581seen": 1742,
  "\u2581Man": 1743,
  "\u2581Be": 1744,
  "ck": 1745,
  "\u2581High": 1746,
  "ir": 1747,
  "\u2581referencia": 1748,
  "\u2581criminal": 1749,
  "\u2581gas": 1750,
  "\u2581growth": 1751,
  "\u2581pobreza": 1752,
  "\u2581nature": 1753,
  "ada": 1754,
  "\u2581pertinentes": 1755,
  "\u2581building": 1756,
  "\u2581Or": 1757,
  "\u2581creo": 1758,
  "\u2581\u00faltimos": 1759,
  "\u2581pues": 1760,
  "\u2581words": 1761,
  "\u2581knowledge": 1762,
  "\u2581g": 1763,
  "\u2581dado": 1764,
  "\u2581trabajadores": 1765,
  "\u2581\u00fanico": 1766,
  "\u2581tecnolog\u00eda": 1767,
  "ri": 1768,
  "\u2581status": 1769,
  ".4": 1770,
  "\u2581Jes\u00fas": 1771,
  "\u2581After": 1772,
  "\u2581nuestras": 1773,
  "ka": 1774,
  "ie": 1775,
  "\u2581rate": 1776,
  "\u2581low": 1777,
  "\u2581increased": 1778,
  "\u2581permite": 1779,
  "\u2581casi": 1780,
  "\u2581Argentina": 1781,
  "\u2581\u00c9l": 1782,
  "\u2581stay": 1783,
  "\u2581declaraci\u00f3n": 1784,
  "\u2581won": 1785,
  "\u2581\u2018": 1786,
  "\u2581located": 1787,
  "\u2581camino": 1788,
  "\u2581niveles": 1789,
  "_": 1790,
  "\u2581US": 1791,
  "\u2581cuales": 1792,
  "\u2581Fund": 1793,
  "\u2581Son": 1794,
  "\u2581consider": 1795,
  "\u2581all\u00ed": 1796,
  "\u2581site": 1797,
  "\u2581p\u00e1gina": 1798,
  "\u2581effect": 1799,
  "\u2581reuniones": 1800,
  "\u2581t\u00e9cnica": 1801,
  "\u2581Vi": 1802,
  "\u2581alta": 1803,
  "\u2581junto": 1804,
  "\u2581aplicar": 1805,
  "\u2581luz": 1806,
  "ni": 1807,
  "\u2581UN": 1808,
  "\u2581realizar": 1809,
  "\u2581febrero": 1810,
  "\u2581environmental": 1811,
  "\u2581game": 1812,
  "\u2581procedures": 1813,
  "\u2581provisional": 1814,
  "\u2581Bar": 1815,
  "\u2581mantener": 1816,
  "\u2581representantes": 1817,
  "\u25812013": 1818,
  "\u2581relating": 1819,
  "sen": 1820,
  "\u2581amor": 1821,
  "\u2581cuerpo": 1822,
  "\u2581ask": 1823,
  "\u2581Women": 1824,
  "\u2581Thank": 1825,
  "\u2581palabras": 1826,
  "\u2581Some": 1827,
  "\u2581eres": 1828,
  "\u2581See": 1829,
  "ur": 1830,
  "\u2581Ministerio": 1831,
  "\u2581operations": 1832,
  "\u2581Cuba": 1833,
  "\u2581sustainable": 1834,
  "\u2581existing": 1835,
  "\u2581involved": 1836,
  "\u2581utilizar": 1837,
  "\u2581actividad": 1838,
  "\u2581property": 1839,
  "\u2581went": 1840,
  "\u2581coraz\u00f3n": 1841,
  "\u2581needed": 1842,
  "\u2581single": 1843,
  "\u2581equipment": 1844,
  "\u2581decided": 1845,
  "\u2581documentos": 1846,
  "\u201d,": 1847,
  "\u2581conflict": 1848,
  "\u2581marketing": 1849,
  "\u2581funcionarios": 1850,
  "\u2581responsible": 1851,
  "ven": 1852,
  "\u2581regular": 1853,
  "\u2581igualdad": 1854,
  "\u2581hope": 1855,
  "\u2581practice": 1856,
  "\u2581poverty": 1857,
  "see": 1858,
  "\u2581Bien": 1859,
  "\u2581noted": 1860,
  "\u2581India": 1861,
  "\u2581responsibility": 1862,
  "\u2581puedan": 1863,
  "vi": 1864,
  "\u2581estudios": 1865,
  "\u2581cosa": 1866,
  "\u2581tales": 1867,
  "\u2581big": 1868,
  "\u2581Fondo": 1869,
  "\u2581funciones": 1870,
  "\u2581direcci\u00f3n": 1871,
  "\u2581opini\u00f3n": 1872,
  "\u2581coming": 1873,
  "\u2581f": 1874,
  ">": 1875,
  "\u2581Add": 1876,
  "10": 1877,
  "ism": 1878,
  "\u2581standards": 1879,
  "\u2581mejores": 1880,
  "\u2581Other": 1881,
  "\u2581precio": 1882,
  "\u2581face": 1883,
  "ion": 1884,
  "po": 1885,
  "\u2581oportunidad": 1886,
  "\u2581gobiernos": 1887,
  "In": 1888,
  "\u2581cumplimiento": 1889,
  "\u2581pay": 1890,
  "\u2581Todos": 1891,
  "ge": 1892,
  "\u2581head": 1893,
  "\u2581OF": 1894,
  "pro": 1895,
  ",\"": 1896,
  "\u2581varias": 1897,
  "\u2581madre": 1898,
  "\u2581conjunto": 1899,
  ".3": 1900,
  "\u2581soluci\u00f3n": 1901,
  "\u2581From": 1902,
  "\u2581enough": 1903,
  "\u2581serious": 1904,
  "\u2581carried": 1905,
  "\u2581LA": 1906,
  "\u2581Lord": 1907,
  "\u2581office": 1908,
  "\u2581v\u00edctimas": 1909,
  "\u2581significa": 1910,
  "\u2581vamos": 1911,
  "\u2581Spain": 1912,
  "\u2581especiales": 1913,
  "\u2581Christ": 1914,
  "\u2581self": 1915,
  "ntes": 1916,
  "\u2581organization": 1917,
  "men": 1918,
  "\u2581S\u00f3lo": 1919,
  "\u2581purpose": 1920,
  "\u2581actions": 1921,
  "\u2581Good": 1922,
  "\u2581recent": 1923,
  "\u2581early": 1924,
  "\u2581relaciones": 1925,
  "\u2581poner": 1926,
  "\u2581principles": 1927,
  "\u2581Ma": 1928,
  "\u2581changes": 1929,
  "\u2581administraci\u00f3n": 1930,
  "\u25811999": 1931,
  "\u2581Action": 1932,
  "\u2581reducir": 1933,
  "\u2581cargo": 1934,
  "tro": 1935,
  "\u2581ah\u00ed": 1936,
  "\u2581section": 1937,
  "\u2581agreed": 1938,
  "\u2581instrumentos": 1939,
  "\u2581coordinaci\u00f3n": 1940,
  "ista": 1941,
  "\u2581l": 1942,
  "\u2581companies": 1943,
  "\u2581ago": 1944,
  "\u2581elementos": 1945,
  "\u2581regarding": 1946,
  "\u2581Ra": 1947,
  "\u2581category": 1948,
  "at": 1949,
  "\u2581France": 1950,
  "\u2581ma\u00f1ana": 1951,
  "\u2581employment": 1952,
  "\u2581Espa\u00f1a": 1953,
  "ad": 1954,
  "\u2581true": 1955,
  "vo": 1956,
  "\u2581obstante": 1957,
  "\u2581questions": 1958,
  "\u2581concern": 1959,
  "CN": 1960,
  "ismo": 1961,
  "Te": 1962,
  "\u2581safety": 1963,
  "\u2581significant": 1964,
  "\u2581Junta": 1965,
  "\u2581sostenible": 1966,
  "\u2581Mo": 1967,
  "\u2581Department": 1968,
  "\u2581buen": 1969,
  "\u2581aspectos": 1970,
  "6": 1971,
  "\u2581Sa": 1972,
  "\u2581mandato": 1973,
  "\u2581mano": 1974,
  "\u2581causa": 1975,
  "rio": 1976,
  "jo": 1977,
  "\u2581says": 1978,
  "\u2581monitoring": 1979,
  "\u2581propuestas": 1980,
  "\u2581semana": 1981,
  "\u2581representatives": 1982,
  "\u2581g\u00e9nero": 1983,
  "\u2581agencies": 1984,
  "\u2581itself": 1985,
  "\u2581pasa": 1986,
  ".\u201d": 1987,
  "che": 1988,
  "\u2581delegation": 1989,
  "\u2581interior": 1990,
  "\u2581Barcelona": 1991,
  "\u2581realmente": 1992,
  "\u25813,": 1993,
  "\u2581ellas": 1994,
  "\u2581greater": 1995,
  "\u2581apply": 1996,
  "\u2581gubernamentales": 1997,
  "\u2581contacto": 1998,
  "\u2581van": 1999,
  "car": 2000,
  "\u2581looking": 2001,
  "\u2581Report": 2002,
  "\u2581posici\u00f3n": 2003,
  "\u2581reducci\u00f3n": 2004,
  "\u2581Working": 2005,
  "\u2581llevar": 2006,
  "\u2581industrial": 2007,
  "\u2581Sra": 2008,
  "\u2581Ministry": 2009,
  "\u2581Puede": 2010,
  "\u2581response": 2011,
  "um": 2012,
  "\u2581justice": 2013,
  "lu": 2014,
  "\u2581range": 2015,
  "\u25815.": 2016,
  "\u2581promoci\u00f3n": 2017,
  "\u2581evitar": 2018,
  "\u2581\u00faltima": 2019,
  "\u2581auto": 2020,
  "\u2581provision": 2021,
  "\u2581statement": 2022,
  "\u2581pregunta": 2023,
  "\u2581language": 2024,
  "\u2581hacerlo": 2025,
  "\u2581tarde": 2026,
  "\u2581develop": 2027,
  "\u2581establishment": 2028,
  "\u2581pacientes": 2029,
  "\u2581below": 2030,
  "\u2581Departamento": 2031,
  "\u2581makes": 2032,
  "\u2581transport": 2033,
  "\u2581elegir": 2034,
  "\u2581share": 2035,
  "\u2581Spanish": 2036,
  "\u2581basic": 2037,
  "\u266a": 2038,
  "\u2581espera": 2039,
  "\u2581territorio": 2040,
  "\u2581contact": 2041,
  "j": 2042,
  "ina": 2043,
  "\u2581job": 2044,
  "\u2581asked": 2045,
  "\u2581Reino": 2046,
  "\u00f1": 2047,
  "\u2581continued": 2048,
  "\u2581either": 2049,
  "\u2581create": 2050,
  "\u2581fuerza": 2051,
  "\u2581sorry": 2052,
  "\u2581Tengo": 2053,
  "\u2581text": 2054,
  "\u2581estrategia": 2055,
  "\u2581opinion": 2056,
  "\u2581delegaci\u00f3n": 2057,
  "\u2581rural": 2058,
  "qu\u00e9": 2059,
  "\u2581Bank": 2060,
  "\u2581ciudadanos": 2061,
  "\u2581return": 2062,
  "\u2581team": 2063,
  "\u2581competencia": 2064,
  "\u2581themselves": 2065,
  "\u2581r\u00e9gimen": 2066,
  "\u2581segunda": 2067,
  "\u2581lack": 2068,
  "fa": 2069,
  "\u2581Here": 2070,
  "\u2581Colombia": 2071,
  "\u2581prices": 2072,
  "\u2581minutes": 2073,
  "\u2581cantidad": 2074,
  "\u2581Of": 2075,
  "\u2581Pre": 2076,
  "\u2581John": 2077,
  "\u2581agosto": 2078,
  "\u2581utilizaci\u00f3n": 2079,
  "\u2581visit": 2080,
  "\u2581decisions": 2081,
  "\u2581Information": 2082,
  "\u2581::": 2083,
  "5": 2084,
  "\u2581trabajar": 2085,
  "\u2581obligaciones": 2086,
  "ty": 2087,
  "\u2581doesn": 2088,
  "\u2581reason": 2089,
  "\u2581requested": 2090,
  "\u2581considera": 2091,
  "\u2581\u00e9xito": 2092,
  "land": 2093,
  "\u2581wish": 2094,
  "\u2581refiere": 2095,
  "\u2581effects": 2096,
  "\u2581relacionadas": 2097,
  "U": 2098,
  "\u2581necesita": 2099,
  "am": 2100,
  "\u2581design": 2101,
  "\u2581works": 2102,
  "\u2581allow": 2103,
  "\u2581contenido": 2104,
  "\u2581act": 2105,
  "\u2581analysis": 2106,
  "\u2581page": 2107,
  "\u2581fuerzas": 2108,
  "\u2581clientes": 2109,
  "\u2581father": 2110,
  "\u2581short": 2111,
  "\u2581construcci\u00f3n": 2112,
  "\u2581propia": 2113,
  "\u2581stop": 2114,
  "\u2581Look": 2115,
  "\u2581acuerdos": 2116,
  "\u2581white": 2117,
  "\u2581Asuntos": 2118,
  "\u2581Hola": 2119,
  "\u2581secci\u00f3n": 2120,
  "\u2581blood": 2121,
  "\u2581prevent": 2122,
  "\u2581top": 2123,
  "\u2581domestic": 2124,
  "\u2581brought": 2125,
  "\u2581Acuerdo": 2126,
  "\u2581profesional": 2127,
  "\u2581Durante": 2128,
  "\u2581strategy": 2129,
  "\u2581six": 2130,
  "\u2581acciones": 2131,
  "\u2581bueno": 2132,
  "\u2581industry": 2133,
  "\u2581curso": 2134,
  "\u2581wanted": 2135,
  "\u2581miles": 2136,
  "\u2581presentaci\u00f3n": 2137,
  "\u2581direct": 2138,
  "ha": 2139,
  "\u2581Secretar\u00eda": 2140,
  "\u2581visto": 2141,
  "\u00c3": 2142,
  "\u2581representative": 2143,
  "\u2581seis": 2144,
  "\u2581pueblos": 2145,
  "\u2581Santa": 2146,
  "\u2581Protocol": 2147,
  "\u2581vi": 2148,
  "\u2581dif\u00edcil": 2149,
  "\u2581establecido": 2150,
  "\u2581humanitarian": 2151,
  "\u2581performance": 2152,
  "\u2581authority": 2153,
  "\u2581Informaci\u00f3n": 2154,
  "\u2581receive": 2155,
  "\u2581cambios": 2156,
  "\u2581discrimination": 2157,
  "\u25812015": 2158,
  "\u2581consecuencia": 2159,
  "\u2581along": 2160,
  "\u2581Service": 2161,
  "\u2581temas": 2162,
  "\u2581okay": 2163,
  "ko": 2164,
  "\u2581centros": 2165,
  "ine": 2166,
  "\u2581woman": 2167,
  "\u2581palabra": 2168,
  "\u2581contained": 2169,
  "\u2581hard": 2170,
  "\u2581Declaraci\u00f3n": 2171,
  "\u2581Australia": 2172,
  "\u2581tipos": 2173,
  "40": 2174,
  "\u2581Get": 2175,
  "\u2581Creo": 2176,
  "\u2581quieres": 2177,
  "\u2581propio": 2178,
  "zo": 2179,
  "\u2581expressed": 2180,
  "\u2581facilitar": 2181,
  "\u2581Agreement": 2182,
  "dores": 2183,
  "\u2581cumplir": 2184,
  "\u2581Affairs": 2185,
  "\u2581potential": 2186,
  "ex": 2187,
  "\u2581Secretariat": 2188,
  "\u2581hear": 2189,
  "\u2581expertos": 2190,
  "\u2581event": 2191,
  "\u25811998": 2192,
  "\u2581normal": 2193,
  "\u2581thus": 2194,
  "\u2581mother": 2195,
  "\u2581assessment": 2196,
  "\u2581ingl\u00e9s": 2197,
  "\u2581aire": 2198,
  "\u2581outside": 2199,
  "\u2581generales": 2200,
  "\u2581read": 2201,
  "\u2581Protocolo": 2202,
  "\u2581ma": 2203,
  "\u2581actos": 2204,
  "\u2581investment": 2205,
  "AC": 2206,
  "\u2581try": 2207,
  "\u2581capacitaci\u00f3n": 2208,
  "\u2581entrada": 2209,
  "\u2581puestos": 2210,
  "\u2581compromiso": 2211,
  "\u2581privado": 2212,
  "\u2581iniciativas": 2213,
  "\u2581puntos": 2214,
  "\u2581official": 2215,
  "\u2581Aunque": 2216,
  "\u2581directly": 2217,
  "\u2581colaboraci\u00f3n": 2218,
  "\u2581padres": 2219,
  "\u2581adoptar": 2220,
  "ner": 2221,
  "\u2581presentar": 2222,
  "ting": 2223,
  "\u2581funds": 2224,
  "\u2581patients": 2225,
  "Add": 2226,
  "\u2581bar": 2227,
  "\u2581alg\u00fan": 2228,
  "Me": 2229,
  "\u258135": 2230,
  "\u2581Free": 2231,
  "\u2581rule": 2232,
  "\u2581x": 2233,
  "\u2581essential": 2234,
  "\u2581whose": 2235,
  "\u2581reported": 2236,
  "\u2581Todo": 2237,
  "\u2581Mission": 2238,
  "\u2581doctor": 2239,
  "\u2581higher": 2240,
  "izaci\u00f3n": 2241,
  "\u2581complete": 2242,
  "\u2581activity": 2243,
  "\u2581previous": 2244,
  "\u2581events": 2245,
  "\u2581history": 2246,
  "\u2581extra": 2247,
  "\u2581radio": 2248,
  "\u2581econom\u00eda": 2249,
  "\u2581principle": 2250,
  "\u2581ejercicio": 2251,
  "\u2581anterior": 2252,
  "\u2581nadie": 2253,
  "\u2581weapons": 2254,
  "20": 2255,
  "cho": 2256,
  "\u2581ingresos": 2257,
  "\u2581ideas": 2258,
  "\u2581mecanismos": 2259,
  "\u2581created": 2260,
  "\u2581campo": 2261,
  "\u25812014": 2262,
  "\u2581opportunity": 2263,
  "\u2581sent": 2264,
  "\u2581asegurar": 2265,
  "ate": 2266,
  "\u2581Global": 2267,
  "\u2581origen": 2268,
  "\u2581solicitud": 2269,
  "\u2581nucleares": 2270,
  "\u2581forms": 2271,
  "\u2581Despu\u00e9s": 2272,
  "\u2581primero": 2273,
  "ke": 2274,
  "\u2581practices": 2275,
  "\u2581points": 2276,
  "\u2581tenido": 2277,
  "\u2581soon": 2278,
  "50": 2279,
  "ran": 2280,
  "\u2581move": 2281,
  "\u2581di\u00e1logo": 2282,
  "\u2581French": 2283,
  "t\u00f3": 2284,
  "\u2581lead": 2285,
  "term": 2286,
  "\u2581lugares": 2287,
  "\u2581ubicaci\u00f3n": 2288,
  "\u2581St": 2289,
  "\u2581marca": 2290,
  "\u2581pesar": 2291,
  "tion": 2292,
  "\u2581rest": 2293,
  "\u2581grande": 2294,
  "\u2581East": 2295,
  "\u2581directamente": 2296,
  "\u2581content": 2297,
  "\u2581examinar": 2298,
  "\u2581court": 2299,
  "\u2581Kingdom": 2300,
  "\u2581disponibles": 2301,
  "\u2581objectives": 2302,
  "\u2581hayan": 2303,
  "\u2581foreign": 2304,
  "\u2581evidence": 2305,
  "\u2581incluidos": 2306,
  "@": 2307,
  "\u2581dispuesto": 2308,
  "\u2581Sur": 2309,
  "\u2581planes": 2310,
  "\u2581propiedad": 2311,
  "qui": 2312,
  "\u2581leyes": 2313,
  "\u2581adopci\u00f3n": 2314,
  "\u2581victims": 2315,
  "\u2581book": 2316,
  "et": 2317,
  "\u2581amigo": 2318,
  "\u2581saw": 2319,
  "\u258132": 2320,
  "tes": 2321,
  "\u25811995": 2322,
  "\u2581communication": 2323,
  "ber": 2324,
  "\u2581demasiado": 2325,
  "\u2581City": 2326,
  "\u00edan": 2327,
  "\u2581documents": 2328,
  "\u2581test": 2329,
  "\u2581week": 2330,
  "Z": 2331,
  "\u2581mes": 2332,
  "\u2581easy": 2333,
  "\u2581teniendo": 2334,
  "\u2581turn": 2335,
  "\u2581proteger": 2336,
  "\u2581word": 2337,
  "\u2581wrong": 2338,
  "\u2581reference": 2339,
  "\u2581implement": 2340,
  "\u2581half": 2341,
  "\u2581continuaci\u00f3n": 2342,
  "\u2581prevenci\u00f3n": 2343,
  "em": 2344,
  "\u2581heard": 2345,
  "\u2581regiones": 2346,
  "\u2581est\u00e9": 2347,
  "\u2581Informe": 2348,
  "\u2581financieros": 2349,
  "\u258145": 2350,
  "\u2581Francia": 2351,
  "\u2581adoption": 2352,
  "\u2581currently": 2353,
  "\u2581Li": 2354,
  "\u2581While": 2355,
  "\u2581estaban": 2356,
  "\u2581gusta": 2357,
  "\u2581Mexico": 2358,
  "\u2581forward": 2359,
  "min": 2360,
  "\u2581administrative": 2361,
  "\u2581laws": 2362,
  "\u2581m\u00e9dico": 2363,
  "\u2581freedom": 2364,
  "\u2581amigos": 2365,
  "\u2581muestra": 2366,
  "ero": 2367,
  "\u2581term": 2368,
  "\u2581ser\u00e1n": 2369,
  "\u2581Ta": 2370,
  "tas": 2371,
  "\u2581Wi": 2372,
  "\u2581recibir": 2373,
  "\u2581facilities": 2374,
  "\u2581f\u00e1cil": 2375,
  "\u2581venta": 2376,
  "\u2581Since": 2377,
  "\u2581existe": 2378,
  "\u2581comprehensive": 2379,
  "\u2581obligations": 2380,
  "\u2581prueba": 2381,
  "\u2581behalf": 2382,
  "\u2581determinar": 2383,
  "\u2581cierto": 2384,
  "\u2581active": 2385,
  "\u2581seguimiento": 2386,
  "\u2581hubiera": 2387,
  "\u2581Quiero": 2388,
  "ul": 2389,
  "\u2581achieve": 2390,
  "\u2581forces": 2391,
  "\u25816.": 2392,
  "\u2581longer": 2393,
  "\u2581universal": 2394,
  "nes": 2395,
  "\u2581reduce": 2396,
  "\u2581comes": 2397,
  "\u2581dialogue": 2398,
  "\u2581mission": 2399,
  "\u2581usar": 2400,
  "\u2581amplia": 2401,
  "\u2581cause": 2402,
  "\u258180": 2403,
  "\u2581Porque": 2404,
  "\u2581First": 2405,
  "\u00fa": 2406,
  "Re": 2407,
  "\u2581art": 2408,
  "\u25811997": 2409,
  "\u2581deber\u00e1": 2410,
  "\u2581rather": 2411,
  "\u2581Inter": 2412,
  "ana": 2413,
  "\u2581strong": 2414,
  "\u2581matters": 2415,
  "\u2581autor": 2416,
  "\u2581Costa": 2417,
  "\u2581medical": 2418,
  "\u2581Madrid": 2419,
  "\u2581rental": 2420,
  "\u2581Mac": 2421,
  "\u2581suficiente": 2422,
  "den": 2423,
  "\u2581relativo": 2424,
  "\u2581figura": 2425,
  "\u2581strengthen": 2426,
  "\u2581Declaration": 2427,
  "\u2581Z": 2428,
  "miento": 2429,
  "\u2581clase": 2430,
  "\u2581representante": 2431,
  "\u2581sectores": 2432,
  "\u2581vigor": 2433,
  "\u2581Seg\u00fan": 2434,
  "\u2581Bo": 2435,
  "\u2581focus": 2436,
  "\u2581commitment": 2437,
  "\u2581marcha": 2438,
  "\u2581Misi\u00f3n": 2439,
  "\u2581fines": 2440,
  "\u2581entitled": 2441,
  "\u2581conflictos": 2442,
  "\u2581Code": 2443,
  "du": 2444,
  "\u2581difficult": 2445,
  "\u2581Contact": 2446,
  "based": 2447,
  "\u2581Estamos": 2448,
  ".6": 2449,
  "30": 2450,
  "\u2581misi\u00f3n": 2451,
  "\u2581beautiful": 2452,
  "Se": 2453,
  "\u2581IV": 2454,
  "\u2581Per": 2455,
  "\u2581establish": 2456,
  "\u2581designed": 2457,
  "\u2581protect": 2458,
  "\u2581incluye": 2459,
  "\u2581throughout": 2460,
  "\u2581internal": 2461,
  "\u2581coordination": 2462,
  "\u2581presencia": 2463,
  "ster": 2464,
  "\u2581connection": 2465,
  "\u2581someone": 2466,
  "\u2581Usted": 2467,
  "\u2581sabes": 2468,
  "\u2581podr\u00edan": 2469,
  "\u2581imagen": 2470,
  "\u2581oficial": 2471,
  "\u2581comunidades": 2472,
  "\u2581happened": 2473,
  "\u2581fotos": 2474,
  "\u2581M\u00e9xico": 2475,
  "ling": 2476,
  "\u2581C\u00f3digo": 2477,
  "90": 2478,
  "\u2581Centre": 2479,
  "\u258136": 2480,
  "\u2581met": 2481,
  "\u2581Health": 2482,
  "\u2581Penal": 2483,
  "\u2581Chile": 2484,
  ".7": 2485,
  "\u2581reform": 2486,
  "\u2581viaje": 2487,
  "\u2581equal": 2488,
  "\u2581rooms": 2489,
  "\u2581addressed": 2490,
  "\u25812018": 2491,
  "\u2581reforma": 2492,
  "\u2581\u00fanica": 2493,
  "\u2581preocupaci\u00f3n": 2494,
  "\u2581trying": 2495,
  "\u258190": 2496,
  "\u2581agreements": 2497,
  "\u2581terrorismo": 2498,
  "\u2581Entre": 2499,
  "\u2581instruments": 2500,
  "\u2581presented": 2501,
  "sh": 2502,
  "\u2581deal": 2503,
  "\u2581mm": 2504,
  "\u2581acts": 2505,
  "\u2581Pe": 2506,
  "\u2581girls": 2507,
  "\u25811994": 2508,
  "\u2581limited": 2509,
  "\u2581sabe": 2510,
  "\u2581naturaleza": 2511,
  "\u2581Ms": 2512,
  "\u2581paso": 2513,
  "\u2581ustedes": 2514,
  "der": 2515,
  "\u2581friend": 2516,
  "\u2581EUR": 2517,
  "\u2581alcanzar": 2518,
  "\u2581citizens": 2519,
  "\u00cd": 2520,
  "\u2581independiente": 2521,
  "\u2581resolutions": 2522,
  "\u2581actually": 2523,
  "\u2581run": 2524,
  "\u2581almost": 2525,
  "\u2581proposals": 2526,
  "\u2581Qu\u00e9": 2527,
  "\u2581Ex": 2528,
  "\u2581habitaciones": 2529,
  "\u2581saying": 2530,
  "\u2581financiera": 2531,
  "\u2581modelo": 2532,
  "\u2581Convenio": 2533,
  "\u2581pruebas": 2534,
  "\u2581model": 2535,
  "\u2581Commissioner": 2536,
  "\u2581Servicios": 2537,
  "\u2581attorneys": 2538,
  "\u2581lives": 2539,
  "\u2581conocimiento": 2540,
  "\u2581toma": 2541,
  "age": 2542,
  "\u2581Decision": 2543,
  "\u2581steps": 2544,
  "\u2581David": 2545,
  "Con": 2546,
  "\u2581reserva": 2547,
  "\u2581eficaz": 2548,
  "\u2581pasar": 2549,
  "\u2581ways": 2550,
  "\u2581girl": 2551,
  "\u2581bad": 2552,
  "art": 2553,
  "\u2581funcionamiento": 2554,
  "\u2581bienes": 2555,
  "\u2581students": 2556,
  "\u2581Carta": 2557,
  "\u2581fine": 2558,
  "\u2581deber\u00edan": 2559,
  "\u2581program": 2560,
  "\u2581approved": 2561,
  "\u2581fondo": 2562,
  "\u2581Po": 2563,
  "\u2581par": 2564,
  "id": 2565,
  "\u2581labour": 2566,
  "\u2581quienes": 2567,
  "\u2581takes": 2568,
  "line": 2569,
  "\u2581During": 2570,
  "\u2581economy": 2571,
  "\u2581exchange": 2572,
  "\u2581Acci\u00f3n": 2573,
  "\u2581grave": 2574,
  "\u2581indigenous": 2575,
  "\u2581gave": 2576,
  "\u2581benefits": 2577,
  "\u258137": 2578,
  "\u2581getting": 2579,
  "\u2581regions": 2580,
  "\u2581Decisi\u00f3n": 2581,
  "\u2581annual": 2582,
  "gar": 2583,
  "\u2581families": 2584,
  "\u2581enfoque": 2585,
  "\u2581disposici\u00f3n": 2586,
  "\u2581views": 2587,
  "\u2581pol\u00edticos": 2588,
  "\u2581fight": 2589,
  "\u2581familias": 2590,
  "\u2581valores": 2591,
  "ian": 2592,
  "by": 2593,
  "\u2581parts": 2594,
  "\u2581pago": 2595,
  "\u2581else": 2596,
  "\u2581volver": 2597,
  "\u2581armed": 2598,
  "\u2581moment": 2599,
  "\u2581Gran": 2600,
  "\u2581balance": 2601,
  "\u2581items": 2602,
  "\u2581committed": 2603,
  "\u2581Executive": 2604,
  "\u2581though": 2605,
  "\u2581Governments": 2606,
  "ES": 2607,
  "\u2581Unido": 2608,
  "\u2581friends": 2609,
  "\u2581Estos": 2610,
  "\u2581communities": 2611,
  "\u2581challenges": 2612,
  "mer": 2613,
  "\u2581crime": 2614,
  "\u2581fundamentales": 2615,
  "\u2581asuntos": 2616,
  "\u2581mandate": 2617,
  "\u258170": 2618,
  "\u2581intereses": 2619,
  "org": 2620,
  "\u2581website": 2621,
  "\u2581Minister": 2622,
  "\u2581Because": 2623,
  "fe": 2624,
  "\u2581escala": 2625,
  "\u2581vote": 2626,
  "\u2581qui\u00e9n": 2627,
  "\u2581plans": 2628,
  "\u2581Rapporteur": 2629,
  "\u2581obra": 2630,
  "9": 2631,
  "\u25811996": 2632,
  "\u2581includes": 2633,
  "\u2581Soy": 2634,
  "\u2581enjoy": 2635,
  "\u2581issued": 2636,
  "\u2581menores": 2637,
  "\u2581coche": 2638,
  "\u2581consecuencias": 2639,
  "\u2581EN": 2640,
  "\u2581average": 2641,
  "\u2581remain": 2642,
  "\u2581tuvo": 2643,
  "\u2581mechanisms": 2644,
  "\u25817.": 2645,
  "\u2581materials": 2646,
  "\u2581goods": 2647,
  "\u2581sale": 2648,
  "\u2581autoridad": 2649,
  "\u2581positive": 2650,
  "tor": 2651,
  "\u2581planning": 2652,
  "\u2581alquiler": 2653,
  "\u2581necesarias": 2654,
  "nd": 2655,
  "\u2581expected": 2656,
  "\u25812005,": 2657,
  "\u2581dead": 2658,
  "\u2581gratis": 2659,
  "\u2581hacen": 2660,
  "\u2581conflicto": 2661,
  "\u2581dise\u00f1o": 2662,
  "\u2581joint": 2663,
  "\u2581procesos": 2664,
  "\u2581aprobaci\u00f3n": 2665,
  "35": 2666,
  "\u2581establece": 2667,
  "\u2581near": 2668,
  "\u25812006,": 2669,
  "\u2581According": 2670,
  "\u2581claro": 2671,
  "chi": 2672,
  "im": 2673,
  "\u2581participar": 2674,
  "\u2581pol\u00edtico": 2675,
  "\u2581added": 2676,
  "\u2581dejar": 2677,
  "\u25812016": 2678,
  "\u2581dicha": 2679,
  "\u2581Ne": 2680,
  "19": 2681,
  "\u2581reporting": 2682,
  "80": 2683,
  "\u2581network": 2684,
  "\u2581industria": 2685,
  "\u2581alrededor": 2686,
  "\u2581solution": 2687,
  "aci\u00f3n": 2688,
  "\u2581ad": 2689,
  "\u2581siglo": 2690,
  "\u2581conseguir": 2691,
  "\u2581connect": 2692,
  "\u2581materiales": 2693,
  "\u2581yourself": 2694,
  "\u25812017": 2695,
  "ary": 2696,
  "Fi": 2697,
  "\u2581Web": 2698,
  "Qui\u00e9n": 2699,
  "\u2581Red": 2700,
  "\u2581popular": 2701,
  "\u2581Pi": 2702,
  "\u2581understanding": 2703,
  "\u2581prepared": 2704,
  "\u2581UNICEF": 2705,
  "\u2581details": 2706,
  "0": 2707,
  "\u2581participantes": 2708,
  "\u2581mg": 2709,
  "\u2581table": 2710,
  "\u2581beginning": 2711,
  "\u25814,": 2712,
  "\u2581Regional": 2713,
  "\u2581presentado": 2714,
  "\u2581Germany": 2715,
  "\u2581diversos": 2716,
  "\u2581operation": 2717,
  "\u2581inversi\u00f3n": 2718,
  "\u2581completa": 2719,
  "\u2581ind\u00edgenas": 2720,
  "\u2581partners": 2721,
  "\u2581Ella": 2722,
  "\u2581Mira": 2723,
  "ho": 2724,
  "\u2581trans": 2725,
  "one": 2726,
  "\u2581cabeza": 2727,
  "\u2581Ca": 2728,
  "\u2581physical": 2729,
  "\u2581former": 2730,
  "\u2581morning": 2731,
  "D\u00f3nde": 2732,
  "\u258133": 2733,
  "\u2581movement": 2734,
  "\u2581guy": 2735,
  "\u2581benefit": 2736,
  "\u2581aspects": 2737,
  "\u2581studies": 2738,
  "\u2581alone": 2739,
  "\u2581supuesto": 2740,
  "\u2581reduction": 2741,
  "ler": 2742,
  "\u2581remember": 2743,
  "\u2581ense\u00f1anza": 2744,
  "\u2581Hi": 2745,
  "\u2581started": 2746,
  "\u2581series": 2747,
  "\u2581tenga": 2748,
  "\u2581militar": 2749,
  "we": 2750,
  "\u2581bed": 2751,
  "\u2581transfer": 2752,
  "\u2581parents": 2753,
  "\u2581North": 2754,
  "\u2581Start": 2755,
  "\u2581Ar": 2756,
  "\u2581blanco": 2757,
  "\u2581personnel": 2758,
  "\u2581centre": 2759,
  "\u2581People": 2760,
  "\u2581Party": 2761,
  "\u2581initiatives": 2762,
  "\u2581priority": 2763,
  "\u2581escuela": 2764,
  "\u2581concepto": 2765,
  "\u2581conocer": 2766,
  "\u2581iniciativa": 2767,
  "EEC": 2768,
  "\u2581requisitos": 2769,
  "\u2581lost": 2770,
  "\u2581front": 2771,
  "\u2581Ad": 2772,
  "\u2581negocio": 2773,
  "\u2581200": 2774,
  "\u2581resoluciones": 2775,
  "\u2581usuarios": 2776,
  "\u2581contributions": 2777,
  "\u2581ready": 2778,
  "\u2581Alemania": 2779,
  "\u2581conocimientos": 2780,
  "\u2581cookies": 2781,
  "\u2581truth": 2782,
  "\u2581Juan": 2783,
  "\u2581step": 2784,
  "ley": 2785,
  "\u2581Paul": 2786,
  "\u2581Services": 2787,
  "\u2581tendr\u00e1": 2788,
  "\u2581Federal": 2789,
  "\u2581oportunidades": 2790,
  "\u2581tax": 2791,
  "\u2581Ho": 2792,
  "\u2581Google": 2793,
  "\u2581purposes": 2794,
  "ive": 2795,
  "\u2581Da": 2796,
  "\u2581across": 2797,
  "\u2581independent": 2798,
  "\u2581fuerte": 2799,
  "\u2581search": 2800,
  "\u2581promotion": 2801,
  "r\u00e1n": 2802,
  "\u2581published": 2803,
  "gan": 2804,
  "\u2581\u00e1": 2805,
  "70": 2806,
  "\u2581interests": 2807,
  "\u2581ideal": 2808,
  "\u2581recommended": 2809,
  "\u25812004,": 2810,
  "\u2581produce": 2811,
  "\u2581error": 2812,
  "\u2581trabajos": 2813,
  "\u258138": 2814,
  "\u2581month": 2815,
  "for": 2816,
  "ras": 2817,
  "\u2581Congo": 2818,
  "\u2581Salvador": 2819,
  "CEE": 2820,
  "\u2581diversas": 2821,
  "\u2581objective": 2822,
  "\u2581respeto": 2823,
  "\u2581pursuant": 2824,
  "\u2581hospital": 2825,
  "\u2581covered": 2826,
  "\u258148": 2827,
  "\u2581aquellos": 2828,
  "\u2581entidades": 2829,
  "\u2581b\u00fasqueda": 2830,
  "\u2581Jehov\u00e1": 2831,
  "\u2581dedicated": 2832,
  "\u2581refugiados": 2833,
  "tal": 2834,
  "\u2581agentes": 2835,
  "\u2581ca": 2836,
  "\u2581Did": 2837,
  "ization": 2838,
  "\u2581places": 2839,
  "\u2581Medio": 2840,
  "\u2581d\u00f3nde": 2841,
  "\u2581actualmente": 2842,
  "\u2581mismos": 2843,
  "Lo": 2844,
  "\u2581carta": 2845,
  "\u2581Aqu\u00ed": 2846,
  "\u2581os": 2847,
  "\u258134": 2848,
  "\u2581hold": 2849,
  "\u2581constituye": 2850,
  "\u2581applicable": 2851,
  "\u2581creation": 2852,
  "\u2581peque\u00f1o": 2853,
  "\u2581Church": 2854,
  "\u2581plenamente": 2855,
  "\u2581penal": 2856,
  "\u2581completo": 2857,
  "\u2581Ben": 2858,
  "\u2013": 2859,
  "\u2581town": 2860,
  "\u2581articles": 2861,
  "\u2581Latin": 2862,
  "\u2581applied": 2863,
  "\u2581opportunities": 2864,
  "\u2581Total": 2865,
  "\u2581sangre": 2866,
  "\u2581preparaci\u00f3n": 2867,
  "\u2581vas": 2868,
  "\u2581Russian": 2869,
  "\u2581cover": 2870,
  "\u2581standard": 2871,
  "\u2581Italia": 2872,
  "\u25811993": 2873,
  "60": 2874,
  "est": 2875,
  "\u2581comerciales": 2876,
  "\u2581infraestructura": 2877,
  "\u25812007,": 2878,
  "\u2581manos": 2879,
  "\u2581observaciones": 2880,
  "\u2581pod\u00eda": 2881,
  "\u2581reasons": 2882,
  "\u2581consultas": 2883,
  "\u2581cambiar": 2884,
  "\u2581peoples": 2885,
  "\u2581Justice": 2886,
  "\u2581m\u00e1ximo": 2887,
  "\u2581income": 2888,
  "\u2581talking": 2889,
  "gen": 2890,
  "\u2581reconocimiento": 2891,
  "\u2581poor": 2892,
  "of": 2893,
  "\u2581travel": 2894,
  "15": 2895,
  "\u2581West": 2896,
  "\u2581news": 2897,
  "\u2581registro": 2898,
  "\u2581prevention": 2899,
  "\u2581Portugal": 2900,
  "\u25812000,": 2901,
  "\u2581eficacia": 2902,
  "\u2581multi": 2903,
  "bi": 2904,
  "\u2581coches": 2905,
  "ant": 2906,
  "\u2581exercise": 2907,
  "mail": 2908,
  "\u2581terreno": 2909,
  "era": 2910,
  "\u25812003,": 2911,
  "\u2581proporcionar": 2912,
  "\u2581distintos": 2913,
  "\u2581celebrada": 2914,
  "\u2581diferencia": 2915,
  "\u2581!": 2916,
  "95": 2917,
  "\u2581dio": 2918,
  "\u2581Pacto": 2919,
  "\u2581Econ\u00f3mico": 2920,
  "\u2581century": 2921,
  "25": 2922,
  "\u2581Ja": 2923,
  "\u2581apoyar": 2924,
  "\u2581perfect": 2925,
  "\u2581download": 2926,
  "\u2581Cu": 2927,
  "\u2581consiguiente": 2928,
  "\u2581Windows": 2929,
  "\u2581importa": 2930,
  "\u2581Paris": 2931,
  "\u2581House": 2932,
  "\u2581sense": 2933,
  "\u2581necesarios": 2934,
  "\u2581comercial": 2935,
  "\u2581funding": 2936,
  "\u2581territory": 2937,
  "\u2581rates": 2938,
  "\u2581individuals": 2939,
  "\u2581road": 2940,
  "\u2581associated": 2941,
  "\u2581notes": 2942,
  "\u25812002,": 2943,
  "\u2581elements": 2944,
  "\u2581sir": 2945,
  "\u2581reach": 2946,
  "\u2581letter": 2947,
  "istas": 2948,
  "\u2581mas": 2949,
  "\u2581oil": 2950,
  "\u2581Palestinian": 2951,
  "\u2581integraci\u00f3n": 2952,
  "\u2581evaluation": 2953,
  "\u2581Justicia": 2954,
  "\u2581supported": 2955,
  "\u2581Rusia": 2956,
  "ated": 2957,
  "ros": 2958,
  "\u2581size": 2959,
  "\u2581modern": 2960,
  "\u2581states": 2961,
  "\u2581presenta": 2962,
  "\u2581profesionales": 2963,
  "\u2581Sal": 2964,
  "\u2581implementing": 2965,
  "\u2581professional": 2966,
  "\u2581estructura": 2967,
  "\u2581check": 2968,
  "\u2581schools": 2969,
  "\u2581Puerto": 2970,
  "\u2581disponible": 2971,
  "\u2581ten": 2972,
  "\u2581p\u00fablicos": 2973,
  "\u2581cuentas": 2974,
  "\u2581factor": 2975,
  "\u2581discussion": 2976,
  "\u2581menor": 2977,
  "?\"": 2978,
  "\u2581libro": 2979,
  "\u2581carga": 2980,
  "he": 2981,
  "\u2581ve": 2982,
  "\u2581map": 2983,
  "\u25812008,": 2984,
  "\u2581strengthening": 2985,
  "\u2581Ka": 2986,
  "\u2581Cristo": 2987,
  "\u2581Estas": 2988,
  "\u2581visita": 2989,
  "\u2581HIV": 2990,
  "\u2581Ro": 2991,
  "\u2581mercados": 2992,
  "ger": 2993,
  "\u2581paid": 2994,
  "\u2581climate": 2995,
  "\u2581criterios": 2996,
  "\u2581stated": 2997,
  "\u2581clave": 2998,
  "\u2581calls": 2999,
  "\u2581Italy": 3000,
  "\u2581guys": 3001,
  "\u2581tratados": 3002,
  "\u2581Tal": 3003,
  "\u2581culture": 3004,
  "OS": 3005,
  "\u2581himself": 3006,
  "\u2581preguntas": 3007,
  "\u2581affected": 3008,
  "\u2581recomienda": 3009,
  "tar": 3010,
  "\u2581construction": 3011,
  "\u2581vivir": 3012,
  "\u2581Arab": 3013,
  "\u2581stage": 3014,
  "\u2581elaboraci\u00f3n": 3015,
  "ah": 3016,
  "ze": 3017,
  "tos": 3018,
  "\u2581traditional": 3019,
  "\u2581prestar": 3020,
  "\u2581estudiantes": 3021,
  "\u2581motor": 3022,
  "\u2581distribuci\u00f3n": 3023,
  "\u2581phone": 3024,
  "\u2581administration": 3025,
  "\u2581ground": 3026,
  "\u2581podr\u00e1n": 3027,
  "\u2581everyone": 3028,
  "\u2581mo": 3029,
  "\u2581animal": 3030,
  "\u2581finales": 3031,
  "\u2581source": 3032,
  "\u2581oficiales": 3033,
  "\u2581condici\u00f3n": 3034,
  "\u2581presence": 3035,
  "gue": 3036,
  "des": 3037,
  "cia": 3038,
  "\u2581negociaciones": 3039,
  "\u2581Right": 3040,
  "\u2581safe": 3041,
  "99": 3042,
  "\u2581tratar": 3043,
  "\u2581University": 3044,
  "\u2581contribution": 3045,
  "\u25818.": 3046,
  "\u2581manner": 3047,
  "\u2581r\u00e1pido": 3048,
  "\u2581sur": 3049,
  "\u2581anual": 3050,
  "\u25811990": 3051,
  "mar": 3052,
  "\u2581Derecho": 3053,
  "\u2581Fue": 3054,
  "ida": 3055,
  "\u2581t": 3056,
  "\u2581opiniones": 3057,
  "\u2581mensaje": 3058,
  "\u2581VI": 3059,
  "\u2581drug": 3060,
  "v\u00e9ase": 3061,
  "24": 3062,
  "\u2581learn": 3063,
  "7": 3064,
  "\u2581Paz": 3065,
  "\u2581hands": 3066,
  "\u2581anteriores": 3067,
  "\u2581remains": 3068,
  "\u2581organized": 3069,
  "\u2581econ\u00f3micos": 3070,
  "\u2581Under": 3071,
  "\u2581Universidad": 3072,
  "Km": 3073,
  "\u2581led": 3074,
  "\u2581relationship": 3075,
  "\u2581queda": 3076,
  "\u2581carry": 3077,
  "\u2581EL": 3078,
  "OR": 3079,
  "\u2581redes": 3080,
  "\u2581build": 3081,
  "\u2581cultura": 3082,
  "8": 3083,
  "\u2581Association": 3084,
  "\u2581aimed": 3085,
  "\u2581tel\u00e9fono": 3086,
  "\u2581Solo": 3087,
  "\u2581salir": 3088,
  "\u2581Her": 3089,
  "ji": 3090,
  "\u2581desea": 3091,
  "\u2581contribute": 3092,
  "\u2581wife": 3093,
  "\u2581played": 3094,
  "\u2581oficina": 3095,
  "ki": 3096,
  "\u2581written": 3097,
  "cion": 3098,
  "96": 3099,
  "\u2581circumstances": 3100,
  "\u2581familiar": 3101,
  "\u2581cuadro": 3102,
  "\u2581Iglesia": 3103,
  "UE": 3104,
  "\u2581m\u00e9todos": 3105,
  "\u2581consumo": 3106,
  "\u2581t\u00e9rminos": 3107,
  "\u2581IN": 3108,
  "\u2581Civil": 3109,
  "\u2581wait": 3110,
  "\u2581sound": 3111,
  "\u2581cross": 3112,
  "para": 3113,
  "\u2581instalaciones": 3114,
  "governmental": 3115,
  "year": 3116,
  "\u2581competition": 3117,
  "\u2581types": 3118,
  "\u2581v": 3119,
  ".9": 3120,
  "\u2581comments": 3121,
  "\u2581Muy": 3122,
  "\u2581inside": 3123,
  "out": 3124,
  "\u2581semanas": 3125,
  "\u2581alcance": 3126,
  "\u2581increasing": 3127,
  "\u2581incluido": 3128,
  "\u2581riesgos": 3129,
  "12": 3130,
  "\u2581elecciones": 3131,
  "\u2581conectar": 3132,
  "\u2581Criminal": 3133,
  "\u2581Du": 3134,
  "\u2581ven": 3135,
  "\u2581enfermedad": 3136,
  "can": 3137,
  "\u2581Corte": 3138,
  "\u25812001,": 3139,
  "\u2581asunto": 3140,
  "\u2581overall": 3141,
  "\u2581entire": 3142,
  "\u2581religious": 3143,
  "\u2581implemented": 3144,
  "\u2581adicionales": 3145,
  "\u2581peque\u00f1a": 3146,
  "\u2581tercer": 3147,
  "\u2581killed": 3148,
  "\u2581faith": 3149,
  "\u2581strive": 3150,
  "\u2581fuente": 3151,
  "\u2581cocina": 3152,
  "\u2581Search": 3153,
  "\u2581send": 3154,
  "\u2581estrategias": 3155,
  "\u2581VIH": 3156,
  "\u2581incluidas": 3157,
  "\u2581arms": 3158,
  "\u2581speak": 3159,
  "\u2581processes": 3160,
  "\u2581arrangements": 3161,
  "\u2581quite": 3162,
  "\u2581ba\u00f1o": 3163,
  "\u2581isn": 3164,
  "\u2581kill": 3165,
  "\u2581nice": 3166,
  "\u2581brand": 3167,
  "\u2581cuarto": 3168,
  "\u2581relations": 3169,
  "\u2581posibles": 3170,
  "\u2581awareness": 3171,
  "\u2581Saint": 3172,
  "\u2581situaciones": 3173,
  "\u2581record": 3174,
  "\u2581naturales": 3175,
  "\u2581UNCTAD": 3176,
  "\u2581equipos": 3177,
  "\u2581versi\u00f3n": 3178,
  "\u2581ganar": 3179,
  "\u2581establishing": 3180,
  "less": 3181,
  "\u2581although": 3182,
  "\u2581comunicaciones": 3183,
  "tiva": 3184,
  "\u2581militares": 3185,
  "\u2581supply": 3186,
  "io": 3187,
  "\u2581Public": 3188,
  "\u2581k": 3189,
  "ru": 3190,
  "\u2581opci\u00f3n": 3191,
  "27": 3192,
  "\u2581animales": 3193,
  "\u2581desarrollar": 3194,
  "\u2581ojos": 3195,
  "\u2581author": 3196,
  "\u2581peque\u00f1os": 3197,
  "\u2581annex": 3198,
  "\u2581structure": 3199,
  "\u2581baja": 3200,
  "\u2581require": 3201,
  "\u2581Children": 3202,
  "\u2581Roma": 3203,
  "\u2581mecanismo": 3204,
  "\u2581late": 3205,
  "\u2581enter": 3206,
  "\u2581habitaci\u00f3n": 3207,
  "\u2581ambos": 3208,
  "\u2581esfera": 3209,
  "\u2581knew": 3210,
  "\u2581Cor": 3211,
  "\u2581comentarios": 3212,
  "\u2581alimentos": 3213,
  ".8": 3214,
  "\u2581Tenemos": 3215,
  "\u2581utiliza": 3216,
  "\u2581bastante": 3217,
  "\u2581Representative": 3218,
  "\u2581pie": 3219,
  "\u2581Cada": 3220,
  "\u2581\u00e9ste": 3221,
  "\u258142": 3222,
  "\u2581electr\u00f3nico": 3223,
  "\u2581esforza": 3224,
  "\u2581previsto": 3225,
  "\u2581Sea": 3226,
  "\u2581Norte": 3227,
  "\u2581Trade": 3228,
  "\u2581Asimismo": 3229,
  "\u2581story": 3230,
  "\u2581Com": 3231,
  "28": 3232,
  "\u2581methods": 3233,
  "\u2581conduct": 3234,
  "\u2581Alto": 3235,
  "\u2581requests": 3236,
  "\u2581negotiations": 3237,
  "\u2581Banco": 3238,
  "\u2581all\u00e1": 3239,
  "\u2581asociados": 3240,
  "\u2581humano": 3241,
  "\u2581adoptadas": 3242,
  "000": 3243,
  "\u25815,": 3244,
  "ise": 3245,
  "\u2581existentes": 3246,
  "\u2581experts": 3247,
  "\u2581solamente": 3248,
  "\u2581primary": 3249,
  "pi": 3250,
  "\u258139": 3251,
  "\u2581paper": 3252,
  "\u2581behind": 3253,
  "\u2581Constituci\u00f3n": 3254,
  "\u2581About": 3255,
  "\u2581promoting": 3256,
  "\u2581mapa": 3257,
  "\u2581effort": 3258,
  "rs": 3259,
  "\u2581choosing": 3260,
  "\u2581debemos": 3261,
  "18": 3262,
  "\u2581haga": 3263,
  "\u2581War": 3264,
  "\u2581values": 3265,
  "\u2581peque\u00f1as": 3266,
  "\u2581(1": 3267,
  "\u2581equality": 3268,
  "\u2581mayores": 3269,
  "\u2581incluida": 3270,
  "\u2581achieved": 3271,
  "\u2581thank": 3272,
  "\u2581Brasil": 3273,
  "via": 3274,
  "\u2581Ecuador": 3275,
  "\u2581adicional": 3276,
  "\u2581T\u00fa": 3277,
  "\u2581became": 3278,
  "\u2581deber\u00e1n": 3279,
  "\u2581confianza": 3280,
  "\u2581concerns": 3281,
  "\u2581Permanente": 3282,
  "ek": 3283,
  "\u2581tr\u00e1fico": 3284,
  "dy": 3285,
  "ny": 3286,
  "\u2581supervisi\u00f3n": 3287,
  "\u2581formal": 3288,
  "\u2581adequate": 3289,
  "\u2581operational": 3290,
  "\u2581menudo": 3291,
  "\u2581movimiento": 3292,
  "\u2581sectors": 3293,
  "\u2581whom": 3294,
  "\u2581pensar": 3295,
  "\u2581duda": 3296,
  "\u2581decide": 3297,
  "\u2581escuelas": 3298,
  "\u2581guidelines": 3299,
  "\u2581relativos": 3300,
  "\u2581minimum": 3301,
  "\u2581escrito": 3302,
  "\u2581Support": 3303,
  "\u2581amenaza": 3304,
  "wa": 3305,
  "\u2581Constitution": 3306,
  "\u2581respecta": 3307,
  "\u25819.": 3308,
  "\u2581strategies": 3309,
  "\u2581cm": 3310,
  "We": 3311,
  "lin": 3312,
  "\u2581buscar": 3313,
  "\u2581director": 3314,
  "\u2581econ\u00f3micas": 3315,
  "\u2581delito": 3316,
  "\u2581functions": 3317,
  "\u2581users": 3318,
  "\u2581esferas": 3319,
  "\u2581integration": 3320,
  "\u2581Salud": 3321,
  "\u2581pronto": 3322,
  "\u2581drogas": 3323,
  "\u2581presidente": 3324,
  "\u2581obligaci\u00f3n": 3325,
  "\u2581trafficking": 3326,
  "\u2581message": 3327,
  "\u2581conforme": 3328,
  "\u2581violaciones": 3329,
  "\u2581eliminar": 3330,
  "\u2581delitos": 3331,
  "\u2581Amarillas": 3332,
  "\u2581Otros": 3333,
  "\u2581pena": 3334,
  "\u2581majority": 3335,
  "Q": 3336,
  "\u2581ni\u00f1as": 3337,
  "\u2581clearly": 3338,
  "\u2581fuentes": 3339,
  "11": 3340,
  "\u2581honor": 3341,
  "\u258144": 3342,
  "\u2581Ru": 3343,
  "\u2581criteria": 3344,
  "\u2581aprobado": 3345,
  "ard": 3346,
  "\u2581Lu": 3347,
  "\u2581shows": 3348,
  "\u2581email": 3349,
  "\u2581Ko": 3350,
  "\u2581tecnolog\u00edas": 3351,
  "\u00bb.": 3352,
  "\u2581totalmente": 3353,
  "\u2581cuyo": 3354,
  "ous": 3355,
  "\u2581caracter\u00edsticas": 3356,
  "\u2581Management": 3357,
  "\u2581Servicio": 3358,
  "\u2581walk": 3359,
  "\u2581contribuciones": 3360,
  "\u2581daily": 3361,
  "\u2581earth": 3362,
  "\u2581progresos": 3363,
  "\u2581Father": 3364,
  "\u2581informed": 3365,
  "\u2581Ri": 3366,
  "\u2581lower": 3367,
  "\u2581digital": 3368,
  "\u2581Covenant": 3369,
  "\u2581h": 3370,
  "\u2581Education": 3371,
  "48": 3372,
  "\u2581detalles": 3373,
  "\u2581dispone": 3374,
  "\u2581humana": 3375,
  "\u2581enable": 3376,
  "\u2581euros": 3377,
  "CO": 3378,
  "\u2581Also": 3379,
  "\u2581racial": 3380,
  "\u2581tengan": 3381,
  "\u2581eyes": 3382,
  "\u2581t\u00e9cnicas": 3383,
  "\u2581built": 3384,
  "\u2581beneficios": 3385,
  "\u2581circunstancias": 3386,
  "\u2581figuran": 3387,
  "\u2581proceedings": 3388,
  "\u2581demanda": 3389,
  "\u2581anyone": 3390,
  "rd": 3391,
  "\u2581puerta": 3392,
  "\u2581German": 3393,
  "\u2581intercambio": 3394,
  "\u2581financing": 3395,
  "\u2581Read": 3396,
  "\u2581ensuring": 3397,
  "\u2581voluntad": 3398,
  "\u2581commercial": 3399,
  "32": 3400,
  "ino": 3401,
  "\u2581peso": 3402,
  "\u00e7": 3403,
  "sion": 3404,
  "\u2581pan": 3405,
  "\u2581Hu": 3406,
  "\u2581conmigo": 3407,
  "\u2581music": 3408,
  "\u2581terceros": 3409,
  "\u2581resto": 3410,
  "\u2581somos": 3411,
  "\u2581misiones": 3412,
  "\u2581amplio": 3413,
  "\u2581image": 3414,
  "\u2581identified": 3415,
  "\u2581graves": 3416,
  "\u2581razones": 3417,
  "\u0301": 3418,
  "ita": 3419,
  "\u2581stand": 3420,
  "\u2581Jo": 3421,
  "\u2581veh\u00edculos": 3422,
  "\u2581contiene": 3423,
  "\u2581initiative": 3424,
  "\u2581baby": 3425,
  "\u2581incluir": 3426,
  "\u2581success": 3427,
  "\u2581weeks": 3428,
  "21": 3429,
  "\u2581facilitate": 3430,
  "31": 3431,
  "\u2581PC": 3432,
  "\u2581relation": 3433,
  "\u2581consultations": 3434,
  "\u2581California": 3435,
  "\u2581civiles": 3436,
  "\u00ae": 3437,
  "\u2581disease": 3438,
  "\u2581cuya": 3439,
  "ando": 3440,
  "\u2581arriba": 3441,
  "\u2581m\u00ednimo": 3442,
  "EN": 3443,
  "\u2581assist": 3444,
  "\u2581Casa": 3445,
  "\u2581wide": 3446,
  "\u2581shown": 3447,
  "\u2581frecuencia": 3448,
  "\u2581floor": 3449,
  "\u2581Canada": 3450,
  "\u2581participate": 3451,
  "\u2581mejora": 3452,
  "\u2581mentioned": 3453,
  "gu": 3454,
  "\u2581fun": 3455,
  "cer": 3456,
  "\u2581juicio": 3457,
  "\u2581recognized": 3458,
  "\u2581instrumento": 3459,
  "\u2581spirit": 3460,
  "\u2581dificultades": 3461,
  "\u2581Representante": 3462,
  "S\u00ed": 3463,
  "\u2581tasa": 3464,
  "\u2581comprar": 3465,
  "\u2581conference": 3466,
  "\u2581origin": 3467,
  "\u2581avoid": 3468,
  "\u2581nor": 3469,
  "\u2581Section": 3470,
  "\u2581Q": 3471,
  "\u2581principalmente": 3472,
  "\u2581trust": 3473,
  "\u2581Austria": 3474,
  "\u2581violations": 3475,
  "\u2581necesaria": 3476,
  "\u2581prior": 3477,
  "01": 3478,
  "ud": 3479,
  "\u2581500": 3480,
  "\u2581bit": 3481,
  "\u2581fire": 3482,
  "\u2581measure": 3483,
  "34": 3484,
  "33": 3485,
  "\u2581terrorism": 3486,
  "\u2581began": 3487,
  "\u2581multilateral": 3488,
  "\u2581hechos": 3489,
  "\u2581doble": 3490,
  "\u2581follows": 3491,
  "\u2581Maybe": 3492,
  "\u2581oficinas": 3493,
  "ados": 3494,
  "\u2581cliente": 3495,
  "EU": 3496,
  "bra": 3497,
  "\u2581sex": 3498,
  "\u2581recibido": 3499,
  "\u2581maximum": 3500,
  "\u2581weight": 3501,
  "\u2581loss": 3502,
  "\u2581Great": 3503,
  "\u2581incluyen": 3504,
  "\u2581Ju": 3505,
  "\u2581Ministro": 3506,
  "\u2581agricultural": 3507,
  "\u2581AND": 3508,
  "\u2581[...]": 3509,
  "2.": 3510,
  "\u2581Brazil": 3511,
  "\u2581Although": 3512,
  "\u2581factores": 3513,
  "\u2581ones": 3514,
  "\u2581class": 3515,
  "cen": 3516,
  "\u2581exterior": 3517,
  "ies": 3518,
  "\u258110.": 3519,
  "\u2581dije": 3520,
  "\u2581regulations": 3521,
  "\u2581Child": 3522,
  "\u2581infrastructure": 3523,
  "\u2581Check": 3524,
  "\u2581motivos": 3525,
  "\u2581encuentran": 3526,
  "tivo": 3527,
  "55": 3528,
  "-1": 3529,
  "\u2581siguen": 3530,
  "\u2581entrar": 3531,
  "\u2581reached": 3532,
  "\u2581adelante": 3533,
  "2,": 3534,
  "\u2581officials": 3535,
  "\u2581indica": 3536,
  "\u2581aim": 3537,
  "ted": 3538,
  "\u2581p\u00fablicas": 3539,
  "\u2581diez": 3540,
  "\u2581lleva": 3541,
  "\u2581investigation": 3542,
  "ju": 3543,
  "UN": 3544,
  "\u2581choose": 3545,
  "\u2581Ga": 3546,
  "49": 3547,
  "\u2581generar": 3548,
  "\u2581planificaci\u00f3n": 3549,
  "\u2581external": 3550,
  "\u2581Agenda": 3551,
  "29": 3552,
  "\u2581realizaci\u00f3n": 3553,
  "\u2581mental": 3554,
  "\u2581Review": 3555,
  "\u2581answer": 3556,
  "sis": 3557,
  "\u25811992": 3558,
  "\u2581giving": 3559,
  "\u2581strategic": 3560,
  "\u2581Facebook": 3561,
  "\u2581Take": 3562,
  "14": 3563,
  "\u2581pagar": 3564,
  "\u2581version": 3565,
  "\u2581Thanks": 3566,
  "\u2581fuego": 3567,
  "\u2581est\u00e9n": 3568,
  "\u2581integrated": 3569,
  "\u2581Japan": 3570,
  "\u2581fortalecer": 3571,
  "\u2581grado": 3572,
  "\u2581Pa\u00edses": 3573,
  "\u2581considerar": 3574,
  "\u2581quer\u00eda": 3575,
  "13": 3576,
  "\u2581realizado": 3577,
  "\u2581Sub": 3578,
  "\u2581declaraciones": 3579,
  "\u2581comunes": 3580,
  "\u2581motivo": 3581,
  "\u2581financieras": 3582,
  "\u2581estilo": 3583,
  "\u2581destino": 3584,
  "ating": 3585,
  "\u2581Permanent": 3586,
  "\u258141": 3587,
  "\u2581scientific": 3588,
  "\u2581Relator": 3589,
  "Si": 3590,
  "\u2581Hav": 3591,
  "cal": 3592,
  "hi": 3593,
  "DE": 3594,
  "\u2581permanente": 3595,
  "\u2581m\u00edo": 3596,
  "\u258146": 3597,
  "\u2581Mu": 3598,
  "\u2581Bosnia": 3599,
  "\u2581financiero": 3600,
  "ut": 3601,
  "hu": 3602,
  "\u2581tama\u00f1o": 3603,
  "\u25812009,": 3604,
  "\u2581markets": 3605,
  "\u2581Instituto": 3606,
  "\u2581allowed": 3607,
  "It": 3608,
  "-2": 3609,
  "\u2581responsable": 3610,
  "\u2581Institute": 3611,
  "\u2581serio": 3612,
  "\u2581features": 3613,
  "\u2581Airport": 3614,
  "\u2581representa": 3615,
  "\u2581function": 3616,
  "\u258143": 3617,
  "\u2581seems": 3618,
  "\u2581opciones": 3619,
  "\u2581evaluar": 3620,
  "\u2581micro": 3621,
  "\u2581beyond": 3622,
  "\u2581welcome": 3623,
  "\u2581Such": 3624,
  "bles": 3625,
  "08": 3626,
  "\u2581happy": 3627,
  "\u2581serve": 3628,
  "\u2581collection": 3629,
  "\u2581thinking": 3630,
  "time": 3631,
  "\u2581credit": 3632,
  "\u2581statements": 3633,
  "\u2581existen": 3634,
  "\u2581sources": 3635,
  "\u2581Sierra": 3636,
  "\u2581distribution": 3637,
  "\u2581News": 3638,
  "\u2581intended": 3639,
  "\u2581myself": 3640,
  "\u2581TO": 3641,
  "\u2581defensa": 3642,
  "\u2581Protection": 3643,
  "\u2581consulta": 3644,
  "\u2581aprob\u00f3": 3645,
  "\u2581Pa": 3646,
  "\u2581allows": 3647,
  "\u2581UNDP": 3648,
  "\u2581Jehovah": 3649,
  "op": 3650,
  "\u258155": 3651,
  "\u2581present\u00f3": 3652,
  "\u2581habr\u00eda": 3653,
  "\u2581reviews": 3654,
  "\u2581diferente": 3655,
  "\u2581entorno": 3656,
  "\u2581unidad": 3657,
  "97": 3658,
  "\u2581cr\u00e9dito": 3659,
  "su": 3660,
  "\u2581metros": 3661,
  "\u2581viene": 3662,
  "\u2581archivos": 3663,
  "\u2581factors": 3664,
  "cre": 3665,
  "\u2581cuidado": 3666,
  "\u2581resolver": 3667,
  "36": 3668,
  "\u2581immediately": 3669,
  "\u2581offices": 3670,
  "\u2581mitad": 3671,
  "mp": 3672,
  "\u2581tribunal": 3673,
  "\u2581recently": 3674,
  "\u2581Advisory": 3675,
  "\u2581black": 3676,
  "\u2581existencia": 3677,
  "\u2581entrega": 3678,
  "remos": 3679,
  "\u2581Jap\u00f3n": 3680,
  "16": 3681,
  "\u2581defined": 3682,
  "\u2581wants": 3683,
  "gi": 3684,
  "\u2581code": 3685,
  "\u2581ofrecer": 3686,
  "\u2581submit": 3687,
  "\u2581pidi\u00f3": 3688,
  "ence": 3689,
  "\u2581preparation": 3690,
  "\u2581interesados": 3691,
  "\u2581simplemente": 3692,
  "\u2581sola": 3693,
  "\u2581center": 3694,
  "\u2581Control": 3695,
  "\u2581Park": 3696,
  "\u2581payment": 3697,
  "\u2581explotaci\u00f3n": 3698,
  "\u2581Fa": 3699,
  "\u2581contract": 3700,
  "\u2581resulta": 3701,
  "\u2581film": 3702,
  "Le": 3703,
  "\u2581extent": 3704,
  "\u2581Administraci\u00f3n": 3705,
  "\u2581entry": 3706,
  "\u2581Ti": 3707,
  "\u2581Pol\u00edtica": 3708,
  "cio": 3709,
  "\u2581applications": 3710,
  "ak": 3711,
  "\u2581goals": 3712,
  "\u2581secretar\u00eda": 3713,
  "\u2581obras": 3714,
  "\u2581demand": 3715,
  "00": 3716,
  "\u2581esp\u00edritu": 3717,
  "\u2581likely": 3718,
  "\u2581Sus": 3719,
  "\u2581europea": 3720,
  "\u2581inversiones": 3721,
  "\u2581indicated": 3722,
  "\u00a1": 3723,
  "\u2581conclusiones": 3724,
  "\u2581distintas": 3725,
  "\u2581PNUD": 3726,
  "\u2581pressure": 3727,
  "\u2581Sala": 3728,
  "75": 3729,
  "\u2581pe": 3730,
  "\u2581decidi\u00f3": 3731,
  "\u2581Nunca": 3732,
  "\u2581double": 3733,
  "\u2581charge": 3734,
  "\u2581propios": 3735,
  "\u2581culturales": 3736,
  "\u2581llamado": 3737,
  "\u2581choice": 3738,
  "\u2581conducted": 3739,
  "pre": 3740,
  "\u2581wasn": 3741,
  "\u2581esperar": 3742,
  "\u2581Personal": 3743,
  "-3": 3744,
  "una": 3745,
  "\u2581detailed": 3746,
  "\u2581compliance": 3747,
  "ED": 3748,
  "\u2581Will": 3749,
  "\u2581im\u00e1genes": 3750,
  "\u2581situations": 3751,
  "\u2581cut": 3752,
  "45": 3753,
  "\u2581units": 3754,
  "nia": 3755,
  "\u2581gustar\u00eda": 3756,
  "\u2581directrices": 3757,
  "\u2581arte": 3758,
  "\u2581contribuci\u00f3n": 3759,
  "\u2581Venezuela": 3760,
  "\u2581guarantee": 3761,
  "\u2581eliminaci\u00f3n": 3762,
  "\u2581Esa": 3763,
  "\u258165": 3764,
  "\u2581youth": 3765,
  "\u2581sa": 3766,
  "\u2581caused": 3767,
  "\u258147": 3768,
  "\u2581Even": 3769,
  "\u2581seven": 3770,
  "\u2581CE": 3771,
  "\u2581considerable": 3772,
  "tri": 3773,
  "\u2581Agency": 3774,
  "\u2581Many": 3775,
  "\u2581introduced": 3776,
  "\u2581enhance": 3777,
  "ite": 3778,
  "\u2581door": 3779,
  "\u2581bio": 3780,
  "\u2581vistas": 3781,
  "\u2581asociaci\u00f3n": 3782,
  "\u2581primeros": 3783,
  "\u2581Uh": 3784,
  "\u2581300": 3785,
  "ng": 3786,
  "\u2581Tierra": 3787,
  "\u2581ciudades": 3788,
  "\u2581disponibilidad": 3789,
  "\u2581euro": 3790,
  "\u2581Villa": 3791,
  "\u2581ES": 3792,
  "\u2581detention": 3793,
  "\u2581Empiece": 3794,
  "\u2581produced": 3795,
  "\u2581determine": 3796,
  "\u2581juntos": 3797,
  "\u2581mechanism": 3798,
  "\u2581Day": 3799,
  "\u2581adecuada": 3800,
  "\u258175": 3801,
  "\u2581justo": 3802,
  "\u2581Have": 3803,
  "\u2581laid": 3804,
  "\u2581sol": 3805,
  "\u2581drive": 3806,
  "\u2581options": 3807,
  "\u2581pr\u00f3ximo": 3808,
  "\u2581compromisos": 3809,
  "\u2581Policy": 3810,
  "\u2581Del": 3811,
  "\u2581accept": 3812,
  "\u2581detenci\u00f3n": 3813,
  "fer": 3814,
  "\u2581requires": 3815,
  "tic": 3816,
  "\u2581Ven": 3817,
  "\u2581peligro": 3818,
  "\u2581Guinea": 3819,
  "\u2581initial": 3820,
  "23": 3821,
  "\u2581medium": 3822,
  "\u2581contains": 3823,
  "\u2581Forum": 3824,
  "\u2581fiscal": 3825,
  "\u2581aproximadamente": 3826,
  "05": 3827,
  "Est\u00e1s": 3828,
  "89": 3829,
  "\u2581super": 3830,
  "\u2581complex": 3831,
  "\u2581Algunos": 3832,
  "\u2581Euro": 3833,
  "\u2581siete": 3834,
  "\u2581possibility": 3835,
  "day": 3836,
  "\u258177": 3837,
  "\u2581unique": 3838,
  "\u2581vino": 3839,
  "\u2581combat": 3840,
  "\u2581enfermedades": 3841,
  "\u2581Non": 3842,
  "\u2581followed": 3843,
  "cos": 3844,
  "\u2581maintenance": 3845,
  "\u2581uh": 3846,
  "\u2581m\u00fasica": 3847,
  "\u2581sign": 3848,
  "\u2581cama": 3849,
  "\u2581contigo": 3850,
  "\u2581granted": 3851,
  "\u2581Kosovo": 3852,
  "\u00f3n": 3853,
  "\u25816,": 3854,
  "\u2581scope": 3855,
  "\u2581species": 3856,
  "\u2581duty": 3857,
  "\u2581probably": 3858,
  "06": 3859,
  "\u2581rey": 3860,
  "\u2581mil": 3861,
  "\u2581competent": 3862,
  "\u2581vigilancia": 3863,
  "\u2581leading": 3864,
  "\u2581000": 3865,
  "\u2581conciencia": 3866,
  "ish": 3867,
  "\u2581buy": 3868,
  "\u2581billion": 3869,
  "\u2581fall": 3870,
  "\u258149": 3871,
  "\u2581dated": 3872,
  "07": 3873,
  "building": 3874,
  "\u2581esencial": 3875,
  "\u2581moral": 3876,
  "ren": 3877,
  "\u2581hermano": 3878,
  "\u2581dosis": 3879,
  "\u2581gives": 3880,
  "\u2581usuario": 3881,
  "\u2581treaty": 3882,
  "ido": 3883,
  "\u2581adoptado": 3884,
  "\u2581worked": 3885,
  "\u2581fomentar": 3886,
  "\u2581Mrs": 3887,
  "\u2581firms": 3888,
  "\u2581goes": 3889,
  "\u2581basado": 3890,
  "ura": 3891,
  "ized": 3892,
  "\u2581Panel": 3893,
  "\u258154": 3894,
  "\u2581elaborar": 3895,
  "\u2581cara": 3896,
  "\u2581operating": 3897,
  "\u2581contrato": 3898,
  "\u2581pas\u00f3": 3899,
  "38": 3900,
  "\u2581System": 3901,
  "\u00a9": 3902,
  "\u2581posibilidades": 3903,
  "\u2581hell": 3904,
  "\u2581RE": 3905,
  "\u2581asimismo": 3906,
  "37": 3907,
  "\u2581interested": 3908,
  "39": 3909,
  "\u2581fair": 3910,
  "ang": 3911,
  "\u2581prestaci\u00f3n": 3912,
  "dis": 3913,
  "\u2581discapacidad": 3914,
  "\u2581signed": 3915,
  "\u2581pide": 3916,
  "\u2581contribuir": 3917,
  "\u2581eat": 3918,
  "\u2581placed": 3919,
  "\u2581Sobre": 3920,
  "\u2581Real": 3921,
  "\u2581Room": 3922,
  "\u2581Hello": 3923,
  "\u2581pobres": 3924,
  "\u2581ability": 3925,
  "\u2581tareas": 3926,
  "\u2581contrario": 3927,
  "\u2581participants": 3928,
  "\u2581seek": 3929,
  "\u2581leaders": 3930,
  "\u2581latest": 3931,
  "\u2581deseo": 3932,
  "\u2581undertaken": 3933,
  "\u2581descargar": 3934,
  "\u2581Tiene": 3935,
  "\u2581born": 3936,
  "\u2581Gar": 3937,
  "\u2581gone": 3938,
  "\u2581Charter": 3939,
  "\u2581exposici\u00f3n": 3940,
  "\u2581com": 3941,
  "\u2581per\u00edodos": 3942,
  "\u2581happen": 3943,
  "\u2581desarme": 3944,
  "\u2581technologies": 3945,
  "\u2581Ah": 3946,
  "\u2581revisi\u00f3n": 3947,
  "\u2581inicial": 3948,
  "\u2581duraci\u00f3n": 3949,
  "\u2581sexo": 3950,
  "\u2581waste": 3951,
  "\u2581simply": 3952,
  "\u2581secretariat": 3953,
  "\u2581publicaci\u00f3n": 3954,
  "\u2581thanks": 3955,
  "\u2581disfrutar": 3956,
  "\u2581institutional": 3957,
  "port": 3958,
  "/2": 3959,
  "val": 3960,
  "\u2581crimes": 3961,
  "\u2581Two": 3962,
  "ces": 3963,
  "\u2581fase": 3964,
  "\u2581b\u00e1sicos": 3965,
  "47": 3966,
  "\u25812010,": 3967,
  "=": 3968,
  "\u2581brindar": 3969,
  "\u2581agree": 3970,
  "\u2581soluciones": 3971,
  "\u2581Va": 3972,
  "\u2581brother": 3973,
  "\u2581torture": 3974,
  "44": 3975,
  "\u2581uses": 3976,
  "17": 3977,
  "65": 3978,
  "\u2581\u00fanicamente": 3979,
  "\u2581die": 3980,
  "\u2581Those": 3981,
  "\u2581delegaciones": 3982,
  "\u2581claims": 3983,
  "bu": 3984,
  "\u2581Legal": 3985,
  "\u2581permitir": 3986,
  "\u2581Padre": 3987,
  "\u2581maintain": 3988,
  "\u2581goal": 3989,
  "ent": 3990,
  "\u2581Bu": 3991,
  "\u2581abordar": 3992,
  "\u2581actuales": 3993,
  "t\u00e9": 3994,
  "04": 3995,
  "\u2581li": 3996,
  "\u2581mente": 3997,
  "\u2581insurance": 3998,
  "\u2581reglamento": 3999,
  "\u2581prepare": 4000,
  "\u258152": 4001,
  "\u2581informal": 4002,
  "\u2581Des": 4003,
  "\u2581presi\u00f3n": 4004,
  "98": 4005,
  "Los": 4006,
  "\u2581tools": 4007,
  "\u2581improving": 4008,
  "\u2581completed": 4009,
  "\u2581chance": 4010,
  "\u2581impacto": 4011,
  "\u2581Chairman": 4012,
  "\u2581Play": 4013,
  "\u2581c\u00f3digo": 4014,
  "\u2581joven": 4015,
  "\u2581distancia": 4016,
  "26": 4017,
  "\u2581inferior": 4018,
  "\u2581EC": 4019,
  "\u2581missions": 4020,
  "\u2581info": 4021,
  "\u2581requiere": 4022,
  "\u2581described": 4023,
  "\u2581option": 4024,
  "\u25811991": 4025,
  "\u2581Peter": 4026,
  "\u2581completamente": 4027,
  "\u2581adopt": 4028,
  "lan": 4029,
  "ville": 4030,
  "\u2581claramente": 4031,
  "94": 4032,
  "IT": 4033,
  "\u2581critical": 4034,
  "\u2581vital": 4035,
  "\u2581creado": 4036,
  "\u2581Canad\u00e1": 4037,
  "\u2581Israeli": 4038,
  "\u2581refugees": 4039,
  "\u2581preparar": 4040,
  "\u2581centres": 4041,
  "her": 4042,
  "\u2581Guatemala": 4043,
  "\u2581N\u00famero": 4044,
  "\u00da": 4045,
  "\u2581Therefore": 4046,
  "\u2581prop\u00f3sito": 4047,
  "\u2581responder": 4048,
  "\u2581generate": 4049,
  "\u2581responsables": 4050,
  "\u2581correo": 4051,
  "92": 4052,
  "\u00b7": 4053,
  "ez": 4054,
  "yo": 4055,
  "\u2581Toma": 4056,
  "==": 4057,
  "AL": 4058,
  "\u2581reforzar": 4059,
  "\u2581Most": 4060,
  "\u2581user": 4061,
  "\u2581Buenos": 4062,
  "ier": 4063,
  "\u2581prison": 4064,
  "\u2581debt": 4065,
  "\u2581pesca": 4066,
  "\u2581save": 4067,
  "\u2581elections": 4068,
  "\u2581\u00e9sta": 4069,
  "\u2581estate": 4070,
  "\u2581task": 4071,
  "22": 4072,
  "ful": 4073,
  "\u2581Jos\u00e9": 4074,
  "\u2581prevenir": 4075,
  "\u2581Bed": 4076,
  "\u2581miras": 4077,
  "\u2581Tri": 4078,
  "\u2581satisfacci\u00f3n": 4079,
  "\u2581orientaci\u00f3n": 4080,
  "\u2581siquiera": 4081,
  "\u2581unit": 4082,
  "\u2581estar\u00e1": 4083,
  "\u258151": 4084,
  "ide": 4085,
  "level": 4086,
  "\u2581successful": 4087,
  "\u2581unto": 4088,
  "\u25811999,": 4089,
  "\u2581campa\u00f1a": 4090,
  "\u2581computer": 4091,
  "\u2581perspectiva": 4092,
  "\u2581continues": 4093,
  "\u2581conexi\u00f3n": 4094,
  "\u258111.": 4095,
  "ize": 4096,
  "\u2581claim": 4097,
  "\u2581Tra": 4098,
  "\u2581compra": 4099,
  "\u2581Christian": 4100,
  "\u2581practical": 4101,
  "59": 4102,
  "\u2581respuestas": 4103,
  "-4": 4104,
  "\u2581useful": 4105,
  "\u2581solutions": 4106,
  "CP": 4107,
  "\u2581educational": 4108,
  "\u2581Art": 4109,
  "bar": 4110,
  "\u2581add": 4111,
  "\u2581growing": 4112,
  "\u2581separate": 4113,
  "\u2581Ese": 4114,
  "\u2581press": 4115,
  "\u2581identify": 4116,
  "\u2581died": 4117,
  "\u2581transici\u00f3n": 4118,
  "tura": 4119,
  "\u2581contar": 4120,
  "\u2581COM": 4121,
  "\u2581disarmament": 4122,
  "\u2581recommendation": 4123,
  "\u2581SE": 4124,
  "wi": 4125,
  "dia": 4126,
  "\u2581EE": 4127,
  "\u2581Tras": 4128,
  "\u2581reservas": 4129,
  "\u2581officers": 4130,
  "\u2581jur\u00eddica": 4131,
  "\u2581Yugoslavia": 4132,
  "51": 4133,
  "\u2581Number": 4134,
  "\u2581posts": 4135,
  "\u2581mass": 4136,
  "\u2581hogar": 4137,
  "\u2581offered": 4138,
  "\u2581Holy": 4139,
  "\u2581du": 4140,
  "\u2581bienio": 4141,
  "\u2581carne": 4142,
  "\u2581apartment": 4143,
  "\u2581evoluci\u00f3n": 4144,
  "\u2581reduced": 4145,
  "\u2581urban": 4146,
  "\u2581tribunales": 4147,
  "\u2581Ginebra": 4148,
  "\u2581emergency": 4149,
  "\u2581(1)": 4150,
  "\u2581island": 4151,
  "\u2581raised": 4152,
  "\u2581Chi": 4153,
  "\u2581Gi": 4154,
  "\u2581expresi\u00f3n": 4155,
  "\u2581DEL": 4156,
  "\u2581Voy": 4157,
  "\u2581languages": 4158,
  "\u258156": 4159,
  "\u2581commitments": 4160,
  "\u2581encourage": 4161,
  "cas": 4162,
  "\u2581determinaci\u00f3n": 4163,
  "\u2581maybe": 4164,
  "\u2581conferencias": 4165,
  "\u2581communications": 4166,
  "\u2581completely": 4167,
  "\u2581se\u00f1ala": 4168,
  "\u2581boy": 4169,
  "\u2581situado": 4170,
  "\u2581Federaci\u00f3n": 4171,
  "\u2581competentes": 4172,
  "ario": 4173,
  "\u2581compa\u00f1\u00eda": 4174,
  "\u2581Mujer": 4175,
  "77": 4176,
  "\u2581votaci\u00f3n": 4177,
  "\u2581Federation": 4178,
  "46": 4179,
  "\u2581violaci\u00f3n": 4180,
  "\u2581p\u00e9rdida": 4181,
  "\u2581hablando": 4182,
  "\u2581diciendo": 4183,
  "\u2581chica": 4184,
  "\u2581amended": 4185,
  "\u2581espec\u00edficas": 4186,
  "ung": 4187,
  "\u2581challenge": 4188,
  "\u2581jur\u00eddico": 4189,
  "sta": 4190,
  "si\u00f3n": 4191,
  "\u2581recomendaci\u00f3n": 4192,
  "\u2581Democratic": 4193,
  "\u2581t\u00edtulo": 4194,
  "\u2581Hace": 4195,
  "\u2581usually": 4196,
  "\u2581Cooperation": 4197,
  "\u2581Sol": 4198,
  "\u00f6": 4199,
  "\u2581voz": 4200,
  "au": 4201,
  "\u2581miedo": 4202,
  "\u2581calle": 4203,
  "\u2581Herzegovina": 4204,
  "mas": 4205,
  "\u2581compared": 4206,
  "\u2581Open": 4207,
  "\u2581clic": 4208,
  "\u2581privada": 4209,
  "\u258112.": 4210,
  "\u2581C\u00f3mo": 4211,
  "\u2581mine": 4212,
  "\u2581fomento": 4213,
  "\u2581cap\u00edtulo": 4214,
  "\u2581llegado": 4215,
  "\u2581definici\u00f3n": 4216,
  "\u2581aware": 4217,
  "tina": 4218,
  "\u2581Todas": 4219,
  "1/": 4220,
  "\u2581skills": 4221,
  "\u2581Research": 4222,
  "\u2581abuse": 4223,
  "2/": 4224,
  "43": 4225,
  "IN": 4226,
  "\u2581pa": 4227,
  "\u2581border": 4228,
  "ning": 4229,
  "ais": 4230,
  "related": 4231,
  "\u2581Geneva": 4232,
  "\u00f4": 4233,
  "\u2581democracia": 4234,
  "\u2581visitas": 4235,
  "\u2581pool": 4236,
  "\u2581effectively": 4237,
  "\u2581abajo": 4238,
  "\u2581Division": 4239,
  "\u2581suma": 4240,
  "7/": 4241,
  "\u00e8": 4242,
  "\u2581delivery": 4243,
  "\u2581bases": 4244,
  "\u2581watch": 4245,
  "\u2581peacekeeping": 4246,
  "\u2581fi": 4247,
  "\u2581prensa": 4248,
  "\u2581solicitudes": 4249,
  "\u2581Breakfast": 4250,
  "mm": 4251,
  "Ma": 4252,
  "\u2581buscando": 4253,
  "\u2581volumen": 4254,
  "\u2581determined": 4255,
  "\u2581deuda": 4256,
  "gra": 4257,
  "ff": 4258,
  "\u2581bo": 4259,
  "\u2581comida": 4260,
  "1,": 4261,
  "\u2581federal": 4262,
  "\u2581damage": 4263,
  "\u2581directa": 4264,
  "\u2581Air": 4265,
  "\u2581Alquiler": 4266,
  "\u2581legislative": 4267,
  "\u2581hour": 4268,
  "\u25817,": 4269,
  "\u2581edificio": 4270,
  "\u2581Educaci\u00f3n": 4271,
  "ial": 4272,
  "\u2581Furthermore": 4273,
  "\u2581letra": 4274,
  "\u2581similares": 4275,
  "\u2581prioridades": 4276,
  "\u2581incluyendo": 4277,
  "ance": 4278,
  "\u2581se\u00f1al\u00f3": 4279,
  "\u2581investigaciones": 4280,
  "\u2581Ireland": 4281,
  "vis": 4282,
  "\u2581concept": 4283,
  "\u2581Foreign": 4284,
  "mon": 4285,
  "\u2581bi": 4286,
  "\u2581planta": 4287,
  "\u2581reality": 4288,
  "\u2581break": 4289,
  "\u2581condition": 4290,
  "\u2581comer": 4291,
  "\u2581setting": 4292,
  "\u2581Like": 4293,
  "\u2581titulado": 4294,
  "\u2581Foro": 4295,
  "\u2581thousands": 4296,
  "\u2581Any": 4297,
  "\u2581Meeting": 4298,
  "\u2581Irlanda": 4299,
  "\u2581prev\u00e9": 4300,
  "Que": 4301,
  "\u2581efficiency": 4302,
  "\u2581Articles": 4303,
  "\u2581pain": 4304,
  "US": 4305,
  "66": 4306,
  "\u2581efectivo": 4307,
  "\u2581recuperaci\u00f3n": 4308,
  "\u2581Les": 4309,
  "\u2581Best": 4310,
  "\u2581highly": 4311,
  "\u2581costos": 4312,
  "\u2581m\u00e9todo": 4313,
  "\u2581salida": 4314,
  "\u2581husband": 4315,
  "\u2581independencia": 4316,
  "\u2581tortura": 4317,
  "ix": 4318,
  "\u2581Uno": 4319,
  "ham": 4320,
  "\u2581enforcement": 4321,
  "\u2581CO": 4322,
  "\u2581Table": 4323,
  "\u2581Cooperaci\u00f3n": 4324,
  "\u2581ro": 4325,
  "\u2581plena": 4326,
  "\u2581wouldn": 4327,
  "\u2581advice": 4328,
  "\u2581reciente": 4329,
  "\u2581elecci\u00f3n": 4330,
  "\u2581esperanza": 4331,
  "\u2581sala": 4332,
  "\u2581opening": 4333,
  "\u2581instrument": 4334,
  "DO": 4335,
  "\u2581outcome": 4336,
  "\u2581noticias": 4337,
  "\u2581Indonesia": 4338,
  "\u2581king": 4339,
  "\u2581esposa": 4340,
  "\u2581files": 4341,
  "\u2581Georgia": 4342,
  "\u258153": 4343,
  "100": 4344,
  "\u2581propone": 4345,
  "\u2581unidades": 4346,
  "56": 4347,
  "58": 4348,
  "\u2581Divisi\u00f3n": 4349,
  "\u2581Cumbre": 4350,
  "ft": 4351,
  "Ha": 4352,
  "\u2581Ve": 4353,
  "\u2581developments": 4354,
  "\u2581Era": 4355,
  "\u2581Pu": 4356,
  "\u2581obligation": 4357,
  "\u2581Use": 4358,
  "\u2581Bible": 4359,
  "\u2581propias": 4360,
  "\u2581Rica": 4361,
  "\u2581observa": 4362,
  "\u2581visi\u00f3n": 4363,
  "\u2581habla": 4364,
  "\u2581dolor": 4365,
  "\u2581assets": 4366,
  "\u2581knows": 4367,
  "You": 4368,
  "\u2581dichos": 4369,
  "\u2581actualidad": 4370,
  "\u2581v\u00eda": 4371,
  "\u2581esfuerzo": 4372,
  "\u2581alternative": 4373,
  "\u2581buenas": 4374,
  "\u2581recordar": 4375,
  "He": 4376,
  "\u2581Only": 4377,
  "\u2581europeo": 4378,
  "\u2581tratado": 4379,
  "\u2581felt": 4380,
  "\u2581madera": 4381,
  "\u2581concluded": 4382,
  "\u2581crucial": 4383,
  "\u2581round": 4384,
  "\u2581animals": 4385,
  "\u2581learning": 4386,
  "\u2581Hasta": 4387,
  "tel": 4388,
  "\u2581\u00bb": 4389,
  "64": 4390,
  "\u2581muerto": 4391,
  "torneysDelivered": 4392,
  "\u2581recientemente": 4393,
  "\u2581negative": 4394,
  "\u2581bilateral": 4395,
  "\u2581norte": 4396,
  "\u2581aceptar": 4397,
  "\u2581familiares": 4398,
  "\u2581trial": 4399,
  "\u2581llama": 4400,
  "\u2581CD": 4401,
  "\u2581Milenio": 4402,
  "\u2581Center": 4403,
  "\u2581export": 4404,
  "\u2581r\u00e1pida": 4405,
  "57": 4406,
  "\u2581fear": 4407,
  "\u2581asesoramiento": 4408,
  "\u2581begin": 4409,
  "lia": 4410,
  "78": 4411,
  "85": 4412,
  "\u2581trato": 4413,
  "\u2581medicamentos": 4414,
  "\u2581invited": 4415,
  "\u25812011,": 4416,
  "ities": 4417,
  "\u2581experiencias": 4418,
  "\u2581style": 4419,
  "\u2581capaz": 4420,
  "\u2581emergencia": 4421,
  "\u2581categor\u00edas": 4422,
  "\u2581hot": 4423,
  "\u2581tarea": 4424,
  "\u2581deb\u00eda": 4425,
  "\u2581Che": 4426,
  "ING": 4427,
  "\u2581Cha": 4428,
  "\u2581pocos": 4429,
  "\u2581accepted": 4430,
  "adas": 4431,
  "\u2581Cal": 4432,
  "\u2581humanidad": 4433,
  "\u2581activa": 4434,
  "\u2581Asociaci\u00f3n": 4435,
  "ice": 4436,
  "\u2581m\u00e9dicos": 4437,
  "\u2581pretty": 4438,
  "\u2581continuar": 4439,
  "\u2581fields": 4440,
  "\u258157": 4441,
  "09": 4442,
  "\u2581collaboration": 4443,
  "\u2581vulnerable": 4444,
  "\u2581permanent": 4445,
  "\u2581imp": 4446,
  "\u2581intervenci\u00f3n": 4447,
  "\u2581internet": 4448,
  "\u2581prioridad": 4449,
  "van": 4450,
  "\u2581hotels": 4451,
  "\u2581Black": 4452,
  "\u2581aplicable": 4453,
  "\u2581sometimes": 4454,
  "\u2581Summit": 4455,
  "\u2581inmediatamente": 4456,
  "\u2581Nuestra": 4457,
  "\u2581consumption": 4458,
  "\u2581highest": 4459,
  "\u2581tierras": 4460,
  "\u2581r\u00e1pidamente": 4461,
  "\u2581skin": 4462,
  "tin": 4463,
  "\u2581intenci\u00f3n": 4464,
  "\u2581meaning": 4465,
  "\u2581station": 4466,
  "\u2581oferta": 4467,
  ":00": 4468,
  "41": 4469,
  "\u2581basa": 4470,
  "\u2581tried": 4471,
  "\u2581S\u00e9": 4472,
  "\u2581entities": 4473,
  "\u2581regime": 4474,
  "\u2581Espa\u00f1ol": 4475,
  "\u2581trabajando": 4476,
  "\u2581estimated": 4477,
  "\u2581London": 4478,
  "\u2581figure": 4479,
  "\u2581recommends": 4480,
  "\u2581piel": 4481,
  "\u2581plant": 4482,
  "\u2581comunitaria": 4483,
  "\u2581aguas": 4484,
  "\u2581necesitan": 4485,
  "\u2581hoteles": 4486,
  "\u2581Za": 4487,
  "3,": 4488,
  "\u2581approval": 4489,
  "\u2581adecuado": 4490,
  "\u2581costo": 4491,
  "\u2581estabilidad": 4492,
  "\u2581Mientras": 4493,
  "\u2581Pan": 4494,
  "\u2581paragraphs": 4495,
  "42": 4496,
  "\u2581improved": 4497,
  "\u2581sufficient": 4498,
  "\u2581Thus": 4499,
  "\u258185": 4500,
  "\u2581vuelta": 4501,
  "\u2581\u00f3rgano": 4502,
  "\u2581abierto": 4503,
  "\u2581expert": 4504,
  "\u2581courts": 4505,
  "\u2581Each": 4506,
  "\u2581Caribbean": 4507,
  "\u2581realizados": 4508,
  "\u2581dirigida": 4509,
  "\u2581priorities": 4510,
  "\u2581tra": 4511,
  "9/": 4512,
  "\u2581Second": 4513,
  "\u2581changed": 4514,
  "\u2581mesa": 4515,
  "\u2581Somalia": 4516,
  "\u2581Sam": 4517,
  "\u2581biennium": 4518,
  "\u2581transferencia": 4519,
  "\u2581petici\u00f3n": 4520,
  "\u2581breakfast": 4521,
  "\u2581espa\u00f1ol": 4522,
  "zi": 4523,
  "\u2581exactly": 4524,
  "\u2581Sir": 4525,
  "\u2581\u00e1reas": 4526,
  "Mi": 4527,
  "\u2581bus": 4528,
  "hat": 4529,
  "1.": 4530,
  "\u2581acto": 4531,
  "\u2581a\u00f1adir": 4532,
  "\u2581Washington": 4533,
  "\u2581hair": 4534,
  "\u2581inform": 4535,
  "\u2581Santo": 4536,
  "verdad": 4537,
  "\u2581cities": 4538,
  "\u2581opened": 4539,
  "xi": 4540,
  "\u2581Latina": 4541,
  "ica": 4542,
  "\u2581Democr\u00e1tica": 4543,
  "\u2581diferencias": 4544,
  "\u2581regards": 4545,
  "\u2581campaign": 4546,
  "CI": 4547,
  "\u2581territorios": 4548,
  "\u2581indicadores": 4549,
  "\u25812005.": 4550,
  "\u2581socio": 4551,
  "\u2581haven": 4552,
  "\u2581negocios": 4553,
  "\u2581Dis": 4554,
  "\u2581street": 4555,
  "\u2581sal": 4556,
  "\u2581stock": 4557,
  "\u2581\u00fatil": 4558,
  "\u2581abierta": 4559,
  "\u2581electoral": 4560,
  "\u2581Its": 4561,
  "6/": 4562,
  "ET": 4563,
  "\u2581na": 4564,
  "bri": 4565,
  "\u2581insta": 4566,
  "\u2581yeah": 4567,
  "\u2581Comercio": 4568,
  "\u2581vosotros": 4569,
  "\u2581Kuwait": 4570,
  "\u2581aeropuerto": 4571,
  "\u2581deep": 4572,
  "\u2581operaci\u00f3n": 4573,
  "\u2581inicio": 4574,
  "\u2581150": 4575,
  "\u2581housing": 4576,
  "\u2581consequences": 4577,
  "\u2581View": 4578,
  "way": 4579,
  "\u2581alia": 4580,
  "\u2581attack": 4581,
  "\u2581Tema": 4582,
  "\u25812012,": 4583,
  "\u2581Official": 4584,
  "\u258192": 4585,
  "\u2581Moreover": 4586,
  "-5": 4587,
  "IP": 4588,
  "\u2581celebraci\u00f3n": 4589,
  "\u2581Environment": 4590,
  "\u2581spiritual": 4591,
  "\u2581monitor": 4592,
  "\u2581suerte": 4593,
  "\u2581f\u00edsica": 4594,
  "\u2581instead": 4595,
  "\u2581clim\u00e1tico": 4596,
  "\u2581lejos": 4597,
  "\u2581ethnic": 4598,
  "!\"": 4599,
  "\u2581hi": 4600,
  "\u2581determinados": 4601,
  "\u2581ra": 4602,
  "\u2581Members": 4603,
  "\u2581variety": 4604,
  "\u2581numbers": 4605,
  "\u2581Top": 4606,
  "\u2581listen": 4607,
  "\u2581partner": 4608,
  "\u25818,": 4609,
  "\u2581tool": 4610,
  "\u2581habr\u00e1": 4611,
  "\u2581quickly": 4612,
  "ding": 4613,
  "\u00e1ndose": 4614,
  "\u2581contrataci\u00f3n": 4615,
  "\u2581method": 4616,
  "\u2581partido": 4617,
  "\u2581Corea": 4618,
  "\u2581compartir": 4619,
  "\u2581extranjeros": 4620,
  "\u2581causas": 4621,
  "\u2581metal": 4622,
  "\u2581birth": 4623,
  "q": 4624,
  "\u2581resulting": 4625,
  "\u2581fast": 4626,
  "\u258164": 4627,
  "\u2581shared": 4628,
  "Un": 4629,
  "\u2581resource": 4630,
  "\u2581kids": 4631,
  "\u2581tercera": 4632,
  "\u2581expenditure": 4633,
  "\u2581jobs": 4634,
  "\u2581-\u00bf": 4635,
  "\u2581aplica": 4636,
  "\u2581t\u00e9rmino": 4637,
  "\u2581fishing": 4638,
  "\u2581Green": 4639,
  "\u2581Twitter": 4640,
  "use": 4641,
  "\u2581funciona": 4642,
  "\u2581sales": 4643,
  "\u2581looks": 4644,
  "izar": 4645,
  "\u2581Honduras": 4646,
  "\u2581Hoteles": 4647,
  "tico": 4648,
  "\u2581cancer": 4649,
  "This": 4650,
  "\u2581activos": 4651,
  "\u2581entender": 4652,
  "\u2581particularmente": 4653,
  "\u2581europeos": 4654,
  "87": 4655,
  "\u2581stability": 4656,
  "\u2581Bolivia": 4657,
  "\u2581listed": 4658,
  "\u2581Sha": 4659,
  "\u2581difusi\u00f3n": 4660,
  "\u2581Spirit": 4661,
  "\u2581estudiar": 4662,
  "\u2581ten\u00edan": 4663,
  "\u2581cree": 4664,
  "\u2581t\u00e9cnico": 4665,
  "\u2581guess": 4666,
  "\u2581vehicles": 4667,
  "\u2581efectiva": 4668,
  "\u2581aspecto": 4669,
  "tergovernmental": 4670,
  "\u2581(2)": 4671,
  "\u2581preciso": 4672,
  "\u2581committee": 4673,
  "iza": 4674,
  "\u2581componentes": 4675,
  "\u2581vehicle": 4676,
  "\u2581ne": 4677,
  "\u2581vivienda": 4678,
  "ible": 4679,
  "\u2581llamada": 4680,
  "\u2581democratic": 4681,
  "\u2581visits": 4682,
  "ano": 4683,
  "\u2581interna": 4684,
  "\u2581debates": 4685,
  "\u2581pleno": 4686,
  "\u2581continuing": 4687,
  "3/": 4688,
  "\u2581jefe": 4689,
  "\u2581phase": 4690,
  "\u2581conclusi\u00f3n": 4691,
  "\u2581Earth": 4692,
  "\u2581elemento": 4693,
  "\u2581se\u00f1alar": 4694,
  "Al": 4695,
  "\u2581pone": 4696,
  "\u2581via": 4697,
  "\u2581abrir": 4698,
  "\u2581Caribe": 4699,
  "\u2581fortalecimiento": 4700,
  "\u2581Part": 4701,
  "\u2581threat": 4702,
  "\u2581garant\u00eda": 4703,
  "\u2581cursos": 4704,
  "`": 4705,
  "\u258113.": 4706,
  "69": 4707,
  "\u2581interno": 4708,
  "\u2581ongoing": 4709,
  "ure": 4710,
  "\u2581matrimonio": 4711,
  "lla": 4712,
  "54": 4713,
  "\u2581target": 4714,
  "Quieres": 4715,
  "\u2581selecci\u00f3n": 4716,
  "\u2581ba": 4717,
  "encia": 4718,
  "\u2581internos": 4719,
  "\u2581direction": 4720,
  "\u2581generally": 4721,
  "\u2581institution": 4722,
  "\u2581Sun": 4723,
  "\u2581voice": 4724,
  "\u2581asociaciones": 4725,
  "\u2581Habitaciones": 4726,
  "\u2581sessions": 4727,
  "\u2581Netherlands": 4728,
  "\u2581basada": 4729,
  "\u2581modelos": 4730,
  "\u2581dichas": 4731,
  "\u2581consultation": 4732,
  "\u2581pedir": 4733,
  "\u2581publication": 4734,
  "\u00e0": 4735,
  "86": 4736,
  "\u2581iba": 4737,
  "\u2581emisiones": 4738,
  "\u2581\u00e1mbitos": 4739,
  "\u2581comunitario": 4740,
  "\u25811998,": 4741,
  "\u2581har\u00e1": 4742,
  "\u2581Wait": 4743,
  "\u2581donantes": 4744,
  "\u2581establecidos": 4745,
  "\u2581King": 4746,
  "\u2581ta": 4747,
  "\u2581illegal": 4748,
  "\u2581aplicaciones": 4749,
  "\u2581Show": 4750,
  "\u2581fish": 4751,
  "\u2581Joint": 4752,
  "\u2581limit": 4753,
  "\u2581Inicio": 4754,
  "\u2581recovery": 4755,
  "\u2581cielo": 4756,
  "\u2581amendments": 4757,
  "\u2581po": 4758,
  "\u2581Rwanda": 4759,
  "\u2581Peace": 4760,
  "\u2581Business": 4761,
  "\u2581Hoy": 4762,
  "\u2581ayudas": 4763,
  "\u2581George": 4764,
  "\u2581release": 4765,
  "\u2581hija": 4766,
  "\u2581drugs": 4767,
  "\u2581existence": 4768,
  "\u2581discussions": 4769,
  "\u2581infantil": 4770,
  "\u2581influence": 4771,
  "\u2581superficie": 4772,
  "\u2581viven": 4773,
  "RE": 4774,
  "\u2581Tienes": 4775,
  "\u2581supporting": 4776,
  "\u2581Pen": 4777,
  "\u2581delegations": 4778,
  "\u2581integral": 4779,
  "\u2581cap": 4780,
  "\u2581democracy": 4781,
  "67": 4782,
  "\u2581sede": 4783,
  "03": 4784,
  "\u2581conocido": 4785,
  "\u2581foto": 4786,
  "\u2581card": 4787,
  "\u2581carrera": 4788,
  "\u2581Up": 4789,
  "\u2581Over": 4790,
  "\u2581idioma": 4791,
  "ncia": 4792,
  "\u2581Par\u00eds": 4793,
  "\u2581Abogados": 4794,
  "\u2581CON": 4795,
  "\u2581yes": 4796,
  "\u2581Comisionado": 4797,
  "\u2581creer": 4798,
  "ante": 4799,
  "\u2581host": 4800,
  "\u2581p\u00e1rrafos": 4801,
  "\u2581mucha": 4802,
  "\u2581lines": 4803,
  "\u2581(19": 4804,
  "\u2581character": 4805,
  "\u2581reading": 4806,
  "\u2581seem": 4807,
  "\u2581venir": 4808,
  "\u2581drink": 4809,
  "\u2581race": 4810,
  "\u2581sustancias": 4811,
  "\u2581plano": 4812,
  "SR": 4813,
  "\u2581electronic": 4814,
  "\u2581sleep": 4815,
  "\u2581armados": 4816,
  "\u2581destrucci\u00f3n": 4817,
  "5/": 4818,
  "responsibilities": 4819,
  "\u2581Millennium": 4820,
  "\u2581prisi\u00f3n": 4821,
  "\u2581potencial": 4822,
  "\u2581creating": 4823,
  "del": 4824,
  "nu": 4825,
  "\u2581aprender": 4826,
  "68": 4827,
  "UU": 4828,
  "\u2581etapa": 4829,
  "\u2581indicators": 4830,
  "\u2581rise": 4831,
  "\u2581Antes": 4832,
  "ring": 4833,
  "\u2581positions": 4834,
  "\u2581comment": 4835,
  "\u2581selected": 4836,
  "\u2581Mar\u00eda": 4837,
  "\u2581eficiencia": 4838,
  "\u2581proporciona": 4839,
  "\u2581gratuita": 4840,
  "\u2581Force": 4841,
  "\u258114.": 4842,
  "\u2581clean": 4843,
  "\u2581conclusion": 4844,
  "\u2581Download": 4845,
  "\u2581Eres": 4846,
  "\u2581formular": 4847,
  "\u2581effectiveness": 4848,
  "\u2581risks": 4849,
  "\u2581ocho": 4850,
  "\u2581obtained": 4851,
  "\u2581institucional": 4852,
  "\u2581panel": 4853,
  "\u2581governance": 4854,
  "\u2581eight": 4855,
  "\u258158": 4856,
  "\u2581advance": 4857,
  "making": 4858,
  "\u2581discussed": 4859,
  "\u2581franc\u00e9s": 4860,
  "\u2581link": 4861,
  "ig": 4862,
  "\u2581pi": 4863,
  "\u2581Van": 4864,
  "\u2581appear": 4865,
  "\u2581recognition": 4866,
  "\u2581territorial": 4867,
  "\u2581Mis": 4868,
  "\u2581mainly": 4869,
  "\u2581Am": 4870,
  "\u2581conferencia": 4871,
  "\u2581Gaza": 4872,
  "\u2581Unit": 4873,
  "93": 4874,
  "\u2581networks": 4875,
  "\u2581utilizado": 4876,
  "\u2581machine": 4877,
  "\u2581guidance": 4878,
  "\u2581Fi": 4879,
  "ps": 4880,
  "TM": 4881,
  "\u25812006.": 4882,
  "\u2581fifty": 4883,
  "\u2581running": 4884,
  "\u2581hicieron": 4885,
  "\u2581tampoco": 4886,
  "if": 4887,
  "\u2581kept": 4888,
  "\u2581llamar": 4889,
  "\u2581combatir": 4890,
  "ac": 4891,
  "\u2581except": 4892,
  "\u2581kitchen": 4893,
  "\u2581garant\u00edas": 4894,
  "\u2581difference": 4895,
  "SA": 4896,
  "\u2581perder": 4897,
  "\u2581Another": 4898,
  "\u2581gets": 4899,
  "\u2581promedio": 4900,
  "\u2581efficient": 4901,
  "\u2581transition": 4902,
  "76": 4903,
  "\u2581unless": 4904,
  "ii": 4905,
  "\u2581minute": 4906,
  "\u2581female": 4907,
  "\u2581Ba": 4908,
  "\u2581Proyecto": 4909,
  "\u2581writing": 4910,
  "fo": 4911,
  "\u2581Fran": 4912,
  "\u2581et": 4913,
  "\u2581compensation": 4914,
  "\u2581rendimiento": 4915,
  "\u2581bathroom": 4916,
  "\u2581larga": 4917,
  "\u2581tienda": 4918,
  "\u2581Italian": 4919,
  "\u2581religi\u00f3n": 4920,
  "\u2581suelo": 4921,
  "tan": 4922,
  "\u2581Implementation": 4923,
  "\u00e9r": 4924,
  "\u2581periodic": 4925,
  "\u2581autorizaci\u00f3n": 4926,
  "\u2581tomorrow": 4927,
  "\u2581expression": 4928,
  "\u2581utilizando": 4929,
  "\u2581pass": 4930,
  "\u2581science": 4931,
  "ou": 4932,
  "\u2581gama": 4933,
  "\u2581exist": 4934,
  "\u2581Data": 4935,
  "dora": 4936,
  "\u2581regulation": 4937,
  "\u2581celebrar": 4938,
  "\u2581hit": 4939,
  "\u2581delante": 4940,
  "91": 4941,
  "53": 4942,
  "\u2581affect": 4943,
  "\u2581constituyen": 4944,
  "\u2581customers": 4945,
  "\u2581Pat": 4946,
  "pu": 4947,
  "\u2581actuar": 4948,
  "\u2581statistics": 4949,
  "izing": 4950,
  "\u2581oral": 4951,
  "\u2581guide": 4952,
  "\u2581(2": 4953,
  "\u2581progreso": 4954,
  "\u2581entered": 4955,
  "\u2581Siempre": 4956,
  "\u2581supone": 4957,
  "\u2581haces": 4958,
  "\u2581Espera": 4959,
  "\u2581idiomas": 4960,
  "\u2581suministro": 4961,
  "\u2581board": 4962,
  "\u2581Mary": 4963,
  "\u2581rurales": 4964,
  "\u2581contratos": 4965,
  "\u2581trip": 4966,
  "\u2581alojamiento": 4967,
  "\u2581recurso": 4968,
  "\u2581causes": 4969,
  "bre": 4970,
  "\u2581Secci\u00f3n": 4971,
  "\u25812007.": 4972,
  "\u2581peaceful": 4973,
  "\u2581scale": 4974,
  "\u2581click": 4975,
  "\u2581partnership": 4976,
  "\u2581empezar": 4977,
  "\u2581pel\u00edcula": 4978,
  "\u2581realiza": 4979,
  "\u2581Consultiva": 4980,
  "\u2581licencia": 4981,
  "\u2581definition": 4982,
  "\u2581Finally": 4983,
  "\u2581favour": 4984,
  "\u2581twenty": 4985,
  "\u2581box": 4986,
  "\u2581mobile": 4987,
  "\u2581degree": 4988,
  "\u2581espec\u00edficos": 4989,
  "\u2581OK": 4990,
  "\u2581jugar": 4991,
  "\u2581Middle": 4992,
  "\u2581bienestar": 4993,
  "\u2581Mas": 4994,
  "\u2581impuestos": 4995,
  "\u2581church": 4996,
  "\u2581cualquiera": 4997,
  "\u2581visitar": 4998,
  "\u2581Oriente": 4999,
  "\u2581couldn": 5000,
  "\u2581airport": 5001,
  "sia": 5002,
  "\u2581empleados": 5003,
  "\u25812008.": 5004,
  "\u2581Anti": 5005,
  "gas": 5006,
  "\u2581Reuni\u00f3n": 5007,
  "\u2581bank": 5008,
  "til": 5009,
  "\u2581select": 5010,
  "\u2581Find": 5011,
  "\u2581humanitaria": 5012,
  "\u2581dedicados": 5013,
  "\u2581difficulties": 5014,
  "\u2581inform\u00f3": 5015,
  "\u2581green": 5016,
  "\u2581Francisco": 5017,
  "uri": 5018,
  "\u258159": 5019,
  "tica": 5020,
  "end": 5021,
  "\u2581estuvo": 5022,
  "\u2581lleg\u00f3": 5023,
  "\u2581Jerusalem": 5024,
  "\u2581m\u00e1xima": 5025,
  "iendo": 5026,
  "\u2581Nigeria": 5027,
  "\u2581cabe": 5028,
  "\u2581planned": 5029,
  "\u2581Egypt": 5030,
  "\u2581Family": 5031,
  "\u2581Wa": 5032,
  "\u2581experiences": 5033,
  "\u2581join": 5034,
  "\u2581mam\u00e1": 5035,
  "\u2581eventos": 5036,
  "\u2581da\u00f1os": 5037,
  "\u25819,": 5038,
  "\u2581accounts": 5039,
  "pen": 5040,
  "shi": 5041,
  "ito": 5042,
  "SIDA": 5043,
  "\u2581advantage": 5044,
  "\u2581virus": 5045,
  "\u2581firma": 5046,
  "\u2581Egipto": 5047,
  "\u2581isla": 5048,
  "\u2581Western": 5049,
  "vin": 5050,
  "\u2581Sign": 5051,
  "\u2581religion": 5052,
  "\u2581waiting": 5053,
  "3%": 5054,
  "\u2581adultos": 5055,
  "vir": 5056,
  "\u2581approximately": 5057,
  "\u2581enviar": 5058,
  "\u258115.": 5059,
  "\u2581Peru": 5060,
  "\u2581variedad": 5061,
  "\u2581speed": 5062,
  "\u2581Marco": 5063,
  "\u2581Aeropuerto": 5064,
  "\u2581comparaci\u00f3n": 5065,
  "\u2581presentes": 5066,
  "\u2581Esp\u00edritu": 5067,
  "\u2581estad\u00edsticas": 5068,
  "\u2581Today": 5069,
  "\u2581write": 5070,
  "\u2581sab\u00eda": 5071,
  "\u2581Michael": 5072,
  "\u2581vacaciones": 5073,
  "\u2581define": 5074,
  "\u2581temporary": 5075,
  "\u2581failure": 5076,
  "\u2581improvement": 5077,
  "led": 5078,
  "\u2581sombrero": 5079,
  "rios": 5080,
  "\u2581Liberia": 5081,
  "\u258162": 5082,
  "\u2581Pablo": 5083,
  "\u2581holding": 5084,
  "\u2581Year": 5085,
  "\u2581obtain": 5086,
  "\u2581determinadas": 5087,
  "ker": 5088,
  "\u2581costes": 5089,
  "\u2581earlier": 5090,
  "\u2581Men": 5091,
  "\u2581Han": 5092,
  "\u2581mismas": 5093,
  "\u2581Hotels": 5094,
  "cy": 5095,
  "\u2581apartamento": 5096,
  "\u2581Claro": 5097,
  "\u2581extranjero": 5098,
  "\u2581Sorry": 5099,
  "\u2581couple": 5100,
  "\u2581update": 5101,
  "\u2581visibilidad": 5102,
  "\u2581Rome": 5103,
  "\u2581express": 5104,
  "bro": 5105,
  "ieron": 5106,
  "\u2581village": 5107,
  "\u2581Serbia": 5108,
  "\u2581beach": 5109,
  "88": 5110,
  "\u2581forced": 5111,
  "\u2581informa": 5112,
  "\u2581prohibici\u00f3n": 5113,
  "\u2581involving": 5114,
  "\u2581alcohol": 5115,
  "let": 5116,
  "\u2581forget": 5117,
  "\u2581digo": 5118,
  "ot": 5119,
  "\u2581containing": 5120,
  "\u2581excellent": 5121,
  "gui": 5122,
  "\u2581Note": 5123,
  "\u2581visibility": 5124,
  "\u2581velocidad": 5125,
  "\u2581Sch": 5126,
  "\u2581net": 5127,
  "\u2581playa": 5128,
  "\u2581peri\u00f3dico": 5129,
  "\u2581easily": 5130,
  "\u2581vision": 5131,
  "\u2581transparencia": 5132,
  "\u2581Iran": 5133,
  "\u2581encargado": 5134,
  "\u25812019": 5135,
  "\u2581Popular": 5136,
  "\u2581thereof": 5137,
  "\u2581aplicables": 5138,
  "\u2581\u00e9poca": 5139,
  "AIDS": 5140,
  "\u2581reconoce": 5141,
  "\u2581Tell": 5142,
  "\u2581finally": 5143,
  "\u2581proper": 5144,
  "\u2581wine": 5145,
  "\u2581leaving": 5146,
  "\u2581probablemente": 5147,
  "tre": 5148,
  "\u2581Presidencia": 5149,
  "\u2581Club": 5150,
  "\u2581sanciones": 5151,
  "\u2581president": 5152,
  "\u2581exportaci\u00f3n": 5153,
  "\u2581Parece": 5154,
  "\u2581atr\u00e1s": 5155,
  "\u2581starting": 5156,
  "\u2581correct": 5157,
  "\u2581im": 5158,
  "\u2581ahead": 5159,
  "\u2581specifically": 5160,
  "\u2581laboral": 5161,
  "\u2581achieving": 5162,
  "\u2581Police": 5163,
  "\u2581Bulgaria": 5164,
  "\u2581concretas": 5165,
  "\u2581identidad": 5166,
  "Est\u00e1": 5167,
  "\u2581powers": 5168,
  "\u2581welcomed": 5169,
  "lar": 5170,
  "\u2581Oye": 5171,
  "iv": 5172,
  "\u2581Korea": 5173,
  "\u2581especie": 5174,
  "\u2581Aires": 5175,
  "\u2581Chapter": 5176,
  "\u2581train": 5177,
  "\u2581observed": 5178,
  "Pro": 5179,
  "\u2581Universal": 5180,
  "\u2581eficaces": 5181,
  "\u00f1a": 5182,
  "\u2581ofrecen": 5183,
  "nas": 5184,
  "\u2581busca": 5185,
  "\u25811997,": 5186,
  "\u2581Turkey": 5187,
  "LE": 5188,
  "\u2581c\u00e1ncer": 5189,
  "\u2581picture": 5190,
  "[": 5191,
  "\u25812004.": 5192,
  "\u2581entidad": 5193,
  "\u2581Turqu\u00eda": 5194,
  "\u2581core": 5195,
  "\u2581pap\u00e1": 5196,
  "\u2581path": 5197,
  "\u2581extension": 5198,
  "\u2581Price": 5199,
  "8/": 5200,
  "\u2581dictamen": 5201,
  "\u2581Protecci\u00f3n": 5202,
  "\u2581chicos": 5203,
  "int": 5204,
  "\u2581encima": 5205,
  "\u2581terminar": 5206,
  "\u2581forest": 5207,
  "\u2581Timor": 5208,
  "\u2581Ir\u00e1n": 5209,
  "\u2581derecha": 5210,
  "\u2581Afganist\u00e1n": 5211,
  "\u2581governments": 5212,
  "\u2581destruction": 5213,
  "Co": 5214,
  "\u2581Sistema": 5215,
  "\u2581pedido": 5216,
  "ov": 5217,
  "\u2581feeling": 5218,
  "nder": 5219,
  "\u2581selection": 5220,
  "nt": 5221,
  "CA": 5222,
  "\u2581registered": 5223,
  "\u2581Relaciones": 5224,
  "For": 5225,
  "\u2581spread": 5226,
  "\u2581fucking": 5227,
  "\u2581courses": 5228,
  "\u2581t\u00e9cnicos": 5229,
  "r\u00f3": 5230,
  "\u2581Ciudad": 5231,
  "\u2581draw": 5232,
  "\u2581consistent": 5233,
  "\u2581turned": 5234,
  "\u2581proliferaci\u00f3n": 5235,
  "\u2581Vo": 5236,
  "\u2581customer": 5237,
  "4/": 5238,
  "\u2581fund": 5239,
  "\u2581solicitar": 5240,
  "\u2581Estaba": 5241,
  "\u2581secure": 5242,
  "\u2581Ejecutivo": 5243,
  "\u2581linked": 5244,
  "\u2581despite": 5245,
  "\u2581plantas": 5246,
  "\u2581appeal": 5247,
  "\u2581tomado": 5248,
  "\u2581exactamente": 5249,
  "\u2581Page": 5250,
  "\u2581ocasi\u00f3n": 5251,
  "\u2581images": 5252,
  "\u2581fuel": 5253,
  "\u2581sites": 5254,
  "\u2581seguros": 5255,
  "\u2581quieren": 5256,
  "\u2581Cruz": 5257,
  "\u2581personales": 5258,
  "\u25811995,": 5259,
  "\u2581consumidores": 5260,
  "\u2581revised": 5261,
  "\u2581pr\u00f3xima": 5262,
  "\u2581shit": 5263,
  "74": 5264,
  "<": 5265,
  "\u2581Tom": 5266,
  "\u2581Nuevo": 5267,
  "\u2581marriage": 5268,
  "\u2581diversidad": 5269,
  "iz": 5270,
  "\u2581immediate": 5271,
  "\u2581Par": 5272,
  "ser": 5273,
  "\u2581habitantes": 5274,
  "\u2581pudiera": 5275,
  "\u2581closed": 5276,
  "\u2581Fe": 5277,
  "\u2581interesadas": 5278,
  "\u2581Sud\u00e1n": 5279,
  "\u2581afectados": 5280,
  "\u2581probable": 5281,
  "\u2581Debe": 5282,
  "\u2581Espa": 5283,
  "\u2581izquierda": 5284,
  "\u2581Political": 5285,
  "\u2581examine": 5286,
  "\u2581Network": 5287,
  "\u2581specialized": 5288,
  "mal": 5289,
  "\u2581Time": 5290,
  "\u2581components": 5291,
  "\u2581recientes": 5292,
  "\u2581wanna": 5293,
  "\u2581Texas": 5294,
  "\u25811994,": 5295,
  "\u2581escuchar": 5296,
  "tis": 5297,
  "\u2581Chinese": 5298,
  "\u2581Authority": 5299,
  "par": 5300,
  "\u2581names": 5301,
  "\u2581concrete": 5302,
  "\u2581raise": 5303,
  "\u2581libros": 5304,
  "61": 5305,
  "\u2581respective": 5306,
  "\u2581p\u00e1rr": 5307,
  "dio": 5308,
  "\u2581counter": 5309,
  "\u2581segura": 5310,
  "\u2581Bajos": 5311,
  "\u2581l\u00edneas": 5312,
  "\u2581porcentaje": 5313,
  "\u2581jurisdiction": 5314,
  "\u2581Email": 5315,
  "llo": 5316,
  "\u2581patient": 5317,
  "\u2581Daniel": 5318,
  "\u2581da\u00f1o": 5319,
  "\u2581Cultural": 5320,
  "79": 5321,
  "\u2581Descripci\u00f3n": 5322,
  "\u2581Val": 5323,
  "\u2581UNFPA": 5324,
  "\u2581confidence": 5325,
  "\u2581IT": 5326,
  "\u2581televisi\u00f3n": 5327,
  "\u2581ropa": 5328,
  "\u25811996,": 5329,
  "rro": 5330,
  "\u2581ob": 5331,
  "\u2581Street": 5332,
  "\u2581tom\u00f3": 5333,
  "\u2581Dos": 5334,
  "\u2581viajes": 5335,
  "\u2581sun": 5336,
  "\u2581Online": 5337,
  "\u2581leadership": 5338,
  "\u2581extended": 5339,
  "\u2581salvo": 5340,
  "\u25812013,": 5341,
  "\u2581puesta": 5342,
  "\u2581British": 5343,
  "\u2581pantalla": 5344,
  "\u258195": 5345,
  "\u2581Rent": 5346,
  "\u2581Mesa": 5347,
  "eu": 5348,
  "\u2581fiesta": 5349,
  "\u2581conclusions": 5350,
  "\u2581Nuestro": 5351,
  "LA": 5352,
  "\u2581worry": 5353,
  "\u2581storage": 5354,
  "\u2581suffering": 5355,
  "02": 5356,
  "\u2581absence": 5357,
  "\u2581vivo": 5358,
  "\u2581veo": 5359,
  "\u2581remained": 5360,
  "\u2581aun": 5361,
  "RES": 5362,
  "\u2581previstas": 5363,
  "\u00ab": 5364,
  "\u2581l\u00edmites": 5365,
  "\u2581permiten": 5366,
  "\u2581ido": 5367,
  "TO": 5368,
  "\u2581estaci\u00f3n": 5369,
  "\u2581poblaciones": 5370,
  "\u2581strength": 5371,
  "\u2581puso": 5372,
  "\u2581residencia": 5373,
  "\u2581registration": 5374,
  "\u2581Food": 5375,
  "\u2581mundiales": 5376,
  "\u2581specified": 5377,
  "ab": 5378,
  "\u2581cold": 5379,
  "Cu\u00e1l": 5380,
  "table": 5381,
  "\u2581White": 5382,
  "\u2581boca": 5383,
  "\u25811980": 5384,
  "\"?": 5385,
  "\u2581Islands": 5386,
  "\u2581Media": 5387,
  "stra": 5388,
  "\u2581gu\u00eda": 5389,
  "\u2581estrecha": 5390,
  "\u2581largest": 5391,
  "\u2581closely": 5392,
  "\u2581Ze": 5393,
  "\u2581Au": 5394,
  "\u2581deja": 5395,
  "\u258116.": 5396,
  "\u2581respond": 5397,
  "\u2581processing": 5398,
  "ye": 5399,
  "\u2581Ni\u00f1o": 5400,
  "\u2581tradicionales": 5401,
  "\u2581especializados": 5402,
  "\u2581LORD": 5403,
  "\u2581discuss": 5404,
  "\u2581dealing": 5405,
  "ong": 5406,
  "\u2581cable": 5407,
  "bel": 5408,
  "\u2581autores": 5409,
  "\u2581constante": 5410,
  "\u2581corresponde": 5411,
  "\u2581vidas": 5412,
  "\u2581Description": 5413,
  "\u2581married": 5414,
  "\u00bb,": 5415,
  "\u2581dan": 5416,
  "\u2581Gesti\u00f3n": 5417,
  "\u2581inclusi\u00f3n": 5418,
  "\u2581formato": 5419,
  "\u2581leer": 5420,
  "\u2581Pedro": 5421,
  "\u2581Sri": 5422,
  "\u2581Exteriores": 5423,
  "\u2581offering": 5424,
  "\u2581iglesia": 5425,
  "\u2581veh\u00edculo": 5426,
  "\u2581daughter": 5427,
  "\u2581School": 5428,
  "\u2581Afghanistan": 5429,
  "Pa": 5430,
  "\u2581grounds": 5431,
  "\u2581Bi": 5432,
  "\u2581length": 5433,
  "\u2581Martin": 5434,
  "\u2581models": 5435,
  "\u2581minas": 5436,
  "\u2581tiempos": 5437,
  "\u2581destinados": 5438,
  "\u2581clara": 5439,
  "\u2581playing": 5440,
  "\u2581reflect": 5441,
  "\u25812009.": 5442,
  "\u2581launched": 5443,
  "\u2581integrado": 5444,
  "\u2581oro": 5445,
  "\u2581debajo": 5446,
  "\u2581club": 5447,
  "sos": 5448,
  "\u2581ofertas": 5449,
  "ula": 5450,
  "\u2581broad": 5451,
  "\u2581Their": 5452,
  "\u2581middle": 5453,
  "\u2581alma": 5454,
  "\u2581especies": 5455,
  "\u2581mierda": 5456,
  "\u2581Pac\u00edfico": 5457,
  "nica": 5458,
  "\u2581Sudan": 5459,
  "\u2581ajuste": 5460,
  "\u2581whatever": 5461,
  "\u2581Carlos": 5462,
  "\u2581espiritual": 5463,
  "\u2581Brussels": 5464,
  "\u2581caf\u00e9": 5465,
  "\u2581protected": 5466,
  "\u2581equipped": 5467,
  "\u2581exploitation": 5468,
  "\u2581fixed": 5469,
  "\u2581AT": 5470,
  "\u2581Crime": 5471,
  "\u2581kg": 5472,
  "\u2581Jack": 5473,
  "\u2581voluntary": 5474,
  "\u2581preparado": 5475,
  "ped": 5476,
  "\u2581speaking": 5477,
  "\u2581podido": 5478,
  "\u2581hermanos": 5479,
  "\u2581informar": 5480,
  "\u2581employees": 5481,
  "\u2581controlar": 5482,
  "\u2581fourth": 5483,
  "\u2581Map": 5484,
  "ear": 5485,
  "\u2581estructuras": 5486,
  "\u2581learned": 5487,
  "\u2581celebr\u00f3": 5488,
  "\u2581comisi\u00f3n": 5489,
  "\u2581Once": 5490,
  "ative": 5491,
  "\u2581100%": 5492,
  "To": 5493,
  "ato": 5494,
  "\u2581acontecimientos": 5495,
  "\u2581square": 5496,
  "old": 5497,
  "II": 5498,
  "\u2581importaci\u00f3n": 5499,
  "\u2581nations": 5500,
  "\u2581Mont": 5501,
  "ku": 5502,
  "\u2581duties": 5503,
  "AM": 5504,
  "\u2581construir": 5505,
  "\u2581reconocer": 5506,
  "\u2581explain": 5507,
  "\u2581cifras": 5508,
  "\u2581Post": 5509,
  "ena": 5510,
  "\u2581generaci\u00f3n": 5511,
  "\u2581luchar": 5512,
  "\u2581adhesi\u00f3n": 5513,
  "\u2581seres": 5514,
  "\u2581Ci": 5515,
  "73": 5516,
  "\u2581otherwise": 5517,
  "\u00edn": 5518,
  "\u2581excelente": 5519,
  "\u2581structures": 5520,
  "\u2581availability": 5521,
  "berg": 5522,
  "\u2581Ge": 5523,
  "\u258166": 5524,
  "\u2581treated": 5525,
  "\u2581p\u00e1ginas": 5526,
  "\u2581mostrar": 5527,
  "\u2581ciclo": 5528,
  "\u2581teaching": 5529,
  "\u2581excepci\u00f3n": 5530,
  "\u2581directo": 5531,
  "\u2581cash": 5532,
  "(2)": 5533,
  "\u2581Auto": 5534,
  "\u2581eye": 5535,
  "ology": 5536,
  "\u2581verdadero": 5537,
  "\u2581organismo": 5538,
  "\u25812)": 5539,
  "~": 5540,
  "\u2581ambas": 5541,
  "\u258188": 5542,
  "\u2581attacks": 5543,
  "\u2581tasks": 5544,
  "\u2581identificar": 5545,
  "nce": 5546,
  ",\u201d": 5547,
  "\u2581focused": 5548,
  "mit": 5549,
  "\u2581corto": 5550,
  "4.": 5551,
  "ture": 5552,
  "\u2581gotta": 5553,
  "\u2581caja": 5554,
  "\u2581Island": 5555,
  "71": 5556,
  "\u2581A\u00f1o": 5557,
  "84": 5558,
  "\u2581instituci\u00f3n": 5559,
  "\u2581tri": 5560,
  "Pero": 5561,
  "\u2581notice": 5562,
  "\u2581victim": 5563,
  "2%": 5564,
  "\u2581Mor": 5565,
  "\u2581famous": 5566,
  "\u2581identity": 5567,
  "\u2581disco": 5568,
  "ens": 5569,
  "\u2581casas": 5570,
  "\u2581interesting": 5571,
  "\u2581Uruguay": 5572,
  "\u2581quisiera": 5573,
  "\u2581mercanc\u00edas": 5574,
  "osa": 5575,
  "\u2581Discrimination": 5576,
  "\u2581siga": 5577,
  "\u2581Bre": 5578,
  "\u2581stuff": 5579,
  "\u2581fruit": 5580,
  "\u2581Water": 5581,
  "\u2581mono": 5582,
  "\u2581represent": 5583,
  "OC": 5584,
  "\u2581Technical": 5585,
  "\u2581object": 5586,
  "\u2581doubt": 5587,
  "TI": 5588,
  "\u2581Power": 5589,
  "Sabes": 5590,
  "ani": 5591,
  "\u2581Luego": 5592,
  "\u2581avances": 5593,
  "\u2581ampliar": 5594,
  "lle": 5595,
  "\u2581Interior": 5596,
  "\u2581feliz": 5597,
  "\u2581aprovechar": 5598,
  "\u2581400": 5599,
  "\u2581Ana": 5600,
  "\u2581Direcci\u00f3n": 5601,
  "\u2581Russia": 5602,
  "\u2581Dan": 5603,
  "\u2581tasas": 5604,
  "COM": 5605,
  "ium": 5606,
  "ised": 5607,
  "\u2581links": 5608,
  "han": 5609,
  "\u25812010.": 5610,
  "ris": 5611,
  "\u2581verano": 5612,
  "\u2581violation": 5613,
  "4%": 5614,
  "\u2581lose": 5615,
  "IS": 5616,
  "nal": 5617,
  "\u2581Bruselas": 5618,
  "\u2581Oficial": 5619,
  "\u2581procedentes": 5620,
  "\u2581Primera": 5621,
  "\u2581Suiza": 5622,
  "\u2581representaci\u00f3n": 5623,
  "\u2581dollars": 5624,
  "\u2581anteriormente": 5625,
  "\u25812000.": 5626,
  "\u2581categories": 5627,
  "BA": 5628,
  "\u2581touch": 5629,
  "rme": 5630,
  "\u2581garden": 5631,
  "\u2581moving": 5632,
  "bor": 5633,
  "\u2581masa": 5634,
  "\u258118.": 5635,
  "\u2581Blog": 5636,
  "\u2581disabilities": 5637,
  "\u2581Pacific": 5638,
  "\u2581productores": 5639,
  "\u2581Has": 5640,
  "\u2581comenz\u00f3": 5641,
  "\u2581photo": 5642,
  "\u2581modificar": 5643,
  "\u2581reglas": 5644,
  "\u2581suggested": 5645,
  "\u2581encouraged": 5646,
  "IC": 5647,
  "\u2581soul": 5648,
  "\u2581indicate": 5649,
  "\u2581mejoren": 5650,
  "\u2581memoria": 5651,
  "\u2581preocupa": 5652,
  "\u2581stakeholders": 5653,
  "\u2581clima": 5654,
  "\u2581released": 5655,
  "\u2581conservaci\u00f3n": 5656,
  "\u2581forth": 5657,
  "\u2581updates": 5658,
  "\u2581Bol": 5659,
  "\u2581cart": 5660,
  "\u2581rich": 5661,
  "\u2581herramientas": 5662,
  "\u2581previstos": 5663,
  "\u2581replaced": 5664,
  "\u2581transparency": 5665,
  "\u2581Android": 5666,
  "\u2581influencia": 5667,
  "\u2581tonight": 5668,
  "\u2581beb\u00e9": 5669,
  "\u2581passed": 5670,
  "\u2581Common": 5671,
  "my": 5672,
  "\u25811993,": 5673,
  "ico": 5674,
  "\u2581dangerous": 5675,
  "\u2581south": 5676,
  "\u2581hincapi\u00e9": 5677,
  "\u2581extremely": 5678,
  "\u2581dose": 5679,
  "\u2581substances": 5680,
  "63": 5681,
  "\u2581sabemos": 5682,
  "\u2581teachers": 5683,
  "\u2581pudo": 5684,
  "\u25811989": 5685,
  "\u2581boys": 5686,
  "\u258117.": 5687,
  "\u2581iniciar": 5688,
  "\u2581estados": 5689,
  "\u2581ciencia": 5690,
  "\u2581ej\u00e9rcito": 5691,
  "\u2581settlement": 5692,
  "What": 5693,
  "\u2581objetos": 5694,
  "81": 5695,
  "\u2581Col": 5696,
  "\u2581pasando": 5697,
  "4,": 5698,
  "\u2581traffic": 5699,
  "\u2581Mon": 5700,
  "\u2581agricultura": 5701,
  "\u2581accommodation": 5702,
  "\u2581Product": 5703,
  "\u2581Contacto": 5704,
  "lic": 5705,
  "\u2581composici\u00f3n": 5706,
  "\u2581Inc": 5707,
  "\u2581calling": 5708,
  "\u2581collective": 5709,
  "\u2581minor\u00edas": 5710,
  "ins": 5711,
  "\u2581conflicts": 5712,
  "\u2581r\u00edo": 5713,
  "tur": 5714,
  "\u2581terrorist": 5715,
  "\u2581beneficio": 5716,
  "2)": 5717,
  "\u2581import": 5718,
  "\u2581fresh": 5719,
  "\u2581correcto": 5720,
  "\u2581hice": 5721,
  "MA": 5722,
  "Para": 5723,
  "\u2581candidatos": 5724,
  "\u2581port": 5725,
  "\u2581Financial": 5726,
  "\u2581substantive": 5727,
  "\u2581civilian": 5728,
  "\u00e4": 5729,
  "\u2581sitios": 5730,
  "\u2581delivered": 5731,
  "\u2581Maria": 5732,
  "\u2581Rico": 5733,
  "\u258163": 5734,
  "\u2581supposed": 5735,
  "\u2581independence": 5736,
  "\u2581120": 5737,
  "\u2581master": 5738,
  "\u2581explica": 5739,
  "\u2581mira": 5740,
  "dra": 5741,
  "\u2581USD": 5742,
  "\u2581certainly": 5743,
  "\u00edas": 5744,
  "\u2581powerful": 5745,
  "\u2581observations": 5746,
  "\u2581periodo": 5747,
  "\u2581describe": 5748,
  "\u2581wall": 5749,
  "\u2581clases": 5750,
  "\u2581represented": 5751,
  "\u2581capacidades": 5752,
  "\u2581creciente": 5753,
  "\u2581se\u00f1ora": 5754,
  "\u2581cuotas": 5755,
  "\u2581Project": 5756,
  "ER": 5757,
  "\u2581involvement": 5758,
  "\u2581apoya": 5759,
  "\u2581ampliaci\u00f3n": 5760,
  "\u2581enmiendas": 5761,
  "stro": 5762,
  "\u2581recuerda": 5763,
  "\u2581explicar": 5764,
  "\u25812003.": 5765,
  "\u2581Gu": 5766,
  "\u2581l\u00edmite": 5767,
  "\u2581Nada": 5768,
  "TA": 5769,
  "\u2581MP": 5770,
  "\u2581represents": 5771,
  "\u2581obst\u00e1culos": 5772,
  "tivos": 5773,
  "\u2581partida": 5774,
  "\u2581aquel": 5775,
  "\u258198": 5776,
  "\u2581instalaci\u00f3n": 5777,
  "\u2581customs": 5778,
  "\u2581reformas": 5779,
  "\u2581Mag": 5780,
  "\u2581viejo": 5781,
  "illa": 5782,
  "\u2581rent": 5783,
  "como": 5784,
  "\u2581pagos": 5785,
  "\u2581logro": 5786,
  "pp": 5787,
  "\u2581chico": 5788,
  "\u2581declaration": 5789,
  "\u2581m\u00faltiples": 5790,
  "\u00e1s": 5791,
  "\u2581plants": 5792,
  "\u2581suficientes": 5793,
  "\u2581Apoyo": 5794,
  "\u2581Ambiente": 5795,
  "\u2581contain": 5796,
  "kin": 5797,
  "SI": 5798,
  "\u2581differences": 5799,
  "\u2581barco": 5800,
  "\u2581Ten": 5801,
  "\u2581Congress": 5802,
  "\u2581afraid": 5803,
  "\u2581wood": 5804,
  "ney": 5805,
  "\u2581perspective": 5806,
  "gre": 5807,
  "\u2581desempe\u00f1ar": 5808,
  "\u2581ourselves": 5809,
  "\u2581Work": 5810,
  "\u2581sit": 5811,
  "\u2581Nicaragua": 5812,
  "\u2581equilibrio": 5813,
  "ese": 5814,
  "\u2581blue": 5815,
  "52": 5816,
  "\u2581depende": 5817,
  "\u2581queremos": 5818,
  "cro": 5819,
  "\u2581showed": 5820,
  "\u2581ataque": 5821,
  "\u2581win": 5822,
  "\u2581programs": 5823,
  "\u2581imposed": 5824,
  "\u2581contracts": 5825,
  "SE": 5826,
  "\u2581Back": 5827,
  "\u2581pick": 5828,
  "\u2581ce": 5829,
  "\u2581Biblia": 5830,
  "\u2581individuales": 5831,
  "EL": 5832,
  "bit": 5833,
  "isation": 5834,
  "\u2581formulaci\u00f3n": 5835,
  "\u2581m\u00e9dica": 5836,
  "\u2581Super": 5837,
  "\u2581arma": 5838,
  "\u2581extensi\u00f3n": 5839,
  "\u2581format": 5840,
  "ries": 5841,
  "\u2581inclusive": 5842,
  "\u2581venido": 5843,
  "ual": 5844,
  "\u2581Labour": 5845,
  "\u2581recorded": 5846,
  "over": 5847,
  "72": 5848,
  "\u2581expect": 5849,
  "\u2581posterior": 5850,
  "\u2581ciertas": 5851,
  "\u2581ciertos": 5852,
  "Rev": 5853,
  "\u2581recommend": 5854,
  "pul": 5855,
  "\u2581indeed": 5856,
  "\u2581Main": 5857,
  "\u2581Anexo": 5858,
  "\u2581formula": 5859,
  "\u2581ventajas": 5860,
  "\u2581records": 5861,
  "\u2581impedir": 5862,
  "\u2581alimentaria": 5863,
  "\u2581importe": 5864,
  "\u2581cu": 5865,
  "\u2581crea": 5866,
  "\u2581appointed": 5867,
  "\u2581percentage": 5868,
  "\u2581comply": 5869,
  "\u2581consenso": 5870,
  "\u2581dance": 5871,
  "\u2581piece": 5872,
  "rias": 5873,
  "\u2581acero": 5874,
  "\u2581vive": 5875,
  "\u2581Bra": 5876,
  "\u2581elected": 5877,
  "\u2581manage": 5878,
  "\u2581Radio": 5879,
  "\u2581drawn": 5880,
  "\u2581Burundi": 5881,
  "\u2581surface": 5882,
  "\u2581NO": 5883,
  "\u2581dicen": 5884,
  "\u258193": 5885,
  "\u2581llev\u00f3": 5886,
  "ari": 5887,
  "\u2581actors": 5888,
  "\u2581cita": 5889,
  "\u2581summer": 5890,
  "\u2581Industrial": 5891,
  "\u2581worth": 5892,
  "\u2581copy": 5893,
  "\u2581cal": 5894,
  "ella": 5895,
  "\u2581negro": 5896,
  "\u2581Har": 5897,
  "\u2581Per\u00fa": 5898,
  "free": 5899,
  "\u2581ataques": 5900,
  "\u2581Bill": 5901,
  "\u2581diseases": 5902,
  "\u25812002.": 5903,
  "\u2581fa": 5904,
  "Ba": 5905,
  "\u2581evento": 5906,
  "side": 5907,
  ".10": 5908,
  "\u2581Puedes": 5909,
  "\u2581nombres": 5910,
  "\u2581Frank": 5911,
  "\u2581tradicional": 5912,
  "\u2581photos": 5913,
  "\u2581celebrado": 5914,
  "bal": 5915,
  "\u2581Museum": 5916,
  "\u2581Third": 5917,
  "\u2581debes": 5918,
  "\u2581terroristas": 5919,
  "\u2581hubo": 5920,
  "\u2581fronteras": 5921,
  "8%": 5922,
  "\u2581consensus": 5923,
  "\u2581agr\u00edcolas": 5924,
  "\u2581Switzerland": 5925,
  "\u2581numerous": 5926,
  "\u2581Examen": 5927,
  "\u2581consideraci\u00f3n": 5928,
  "\u258161": 5929,
  "\u2581instance": 5930,
  "ador": 5931,
  "\u2581innovaci\u00f3n": 5932,
  "\u2581necesito": 5933,
  "\u2581apertura": 5934,
  "\u2581Land": 5935,
  "\u2581perfecto": 5936,
  "sk": 5937,
  "\u2581esenciales": 5938,
  "\u2581Port": 5939,
  "\u2581amounts": 5940,
  "\u2581remaining": 5941,
  "\u2581Energy": 5942,
  "\u2581superar": 5943,
  "\u2581Ac": 5944,
  "ep": 5945,
  "\u2581neither": 5946,
  "\u2581Vice": 5947,
  "\u2581Before": 5948,
  "ID": 5949,
  "ci\u00f3": 5950,
  "\u2581hu": 5951,
  "\u2581perhaps": 5952,
  "300": 5953,
  "\u2581ju": 5954,
  "\u2581vuelo": 5955,
  "\u2581reflected": 5956,
  "\u2581Hemos": 5957,
  "\u2581store": 5958,
  "\u2581firm": 5959,
  "\u2581election": 5960,
  "\u2581trabaja": 5961,
  "\u2581volume": 5962,
  "\u2581USA": 5963,
  "\u2581flexible": 5964,
  "\u2581percent": 5965,
  "\u2581helped": 5966,
  "\u2581analizar": 5967,
  "\u2581steel": 5968,
  "\u2581judge": 5969,
  "\u2581colores": 5970,
  "\u2581vol": 5971,
  "\u2581Ab": 5972,
  "ip": 5973,
  "\u2581pen": 5974,
  "\u2581Last": 5975,
  "\u2581trouble": 5976,
  "\u2581servir": 5977,
  "\u2581Ellos": 5978,
  "\u2581Give": 5979,
  "\u2581device": 5980,
  "IR": 5981,
  "\u2581pertinente": 5982,
  "\u2581piscina": 5983,
  "\u2581manual": 5984,
  "\u2581trabajan": 5985,
  "\u2581announced": 5986,
  "\u2581em": 5987,
  "\u2581expresa": 5988,
  "\u2581Nota": 5989,
  "\u2581north": 5990,
  "\u2581recognize": 5991,
  "\u2581nation": 5992,
  "\u2581circulaci\u00f3n": 5993,
  "\u2581Next": 5994,
  "ping": 5995,
  "\u2581Every": 5996,
  "\u2581permit": 5997,
  "\u25811)": 5998,
  "/10": 5999,
  "ally": 6000,
  "ec": 6001,
  "Oh": 6002,
  "\u2581acaba": 6003,
  "\u2581introduction": 6004,
  "\u2581urgent": 6005,
  ".12": 6006,
  "\u2581Master": 6007,
  "mes": 6008,
  "\u2581plenary": 6009,
  "\u2581comprendido": 6010,
  "\u2581ocasiones": 6011,
  "off": 6012,
  "\u2581paciente": 6013,
  "\u2581trate": 6014,
  "\u2581vulnerables": 6015,
  "\u2581Administrative": 6016,
  "ile": 6017,
  "\u2581consiste": 6018,
  "\u2581inmediato": 6019,
  "\u2581Congreso": 6020,
  "\u2581wrote": 6021,
  "\u2581econom\u00edas": 6022,
  "Do": 6023,
  "\u2581connected": 6024,
  "\u2581alguno": 6025,
  "\u2581combined": 6026,
  "\u2581Londres": 6027,
  "\u2581Would": 6028,
  "\u2581reducing": 6029,
  "\u258172": 6030,
  "\u2581happens": 6031,
  "\u2581looked": 6032,
  "\u2581abogado": 6033,
  "\u2581proveedores": 6034,
  "\u2581Ki": 6035,
  "\u2581punishment": 6036,
  "\u2581jur\u00eddicos": 6037,
  "\u258114,": 6038,
  "\u2581resistencia": 6039,
  "\u2581aims": 6040,
  "\u2581Make": 6041,
  "\u2581testigos": 6042,
  "\u2581Life": 6043,
  "ona": 6044,
  "\u2581VII": 6045,
  "pon": 6046,
  ".15": 6047,
  "\u2581morir": 6048,
  "\u2581\u201d.": 6049,
  "\u2581sacar": 6050,
  "\u2581Tan": 6051,
  "\u2581addressing": 6052,
  "\u2581Watch": 6053,
  "\u2581tendr\u00e1n": 6054,
  "\u2581LOS": 6055,
  "\u2581updated": 6056,
  "\u2581Os": 6057,
  "\u2581feet": 6058,
  "\u2581libertades": 6059,
  "\u2581chapter": 6060,
  "\u2581component": 6061,
  "\u2581$": 6062,
  "\u2581partidos": 6063,
  "\u2581vuelos": 6064,
  "ple": 6065,
  "\u2581respectivamente": 6066,
  "\u2581judges": 6067,
  "\u2581Rules": 6068,
  "tz": 6069,
  "\u2581organisations": 6070,
  "\u2581Foundation": 6071,
  "\u2581books": 6072,
  "62": 6073,
  "rie": 6074,
  "\u258119.": 6075,
  "\u2581restricciones": 6076,
  "\u2581Mapa": 6077,
  "itis": 6078,
  "\u2581numerosos": 6079,
  "\u2581conoce": 6080,
  "\u2581Countries": 6081,
  "\u2581latter": 6082,
  "\u2581characteristics": 6083,
  "\u2581flights": 6084,
  "\u2581modificaci\u00f3n": 6085,
  "\u2581Mostrar": 6086,
  "\u2581appreciation": 6087,
  "\u2581multiple": 6088,
  "6,": 6089,
  "\u2581Est\u00e1s": 6090,
  "\u2581Hijo": 6091,
  "\u2581tour": 6092,
  "l\u00e9": 6093,
  "\u2581introduce": 6094,
  "tions": 6095,
  "\u2581Luis": 6096,
  "\u2581Greece": 6097,
  "\u2581IP": 6098,
  "\u2581Vol": 6099,
  "\u2581comportamiento": 6100,
  "\u2581superiores": 6101,
  "aba": 6102,
  "\u25811:": 6103,
  "\u2581Chief": 6104,
  "\u2581llega": 6105,
  "\u2581Nothing": 6106,
  "ini": 6107,
  "\u2581carrying": 6108,
  "\u2581noches": 6109,
  "\u2581element": 6110,
  "\u2581Islas": 6111,
  "\u2581recibi\u00f3": 6112,
  "\u2581advanced": 6113,
  "\u2581coffee": 6114,
  "\u2581sharing": 6115,
  "gos": 6116,
  "\u2581estrellas": 6117,
  "\u2581mouth": 6118,
  "\u2581moved": 6119,
  "\u2581Vienna": 6120,
  "\u2581scheme": 6121,
  "\u2581explained": 6122,
  "\u2581fabricaci\u00f3n": 6123,
  "\u2581package": 6124,
  "\u2581served": 6125,
  "ors": 6126,
  "\u2581Museo": 6127,
  "Di": 6128,
  "eh": 6129,
  "\u2581llevado": 6130,
  "\u2581guarantees": 6131,
  "\u2581estatales": 6132,
  "\u2581actualizaciones": 6133,
  "\u2581Administration": 6134,
  "\u2581buenos": 6135,
  "\u2581corrupci\u00f3n": 6136,
  "fu": 6137,
  "\u2581association": 6138,
  "\u2581acceder": 6139,
  "\u2581crees": 6140,
  "\u2581ONG": 6141,
  "\u2581Friday": 6142,
  "\u2581Light": 6143,
  "\u2581Fecha": 6144,
  "sha": 6145,
  "\u2581becomes": 6146,
  "\u2581perdido": 6147,
  "\u2581Islamic": 6148,
  "\u2581NGOs": 6149,
  "\u2581Je": 6150,
  "\u2581figures": 6151,
  "\u258176": 6152,
  "\u2581purchase": 6153,
  "\u2581Book": 6154,
  "5%": 6155,
  "\u2581flat": 6156,
  "\u2581Econ\u00f3mica": 6157,
  "\u2581evil": 6158,
  "cin": 6159,
  "\u2581Kenya": 6160,
  "\u2581displaced": 6161,
  "don": 6162,
  "\u2581ship": 6163,
  "\u2581refer": 6164,
  "\u2581Grecia": 6165,
  "\u2581Sede": 6166,
  "\u2581acoge": 6167,
  "\u2581sort": 6168,
  "\u2581fuck": 6169,
  "...?": 6170,
  "\u2581Sweden": 6171,
  "DA": 6172,
  "Vamos": 6173,
  "\u2581bufetes": 6174,
  "\u2581innovation": 6175,
  "\u2581track": 6176,
  "\u2581payments": 6177,
  "\u2581compatible": 6178,
  "\u2581Trans": 6179,
  "\u2581kid": 6180,
  "\u2581Listen": 6181,
  "AP": 6182,
  "\u2581cr\u00e9ditos": 6183,
  "\u2581destinadas": 6184,
  "\u2581interpretaci\u00f3n": 6185,
  "PA": 6186,
  "tive": 6187,
  "rin": 6188,
  "\u2581documentaci\u00f3n": 6189,
  "\u2581considers": 6190,
  "\u2581duro": 6191,
  "ola": 6192,
  "\u2581combinaci\u00f3n": 6193,
  "\u2581ri": 6194,
  "\u2581finance": 6195,
  "\u2581approaches": 6196,
  "\u2581dark": 6197,
  "\u2581determinado": 6198,
  "\u2581v\u00edctima": 6199,
  "\u2581devices": 6200,
  "bil": 6201,
  "\u2581culpa": 6202,
  "\u2581emissions": 6203,
  "\u2581distance": 6204,
  "\u2581prestaciones": 6205,
  "\u2581previously": 6206,
  "\u2581historical": 6207,
  "\u2581blog": 6208,
  "\u2581Muchos": 6209,
  "\u2581vaya": 6210,
  "\u2581(3": 6211,
  "\u2581desire": 6212,
  "om": 6213,
  "\u2581UNESCO": 6214,
  "\u2581File": 6215,
  "\u2581norma": 6216,
  "\u2581performed": 6217,
  "\u2581shot": 6218,
  "\u2581observ\u00f3": 6219,
  "\u2581naciones": 6220,
  "\u2581appears": 6221,
  "\u00d1": 6222,
  "\u2581encontrado": 6223,
  "\u2581huge": 6224,
  "\u2581ambiental": 6225,
  "ow": 6226,
  "\u2581cient\u00edficos": 6227,
  "\u2581utilizan": 6228,
  "\u2581spent": 6229,
  "\u2581lu": 6230,
  "\u2018": 6231,
  "\u2581Viena": 6232,
  "\u2581judiciales": 6233,
  "\u2581union": 6234,
  "\u2581ho": 6235,
  "ee": 6236,
  "\u2581jard\u00edn": 6237,
  "\u25812001.": 6238,
  "\u2581\u00e9stos": 6239,
  "\u2581comienzo": 6240,
  "\u2581residence": 6241,
  "\u2581declared": 6242,
  "\u2581Help": 6243,
  "form": 6244,
  "\u2581combination": 6245,
  "tera": 6246,
  "\u2581sentir": 6247,
  "\u2581sociedades": 6248,
  "\u2581Malta": 6249,
  "\u2581Productos": 6250,
  "\u2581AL": 6251,
  "\u2581Mark": 6252,
  "\u2581Max": 6253,
  "\u2581murder": 6254,
  "\u2581establecidas": 6255,
  "\u2581limits": 6256,
  "\u2581meta": 6257,
  "\u2581vio": 6258,
  "\u2581submission": 6259,
  "\u2581economies": 6260,
  "\u2581app": 6261,
  "\u2581significativa": 6262,
  "\u258167": 6263,
  "\u2581terrible": 6264,
  "\u2581Cuadro": 6265,
  "\u2581cell": 6266,
  "\u2581amendment": 6267,
  "\u2581CP": 6268,
  "\u2581Stop": 6269,
  "\u2581older": 6270,
  "our": 6271,
  "\u2581Monte": 6272,
  "\u2581Juegos": 6273,
  "\u2581Star": 6274,
  "\u2581invita": 6275,
  "\u258191": 6276,
  "\u2581welcomes": 6277,
  "\u2581amenazas": 6278,
  "\u2581peor": 6279,
  "\u2581Very": 6280,
  "\u25811985": 6281,
  "\u2581receiving": 6282,
  "\u2581Algunas": 6283,
  "\u2581aprendizaje": 6284,
  "0%": 6285,
  "\u258168": 6286,
  "\u258199": 6287,
  "\u2581firme": 6288,
  "\u2581Ce": 6289,
  "\u2581continua": 6290,
  "\u2581mu": 6291,
  "\u2581constitute": 6292,
  "tter": 6293,
  "\u2581audio": 6294,
  "\u2581consent": 6295,
  "\u2581f\u00e1cilmente": 6296,
  "\u2581llegada": 6297,
  "\u2581confirmed": 6298,
  "\u2581activo": 6299,
  "\u2581glass": 6300,
  "\u2581Ke": 6301,
  "\u2581verdadera": 6302,
  "\u2581Pues": 6303,
  "cra": 6304,
  "OL": 6305,
  "\u2581Palestina": 6306,
  "\u2581anuales": 6307,
  "\u2581seeking": 6308,
  "\u2581ambientales": 6309,
  "\u2581pasos": 6310,
  "\u2581ejercer": 6311,
  "\u2581humanitario": 6312,
  "\u2581Sociales": 6313,
  "dica": 6314,
  "IA": 6315,
  "\u2581requirement": 6316,
  "\u2581seguido": 6317,
  "\u2581homes": 6318,
  "\u2581failed": 6319,
  "\u2581usa": 6320,
  "\u2581returned": 6321,
  "\u2581window": 6322,
  "iente": 6323,
  "\u2581Journal": 6324,
  "red": 6325,
  "\u2581Dar": 6326,
  "Com": 6327,
  "\u2581prevista": 6328,
  "\u2581realizadas": 6329,
  "\u2581Holiday": 6330,
  "\u2581altura": 6331,
  "\u2581evening": 6332,
  "\u2581Pide": 6333,
  "\u2581profile": 6334,
  "\u2581generation": 6335,
  "\u2581Sustainable": 6336,
  "\u2581gold": 6337,
  "rri": 6338,
  "Mo": 6339,
  "\u2581grow": 6340,
  "\u2581season": 6341,
  "\u2581lived": 6342,
  "\u2581tele": 6343,
  "\u2581alumnos": 6344,
  "\u2581semi": 6345,
  "\u2581remove": 6346,
  "\u2581zone": 6347,
  "\u2581implications": 6348,
  "\u2581enterprises": 6349,
  "\u2581increasingly": 6350,
  "\u2581introducci\u00f3n": 6351,
  "\u2581Considerando": 6352,
  "\u2581cells": 6353,
  "\u2581denuncias": 6354,
  "\u2581detr\u00e1s": 6355,
  "\u2581defence": 6356,
  "vas": 6357,
  "\u2581Polic\u00eda": 6358,
  "\u2581piezas": 6359,
  "\u2581Bangladesh": 6360,
  "\u2581Date": 6361,
  "\u2581innovative": 6362,
  "\u2581costa": 6363,
  "\u2581mutual": 6364,
  "ev": 6365,
  "\u2581planeta": 6366,
  "\u2581adolescentes": 6367,
  "\u2581Miss": 6368,
  "\u2581temporal": 6369,
  "\u2581controles": 6370,
  "\u25811988": 6371,
  "\u2581tendencia": 6372,
  "\u2581disaster": 6373,
  "DR": 6374,
  "\u25812011.": 6375,
  "\u258121.": 6376,
  "\u2581hate": 6377,
  "\u2581instrucciones": 6378,
  "\u258189": 6379,
  "\u2581Design": 6380,
  "\u2581afecta": 6381,
  "\u2581Technology": 6382,
  "\u2581severe": 6383,
  "\u2581decidir": 6384,
  "\u2581imports": 6385,
  "7.": 6386,
  "mis": 6387,
  "NA": 6388,
  "\u2581edici\u00f3n": 6389,
  "\u2581competente": 6390,
  "\u2581presentation": 6391,
  "MO": 6392,
  "\u2581sentence": 6393,
  "\u2581Mal": 6394,
  "\u2581gift": 6395,
  "\u2581Persons": 6396,
  "rra": 6397,
  "\u2581campos": 6398,
  "\u2581Uganda": 6399,
  "\u2581Jean": 6400,
  "\u2581engine": 6401,
  "\u2581structural": 6402,
  "\u258187": 6403,
  "\u2581terminado": 6404,
  "AN": 6405,
  "\u2581secondary": 6406,
  "\u2581cantidades": 6407,
  "\u2581spend": 6408,
  "\u2581flight": 6409,
  "\u2581mantiene": 6410,
  "\u2581missing": 6411,
  "\u25812:": 6412,
  "\u2581enmienda": 6413,
  "\u2581Robert": 6414,
  "\u2581summary": 6415,
  "\u2581stressed": 6416,
  "\u2581banks": 6417,
  "\u2581conducta": 6418,
  "\u2581o\u00eddo": 6419,
  "\u2581agriculture": 6420,
  "\u2581utilizados": 6421,
  "\u2581Ser": 6422,
  "\u2581realizada": 6423,
  "\u2581se\u00f1al": 6424,
  "\u2581votos": 6425,
  "\u00e9is": 6426,
  "ists": 6427,
  "\u2581Ejecutiva": 6428,
  "\u2581Greek": 6429,
  "ware": 6430,
  "\u2581becoming": 6431,
  "\u2581correcta": 6432,
  "\u2581chemical": 6433,
  "\u2581matar": 6434,
  "\u2581bringing": 6435,
  "\u258184": 6436,
  "\u2581alimentaci\u00f3n": 6437,
  "\u2581supports": 6438,
  "\u2581Berlin": 6439,
  "san": 6440,
  ":30": 6441,
  "\u2581Bio": 6442,
  "\u2581theme": 6443,
  "\u2581bear": 6444,
  "\u2581grant": 6445,
  "\u2581reales": 6446,
  "\u2581Draft": 6447,
  "\u2581gratuito": 6448,
  "\u2581participating": 6449,
  "\u2581expresar": 6450,
  "\u2581migrantes": 6451,
  "SP": 6452,
  "\u2581pies": 6453,
  "olog\u00eda": 6454,
  "\u2581Optional": 6455,
  "RI": 6456,
  "\u2581hurt": 6457,
  "\u2581momentos": 6458,
  "\u2581extend": 6459,
  "\u2581producir": 6460,
  "\u2581Florida": 6461,
  "PC": 6462,
  "\u2581legales": 6463,
  "\u2581propiedades": 6464,
  "\u2581Mayor": 6465,
  "\u2581Call": 6466,
  "\u2581Occidental": 6467,
  "\u2581benepl\u00e1cito": 6468,
  "\u2581demostrado": 6469,
  "\u2581charges": 6470,
  "\u2581sick": 6471,
  "\u2581respectively": 6472,
  "\u2581Nosotros": 6473,
  "\u2581namely": 6474,
  "\u258111,": 6475,
  "Las": 6476,
  "toria": 6477,
  "\u2581presentan": 6478,
  "\u2581previa": 6479,
  "\u2581quiet": 6480,
  "\u2581transmisi\u00f3n": 6481,
  "\u2581migration": 6482,
  "\u2581(3)": 6483,
  "\u2581sentencia": 6484,
  "\u2581bancos": 6485,
  "\u2581numerosas": 6486,
  "\u2581tratando": 6487,
  "\u2581ocupaci\u00f3n": 6488,
  "\u2581Muchas": 6489,
  "ical": 6490,
  "\u2581achievement": 6491,
  "\u2581thousand": 6492,
  "\u2581Fo": 6493,
  "\u2581substance": 6494,
  "\u2581rehabilitaci\u00f3n": 6495,
  "ales": 6496,
  "\u2581treaties": 6497,
  "\u2581Prevention": 6498,
  "\u2581visual": 6499,
  "\u2581Training": 6500,
  "\u2581duration": 6501,
  "\u2581River": 6502,
  "VI": 6503,
  "\u2581comenzar": 6504,
  "\u2581imposible": 6505,
  "\u2581houses": 6506,
  "\u2581Doctor": 6507,
  "\u2581L\u00edbano": 6508,
  "\u2581establecen": 6509,
  "\u2581afirma": 6510,
  "\u2581altos": 6511,
  "\u2581Share": 6512,
  "ente": 6513,
  "\u2581D\u00eda": 6514,
  "rate": 6515,
  "200": 6516,
  "\u2581flow": 6517,
  "\u2581Dad": 6518,
  "\u2581perform": 6519,
  "\u2581quiz\u00e1s": 6520,
  "\u2581identificaci\u00f3n": 6521,
  "\u2581assess": 6522,
  "\u2581star": 6523,
  "\u2581asking": 6524,
  "-10": 6525,
  "\u2581Sud\u00e1frica": 6526,
  "7,": 6527,
  "\u2581tests": 6528,
  "\u2581aprobada": 6529,
  "\u2581decidido": 6530,
  "\u2581hearing": 6531,
  "\u2581struggle": 6532,
  "pan": 6533,
  "\u2581Se\u00f1ora": 6534,
  "\u2581propuesto": 6535,
  "\u2581relieve": 6536,
  "\u2581coste": 6537,
  "ux": 6538,
  "\u2581Kar": 6539,
  "\u2581Myanmar": 6540,
  "\u2581estima": 6541,
  "\u2581treat": 6542,
  "CC": 6543,
  "\u2581implica": 6544,
  "ther": 6545,
  "\u2581acting": 6546,
  "\u2581conjunta": 6547,
  "\u2581army": 6548,
  "\u2581concesi\u00f3n": 6549,
  "\u2581Fu": 6550,
  "\u2581Jefe": 6551,
  "\u2581secret": 6552,
  "\u2581hambre": 6553,
  "\u25812012.": 6554,
  "\u2581lengua": 6555,
  "83": 6556,
  "Vi": 6557,
  "\u2581arrest": 6558,
  "\u2581acondicionado": 6559,
  "\u2581mor": 6560,
  "\u2581permiso": 6561,
  "\u2581Ali": 6562,
  "\u2581Jerusal\u00e9n": 6563,
  "\u2581anuncios": 6564,
  "\u2581facing": 6565,
  "\u2581threats": 6566,
  "\u2581helping": 6567,
  "\u2581espacios": 6568,
  "\u2581puerto": 6569,
  "\u2581Lanka": 6570,
  "\u2581ONU": 6571,
  "\u2581Recordando": 6572,
  "\u2581LAS": 6573,
  "oc": 6574,
  "\u2581respetar": 6575,
  "\u2581background": 6576,
  "\u2581James": 6577,
  "\u2581membership": 6578,
  "\u2581leader": 6579,
  "\u2581enorme": 6580,
  "\u2581sucede": 6581,
  "Puedo": 6582,
  "/11": 6583,
  "\u2581Presidenta": 6584,
  "\u2581encuentro": 6585,
  "\u2581atender": 6586,
  "\u2581boat": 6587,
  "\u2581Organismo": 6588,
  "\u2581dad": 6589,
  "\u25811986": 6590,
  "\u2581Following": 6591,
  "\u2581Grand": 6592,
  "\u2581Gas": 6593,
  "\u2581Ku": 6594,
  "\u2581sanctions": 6595,
  "\u2581competencias": 6596,
  "\u2581representan": 6597,
  "DI": 6598,
  "\u2581m\u00e1quina": 6599,
  "\u2581Ucrania": 6600,
  "\u2581crazy": 6601,
  "habla": 6602,
  "AD": 6603,
  "\u2581Santiago": 6604,
  "\u2581Suecia": 6605,
  "\u2581pictures": 6606,
  "bus": 6607,
  "\u2581Bay": 6608,
  "\u2581chi": 6609,
  "\u2581tomando": 6610,
  "\u2581dispositivo": 6611,
  "\u2581Christmas": 6612,
  "\u2581$1": 6613,
  "\u2581nacimiento": 6614,
  "\u2581mala": 6615,
  "\u2581Gra": 6616,
  "\u2581combustible": 6617,
  "\u2581YOU": 6618,
  "\u2581Vale": 6619,
  "\u2581publicado": 6620,
  "\u2581comfortable": 6621,
  "\u2581salvar": 6622,
  "(1)": 6623,
  "\u2581Really": 6624,
  "\u2581Further": 6625,
  "\u2581m\u00f3vil": 6626,
  "\u2581extraordinario": 6627,
  "\u2581description": 6628,
  "\u2581disminuci\u00f3n": 6629,
  "\u2581almacenamiento": 6630,
  "\u2581conferences": 6631,
  "\u2581d\u00e9": 6632,
  "\u2581hogares": 6633,
  "\u2581antiguo": 6634,
  "\u2581Item": 6635,
  "\u00e9n": 6636,
  "\u2581camp": 6637,
  "\u2581meant": 6638,
  "\u2581orders": 6639,
  "\u2581reforms": 6640,
  "\u2581tarjeta": 6641,
  "board": 6642,
  "\u2581properties": 6643,
  "dic": 6644,
  "\u25813)": 6645,
  "yl": 6646,
  "field": 6647,
  "\u258196": 6648,
  "\u2581cor": 6649,
  "\u2581Staff": 6650,
  "\u2581parking": 6651,
  "\u2581asilo": 6652,
  "\u2581Actividades": 6653,
  "\u2581Estrategia": 6654,
  "sol": 6655,
  "esta": 6656,
  "\u2581greatest": 6657,
  "\u2581palestino": 6658,
  "\u2581subregional": 6659,
  "\u2581wonderful": 6660,
  "\u2581saben": 6661,
  "\u2581brain": 6662,
  "\u2581palestinos": 6663,
  "\u2581engaged": 6664,
  "cul": 6665,
  "\u00e1is": 6666,
  "\u2581Nu": 6667,
  "ability": 6668,
  "\u2581plataforma": 6669,
  "\u2581Antonio": 6670,
  "\u2581aircraft": 6671,
  "ones": 6672,
  "\u2581primaria": 6673,
  "\u2581park": 6674,
  "ship": 6675,
  "c\u00f3mo": 6676,
  "\u2581Bureau": 6677,
  "wan": 6678,
  "\u2581revisar": 6679,
  "\u2581parecer": 6680,
  "\u2581Siria": 6681,
  "\u2581pelo": 6682,
  "\u2581Corr": 6683,
  "\u2581comprender": 6684,
  "\u2581alive": 6685,
  "\u2581Africana": 6686,
  "\u2581baratos": 6687,
  "\u2581screen": 6688,
  "\u2581nine": 6689,
  "\u2581exige": 6690,
  "\u2581necesitamos": 6691,
  "\u2581Monday": 6692,
  "\u2581comienza": 6693,
  "\u2581ocurre": 6694,
  "TER": 6695,
  "\u258150%": 6696,
  "ue": 6697,
  "\u2581undertake": 6698,
  "\u2581television": 6699,
  "\u2581suitable": 6700,
  "\u2581subsequent": 6701,
  "/1": 6702,
  "\u2581Darfur": 6703,
  "\u2581keeping": 6704,
  "\u2581comit\u00e9": 6705,
  "\u2581sought": 6706,
  "\u2581ordinario": 6707,
  "\u2581detail": 6708,
  "\u2581pecado": 6709,
  "\u2581offences": 6710,
  "\u2581Noticias": 6711,
  "\u2581agr\u00edcola": 6712,
  "\u2581privadas": 6713,
  "l\u00ed": 6714,
  "\u258173": 6715,
  "\u2581Nepal": 6716,
  "EM": 6717,
  "\u2581delay": 6718,
  "\u2581hacerse": 6719,
  "\u2581componente": 6720,
  "\u2581intra": 6721,
  "\u2581R\u00edo": 6722,
  "\u2581sister": 6723,
  "\u2581hac\u00eda": 6724,
  "\u258197": 6725,
  "\u2581demostrar": 6726,
  "\u2581Ministers": 6727,
  "\u2581oraci\u00f3n": 6728,
  "\u2581ensayos": 6729,
  "\u2581ml": 6730,
  "\u2581businesses": 6731,
  "\u2581velar": 6732,
  "ey": 6733,
  "\u2581intervention": 6734,
  "\u2581agency": 6735,
  "\u2581cari\u00f1o": 6736,
  "\u2581Plaza": 6737,
  "\u2581pointed": 6738,
  "\u258186": 6739,
  "\u2581logrado": 6740,
  "\u2581documentation": 6741,
  "PT": 6742,
  "\u2581antigua": 6743,
  "amiento": 6744,
  "\u2581command": 6745,
  "rte": 6746,
  "\u2581clients": 6747,
  "\u2581dispositivos": 6748,
  "\u2581Pakistan": 6749,
  "\u2581survey": 6750,
  "\u2581reservation": 6751,
  "\u2581inclusion": 6752,
  "\u2581sugar": 6753,
  "\u2581kil\u00f3metros": 6754,
  "\u2581movimientos": 6755,
  "fri": 6756,
  "\u2581promise": 6757,
  "\u25812014,": 6758,
  "king": 6759,
  "\u2581dream": 6760,
  "\u2581Visto": 6761,
  "\u2581escribir": 6762,
  "\u258178": 6763,
  "\u2581Framework": 6764,
  "\u2581Him": 6765,
  "\u2581Strategy": 6766,
  "\u2581Private": 6767,
  "\u2581Country": 6768,
  "\u2581hundred": 6769,
  "\u2581finalmente": 6770,
  "\u2581\u00faltimas": 6771,
  "\u2581relief": 6772,
  "sur": 6773,
  "\u2581Alta": 6774,
  "\u25811987": 6775,
  "\u2581importaciones": 6776,
  "part": 6777,
  "\u2581consumer": 6778,
  "ias": 6779,
  "\u2581malo": 6780,
  "\u2581Change": 6781,
  "\u2581desarrollados": 6782,
  "PL": 6783,
  "sti": 6784,
  "\u2581Primer": 6785,
  "\u2581nueve": 6786,
  "pri": 6787,
  "\u2581freedoms": 6788,
  "\u2581significantly": 6789,
  "\u2581technological": 6790,
  "\u2581administrativas": 6791,
  "\u2581videos": 6792,
  "\u2581identification": 6793,
  "\u2581milk": 6794,
  "TC": 6795,
  "\u2581ejecutar": 6796,
  "\u2581s\u00edntomas": 6797,
  "\u2581Lebanon": 6798,
  "\u2581Mc": 6799,
  "enta": 6800,
  "ford": 6801,
  "ME": 6802,
  "\u2581properly": 6803,
  "\u2581Bal": 6804,
  "\u2581cycle": 6805,
  "\u2581parque": 6806,
  "\u2581title": 6807,
  "\u2581indemnizaci\u00f3n": 6808,
  "\u2581telling": 6809,
  "\u2581600": 6810,
  "hr": 6811,
  "\u2581examination": 6812,
  "\u2581independientes": 6813,
  "\u2581Poland": 6814,
  "\u2581experienced": 6815,
  "bla": 6816,
  "\u2581directiva": 6817,
  "\u2581hermana": 6818,
  "\u2581agents": 6819,
  "\u2581belleza": 6820,
  "bas": 6821,
  "\u2581impossible": 6822,
  "\u2581participated": 6823,
  "\u2581w": 6824,
  "bol": 6825,
  "\u2581Angola": 6826,
  "\u2581sold": 6827,
  "\u2581Society": 6828,
  "\u2581Ber": 6829,
  "\u2581sue\u00f1o": 6830,
  "\u2581targets": 6831,
  "\u2581binding": 6832,
  "rre": 6833,
  "gua": 6834,
  "eth": 6835,
  "\u2581ejemplos": 6836,
  "\u2581adecuadas": 6837,
  "comercializaci\u00f3n": 6838,
  "\u2581incremento": 6839,
  "\u2581regulatory": 6840,
  "\u2581particulares": 6841,
  "\u2581gun": 6842,
  "zar": 6843,
  "\u2581cha": 6844,
  "\u2581menu": 6845,
  "ach": 6846,
  "\u00e2": 6847,
  "\u2581buildings": 6848,
  "\u2581restaurant": 6849,
  "\u2581Learn": 6850,
  "\u2581est\u00e1ndar": 6851,
  "\u2581Noruega": 6852,
  "\u2581Beijing": 6853,
  "\u2581Recalling": 6854,
  "\u2581managed": 6855,
  "\u2581gr": 6856,
  "\u2581P\u00e1gina": 6857,
  "\u2581actualizaci\u00f3n": 6858,
  "ea": 6859,
  "var": 6860,
  "\u2581definir": 6861,
  "\u2581producers": 6862,
  "\u2581p\u00e9rdidas": 6863,
  "\u2581tendencias": 6864,
  "km": 6865,
  "\u2581healthy": 6866,
  "\u2581oriental": 6867,
  "\u2581fo": 6868,
  "\u2581Syrian": 6869,
  "tia": 6870,
  "\u2581deliver": 6871,
  "\u2581bosques": 6872,
  "UR": 6873,
  "\u2581sample": 6874,
  "\u2581desastres": 6875,
  "\u2581condena": 6876,
  "\u2581Click": 6877,
  "aciones": 6878,
  ".1)": 6879,
  "\u2581Gal": 6880,
  "rnos": 6881,
  "\u2581restrictions": 6882,
  "\u2581petr\u00f3leo": 6883,
  "\u2581Oriental": 6884,
  "oso": 6885,
  "mbra": 6886,
  "pt": 6887,
  "\u2581guests": 6888,
  "\u2581affairs": 6889,
  "\u2581expertise": 6890,
  "\u2581diversity": 6891,
  "\u2581Autoridad": 6892,
  "8,": 6893,
  "\u2581heavy": 6894,
  "\u2581residuos": 6895,
  "\u2581consolidaci\u00f3n": 6896,
  "\u2581medicine": 6897,
  "\u2581interpretado": 6898,
  "\u00c9": 6899,
  "\u2581Gen": 6900,
  "\u2581marido": 6901,
  "\u2581procurement": 6902,
  "\u2581muertos": 6903,
  "ld": 6904,
  "\u2581miss": 6905,
  "\u2581truly": 6906,
  "\u2581infancia": 6907,
  "\u2581t\u00edo": 6908,
  "\u2581Three": 6909,
  "\u2581cargos": 6910,
  "\u2581ja": 6911,
  "\u2581b\u00e1sica": 6912,
  "\u2581dog": 6913,
  "sch": 6914,
  "\u2581substantial": 6915,
  "\u2581calendario": 6916,
  "\u2581standing": 6917,
  "\u2581visible": 6918,
  "\u2581jurisdicci\u00f3n": 6919,
  "\u2581chosen": 6920,
  "\u2581ciento": 6921,
  "\u2581occurred": 6922,
  "star": 6923,
  "lon": 6924,
  "\u2581provincia": 6925,
  "\u2581nacionalidad": 6926,
  "\u2581functioning": 6927,
  "\u2581honour": 6928,
  "\u2581Dependencia": 6929,
  "\u2581worldwide": 6930,
  "\u2581revolution": 6931,
  "\u2581unemployment": 6932,
  "\u2581tren": 6933,
  "\u2581FOR": 6934,
  "\u2581desaf\u00edos": 6935,
  "\u2581hago": 6936,
  "\u2581elevado": 6937,
  "\u2581Otras": 6938,
  "\u2581changing": 6939,
  "nio": 6940,
  "\u2581r": 6941,
  "nie": 6942,
  "\u2581mom": 6943,
  "\u2581permita": 6944,
  "len": 6945,
  "\u2581convertido": 6946,
  "\u2581supplies": 6947,
  "\u2581interesante": 6948,
  "\u2581Belgium": 6949,
  "\u2581Polonia": 6950,
  "\u2581Armenia": 6951,
  "\u2581Follow": 6952,
  "ON": 6953,
  "\u2581verde": 6954,
  "\u2581river": 6955,
  "\u2581Supreme": 6956,
  "RO": 6957,
  "\u2581cooperate": 6958,
  "mento": 6959,
  "\u2581Jan": 6960,
  "\u2581turismo": 6961,
  "\u2581organizar": 6962,
  "\u2581integridad": 6963,
  "\u2581territories": 6964,
  "\u2581activamente": 6965,
  "\u2581comprensi\u00f3n": 6966,
  "\u2581UK": 6967,
  "\u2581dura": 6968,
  "\u2581herramienta": 6969,
  "\u2581sports": 6970,
  "\u2581solar": 6971,
  "\u2581interpretation": 6972,
  "\u2581v\u00eddeo": 6973,
  "\u2581UNHCR": 6974,
  "\u2581named": 6975,
  "\u2581perfil": 6976,
  "\u2581mid": 6977,
  "\u2581Out": 6978,
  "\u2581indispensable": 6979,
  "\u2581occur": 6980,
  "\u2581DO": 6981,
  "\u2581fighting": 6982,
  "\u2581leche": 6983,
  "\u2581voto": 6984,
  "CH": 6985,
  "\u2581asylum": 6986,
  "\u2581controls": 6987,
  "eo": 6988,
  "\u2581emphasis": 6989,
  "\u2581ocupa": 6990,
  "2005": 6991,
  "mina": 6992,
  "\u258194": 6993,
  "d\u00e9": 6994,
  ".30": 6995,
  "\u2581Cap": 6996,
  "And": 6997,
  "\u2581sell": 6998,
  "\u2581corte": 6999,
  "\u2581Pakist\u00e1n": 7000,
  "\u2581modalidades": 7001,
  "\u2581Ukraine": 7002,
  "\u2581memory": 7003,
  "\u2581Beach": 7004,
  "\u2581P\u00fablica": 7005,
  "imos": 7006,
  "\u2581cadena": 7007,
  "\u2581l\u00edderes": 7008,
  "\u2581c\u00e1mara": 7009,
  "500": 7010,
  "\u2581proporci\u00f3n": 7011,
  "\u2581introducir": 7012,
  "\u2581piensa": 7013,
  "\u00c1": 7014,
  "\u2581prisoners": 7015,
  "0/": 7016,
  "\u2581Arabia": 7017,
  "she": 7018,
  "\u2581consultar": 7019,
  "\u2581golf": 7020,
  "\u2581cre\u00f3": 7021,
  "tivas": 7022,
  "\u2581reino": 7023,
  "\u2581realize": 7024,
  "\u2581Old": 7025,
  "lip": 7026,
  "\u2581album": 7027,
  "\u2581district": 7028,
  "\u2581Norway": 7029,
  "\u2581Company": 7030,
  "\u2581env\u00edo": 7031,
  "\u2581Recursos": 7032,
  "\u2581attempt": 7033,
  "\u2581cr\u00edmenes": 7034,
  "\u2581Descargar": 7035,
  "\u2581temperatura": 7036,
  "har": 7037,
  "Ex": 7038,
  "\u2581edificios": 7039,
  "\u2581restaurante": 7040,
  "\u2581Presupuesto": 7041,
  "\u2581virtual": 7042,
  "\u2581agradable": 7043,
  "\u2581probar": 7044,
  "\u2581Nadie": 7045,
  "\u2581complaints": 7046,
  "\u2581corruption": 7047,
  "\u2581Asistencia": 7048,
  "\u2581jur\u00eddicas": 7049,
  "\u2581offence": 7050,
  "uk": 7051,
  "\u2581emp": 7052,
  "\u2581slow": 7053,
  "\u2581thou": 7054,
  "\u2581foot": 7055,
  "\u2581250": 7056,
  "cial": 7057,
  "\u2581adaptaci\u00f3n": 7058,
  "\u2581Whereas": 7059,
  "IV": 7060,
  "\u2581estadounidense": 7061,
  "SC": 7062,
  "\u2581espec\u00edfico": 7063,
  "%": 7064,
  "\u2581signs": 7065,
  "\u2581a\u00f1adido": 7066,
  "\u2581A\u00f1adir": 7067,
  "\u2581toward": 7068,
  "\u2581installed": 7069,
  "\u2581Video": 7070,
  "\u2581ill": 7071,
  "\u2581poli": 7072,
  "\u2581toneladas": 7073,
  "\u2581Aplicaci\u00f3n": 7074,
  "\u2581occupied": 7075,
  "\u2581perfecta": 7076,
  "\u258179": 7077,
  "\u2581producido": 7078,
  "\u2581symptoms": 7079,
  "\u2581Familia": 7080,
  "\u2581eficiente": 7081,
  "\u2581Catholic": 7082,
  "\u2581professionals": 7083,
  "\u2581temporada": 7084,
  "\u2581cool": 7085,
  "\u2581presentada": 7086,
  "\u2581carretera": 7087,
  "\u2581terrace": 7088,
  "\u2581representation": 7089,
  "\u2581notificaci\u00f3n": 7090,
  "\u2581Goals": 7091,
  "\u2581terraza": 7092,
  "\u2581proceda": 7093,
  "\u2581portal": 7094,
  "\u258101": 7095,
  "/4": 7096,
  "\u2581findings": 7097,
  "\u2581eliminate": 7098,
  "ima": 7099,
  "\u2581cartas": 7100,
  "\u2581Papa": 7101,
  "\u2581Rio": 7102,
  "\u2581nearly": 7103,
  "\u2581Montenegro": 7104,
  "\u2581naci\u00f3n": 7105,
  "\u2581Which": 7106,
  "\u2581escape": 7107,
  "\u2581Ministros": 7108,
  "\u2581estableci\u00f3": 7109,
  "\u2581asesinato": 7110,
  "\u2581dirigentes": 7111,
  "\u2581Investigaci\u00f3n": 7112,
  "\u2581hacemos": 7113,
  "\u2581Requests": 7114,
  "\u2581Northern": 7115,
  "If": 7116,
  "\u2581PRO": 7117,
  "\u258181": 7118,
  "\u2581adults": 7119,
  "\u2581Escuchar": 7120,
  "\u2581debo": 7121,
  "\u2581juez": 7122,
  "ski": 7123,
  "\u2581HA": 7124,
  "\u2581seeing": 7125,
  "\u2581Toda": 7126,
  "\u2581electr\u00f3nica": 7127,
  "\u2581actively": 7128,
  "\u2581considering": 7129,
  "\u2581cards": 7130,
  "\u2581dejado": 7131,
  "\u2581diario": 7132,
  "\u2581platform": 7133,
  "2000": 7134,
  "ense": 7135,
  "ACI\u00d3N": 7136,
  "cept": 7137,
  "\u2581temperature": 7138,
  "\u2581Ayuda": 7139,
  "but": 7140,
  "\u2581formed": 7141,
  "\u2581har\u00e9": 7142,
  "\u2581bis": 7143,
  "\u2581Elimination": 7144,
  "\u2581ventana": 7145,
  "\u258182": 7146,
  "\u2581hagan": 7147,
  "\u2581estancia": 7148,
  "\u2581dormir": 7149,
  "\u2581sexuales": 7150,
  "\u2581Both": 7151,
  "\u2581B\u00e9lgica": 7152,
  "lie": 7153,
  "\u2581unable": 7154,
  "\u2581Trust": 7155,
  "\u2581estrat\u00e9gico": 7156,
  "\u2581contrary": 7157,
  "house": 7158,
  "\u2581examples": 7159,
  "well": 7160,
  "\u2581lie": 7161,
  "aci": 7162,
  "\u2581indicar": 7163,
  "\u2581senior": 7164,
  "-6": 7165,
  "\u2581capacities": 7166,
  "tado": 7167,
  "lf": 7168,
  "\u2581Finland": 7169,
  "5,": 7170,
  "\u2581Head": 7171,
  "all": 7172,
  "ological": 7173,
  "\u2581ME": 7174,
  "\u2581estatal": 7175,
  "\u2581reasonable": 7176,
  "\u2581espec\u00edfica": 7177,
  "\u2581c\u00e9lulas": 7178,
  "\u2581oposici\u00f3n": 7179,
  "first": 7180,
  "\u2581descubrir": 7181,
  "\u2581wind": 7182,
  "\u2581regresar": 7183,
  "m\u00e9": 7184,
  "\u2581evaluaciones": 7185,
  "\u2581partnerships": 7186,
  "\u2581aceite": 7187,
  "\u2581beauty": 7188,
  "\u2581comfort": 7189,
  "\u2581players": 7190,
  "AT": 7191,
  "tero": 7192,
  "\u2581covering": 7193,
  "\u2581garantiza": 7194,
  "\u2581demands": 7195,
  "\u2581Through": 7196,
  "\u2581Zealand": 7197,
  "\u2581Jersey": 7198,
  "\u2581workshops": 7199,
  "light": 7200,
  "stitu": 7201,
  "600": 7202,
  "ela": 7203,
  "\u2581feature": 7204,
  "\u2581solidarity": 7205,
  "\u2581Space": 7206,
  "\u2581rehabilitation": 7207,
  "room": 7208,
  "\u2581sets": 7209,
  "\u2581wishes": 7210,
  "cle": 7211,
  "\u2581lectura": 7212,
  "\u258169": 7213,
  "\u2581indican": 7214,
  "\u2581Gua": 7215,
  "\u2581believed": 7216,
  "mann": 7217,
  "\u2581adquisici\u00f3n": 7218,
  "\u2581breve": 7219,
  "\u2581Mother": 7220,
  "\u2581ACNUR": 7221,
  "\u2581equivalent": 7222,
  "\u2581banda": 7223,
  "\u2581UNEP": 7224,
  "\u2581facts": 7225,
  "\u2581san": 7226,
  "\u2581ilegal": 7227,
  "\u2581orador": 7228,
  "\u2581dear": 7229,
  "\u2581Sabes": 7230,
  "\u258110%": 7231,
  "\u2581cubrir": 7232,
  "\u2581Added": 7233,
  "\u2581directive": 7234,
  "dan": 7235,
  "\u2581soldados": 7236,
  "\u2581constitutional": 7237,
  "\u2581repercusiones": 7238,
  "\u2581negociaci\u00f3n": 7239,
  "\u2581agente": 7240,
  "\u2581Hall": 7241,
  "\u2581esperando": 7242,
  "\u2581contin\u00faa": 7243,
  "\u2581desarrollado": 7244,
  "\u2581desempleo": 7245,
  "including": 7246,
  "cina": 7247,
  "\u2581mention": 7248,
  "\u2581student": 7249,
  "\u2581Tags": 7250,
  "\u2581destination": 7251,
  "\u2581Headquarters": 7252,
  "\u2581musical": 7253,
  "mor": 7254,
  "\u2581Fundaci\u00f3n": 7255,
  "\u2581asignaci\u00f3n": 7256,
  "\u2581financiar": 7257,
  "\u2581sweet": 7258,
  "\u2581maintained": 7259,
  "\u2581certificado": 7260,
  "\u2581usando": 7261,
  "\u2581male": 7262,
  "mb": 7263,
  "\u2581pod\u00edan": 7264,
  "\u2581ocupado": 7265,
  "\u2581drop": 7266,
  "\u2581Mediterranean": 7267,
  "\u2581executive": 7268,
  "\u2581gusto": 7269,
  "\u2581Um": 7270,
  "\u2581pendientes": 7271,
  "\u2581genial": 7272,
  "sin": 7273,
  "\u2581ye": 7274,
  "\u2581revoluci\u00f3n": 7275,
  "\u25811992,": 7276,
  "\u2581Natural": 7277,
  "\u2581pensando": 7278,
  "ade": 7279,
  "TS": 7280,
  "\u2581Agencia": 7281,
  "\u2581humanity": 7282,
  "\u2581examin\u00f3": 7283,
  "\u2581recuperar": 7284,
  "\u2581expres\u00f3": 7285,
  "\u2581dinner": 7286,
  "\u00bf": 7287,
  "\u2581ra\u00edz": 7288,
  "\u2581compa\u00f1\u00edas": 7289,
  "\u2581Estatuto": 7290,
  "\u2581quincuag\u00e9simo": 7291,
  "\u2581abarca": 7292,
  "\u2581thy": 7293,
  "\u2581showing": 7294,
  "\u2581warm": 7295,
  "\u2581consentimiento": 7296,
  "\u2581harm": 7297,
  "\u2581Cat": 7298,
  "ette": 7299,
  "Hay": 7300,
  "\u2581cierta": 7301,
  "\u2581Finlandia": 7302,
  "\u2581hist\u00f3rico": 7303,
  "\u2581residentes": 7304,
  "PS": 7305,
  "BAR": 7306,
  "\u2581budgetary": 7307,
  "\u2581descripci\u00f3n": 7308,
  "\u2581$2": 7309,
  "\u2581frontera": 7310,
  "\u2581fell": 7311,
  "\u2581recibe": 7312,
  "eta": 7313,
  "\u2581vemos": 7314,
  "\u2581tourism": 7315,
  "\u2581pensiones": 7316,
  "\u2581audit": 7317,
  "\u2581Small": 7318,
  "\u2581larger": 7319,
  "\u2581consists": 7320,
  "\u2581career": 7321,
  "\u2581periods": 7322,
  "\u2581SA": 7323,
  "\u2581Mom": 7324,
  "\u258123.": 7325,
  "\u2581tree": 7326,
  "\u2581exportaciones": 7327,
  "rica": 7328,
  "\u2581heads": 7329,
  "\u258122.": 7330,
  "\u2581Nombre": 7331,
  "\u2581Pri": 7332,
  "\u2581Press": 7333,
  "\u2581deals": 7334,
  "\u2581textos": 7335,
  "ator": 7336,
  "\u2581comunitarias": 7337,
  "\u2581outstanding": 7338,
  "\u2581shopping": 7339,
  "\u2581adecuados": 7340,
  "\u2581journey": 7341,
  "\u2581muri\u00f3": 7342,
  "\u2581Miguel": 7343,
  "\u2581Desarme": 7344,
  "\u2581enlace": 7345,
  "\u2581Czech": 7346,
  "\u2581llamamiento": 7347,
  "ts": 7348,
  "\u2581puertas": 7349,
  "\u2581accused": 7350,
  "ell": 7351,
  "MI": 7352,
  "\u2581Bob": 7353,
  "ath": 7354,
  "\u2581cars": 7355,
  "3)": 7356,
  "\u2581mencionado": 7357,
  "\u2581ii": 7358,
  "\u2581permitido": 7359,
  "\u2581ni\u00f1a": 7360,
  "\u2581publicaciones": 7361,
  "ala": 7362,
  "SO": 7363,
  "\u2581corresponding": 7364,
  "9%": 7365,
  "\u2581intention": 7366,
  "\u2581helps": 7367,
  "lor": 7368,
  "\u2581solidaridad": 7369,
  "\u2581ON": 7370,
  "\u2581resumen": 7371,
  "\u2581Keep": 7372,
  "\u2581primarily": 7373,
  "\u2581cat": 7374,
  "\u2581min": 7375,
  "\u2581ECU": 7376,
  "/5": 7377,
  "nic": 7378,
  "\u2581removed": 7379,
  "\u2581Rock": 7380,
  "\u2581statistical": 7381,
  "\u2581industriales": 7382,
  "\u2581occupation": 7383,
  "\u2581song": 7384,
  "\u258113,": 7385,
  "\u2581piso": 7386,
  "\u2581formuladas": 7387,
  "\u2581match": 7388,
  "\u2581rock": 7389,
  "\u2581spoke": 7390,
  "\u2581resulted": 7391,
  "\u2581capable": 7392,
  "cent": 7393,
  "\u2581supra": 7394,
  "\u2581Questions": 7395,
  "\u2581pilot": 7396,
  "\u2581conducir": 7397,
  "\u2581Long": 7398,
  "ign": 7399,
  "\u2581anymore": 7400,
  "\u2581\u00c1rabe": 7401,
  "\u25812020": 7402,
  "\u2581Word": 7403,
  "\u2581stress": 7404,
  "\u2581workshop": 7405,
  "\u2581mandatos": 7406,
  "\u2581Nuclear": 7407,
  "\u2581considerarse": 7408,
  "\u2581perjuicio": 7409,
  "\u2581ves": 7410,
  "\u2581arrival": 7411,
  "\u2581ruta": 7412,
  "\u2581ausencia": 7413,
  "\u2581buques": 7414,
  "\u2581fulfil": 7415,
  "row": 7416,
  "\u2581Live": 7417,
  "\u2581Expertos": 7418,
  "\u2581trends": 7419,
  "\u2581Leer": 7420,
  "\u2581shape": 7421,
  "\u2581a\u00e9reo": 7422,
  "2002": 7423,
  "\u2581organisation": 7424,
  "\u2581Festival": 7425,
  "PO": 7426,
  "\u25812013.": 7427,
  "AR": 7428,
  "\u2581understood": 7429,
  "\u2581pu": 7430,
  "\u2581Ch": 7431,
  "\u2581marine": 7432,
  "\u2581Photo": 7433,
  "\u2581gases": 7434,
  "\u2581attend": 7435,
  "Su": 7436,
  "\u2581normativa": 7437,
  "\u2581colour": 7438,
  "\u2581loved": 7439,
  "\u2581arrested": 7440,
  "\u2581Microsoft": 7441,
  "ius": 7442,
  "\u2581modifica": 7443,
  "\u2581entiendo": 7444,
  "\u2581debidamente": 7445,
  "\u2581dry": 7446,
  "\u2581ventas": 7447,
  "\u2581primeras": 7448,
  "IF": 7449,
  "\u2581Equipo": 7450,
  "\u2581meat": 7451,
  "\u2581darle": 7452,
  "wood": 7453,
  "\u2581Travel": 7454,
  "\u2581Incluso": 7455,
  ".1,": 7456,
  "\u2581Bel": 7457,
  "\u2581sirve": 7458,
  "\u2581mezcla": 7459,
  "2013": 7460,
  "IG": 7461,
  "\u2581considerado": 7462,
  "\u2581contaminaci\u00f3n": 7463,
  "\u2581dej\u00f3": 7464,
  "\u2581futuras": 7465,
  "\u2581detallada": 7466,
  "gia": 7467,
  "\u2581Does": 7468,
  "\u2581Buscar": 7469,
  "\u2581vecinos": 7470,
  "ara": 7471,
  "\u2581everybody": 7472,
  "\u2581extreme": 7473,
  "\u2581listo": 7474,
  "\u2581celebrar\u00e1": 7475,
  "cus": 7476,
  "\u2581convertirse": 7477,
  "\u2581potencia": 7478,
  "\u2581cobertura": 7479,
  "\u2581Bur": 7480,
  "\u2581Internal": 7481,
  "cip": 7482,
  "torio": 7483,
  "\u2581controlled": 7484,
  "\u2581preparing": 7485,
  "\u2581Order": 7486,
  "\u2581believes": 7487,
  "\u2581actuaci\u00f3n": 7488,
  "\u2581MI": 7489,
  "American": 7490,
  "\u2581Estonia": 7491,
  "\u2581Partido": 7492,
  "\u2581authorized": 7493,
  "\u2581complejo": 7494,
  "\u2581refugee": 7495,
  "\u2581officer": 7496,
  "\u2581lay": 7497,
  "\u2581dando": 7498,
  "\u2581prayer": 7499,
  "\u2581Despite": 7500,
  "\u2581clasificaci\u00f3n": 7501,
  "\u2581joined": 7502,
  "\u2581tardar": 7503,
  "\u2581occasion": 7504,
  "\u2581privados": 7505,
  "siones": 7506,
  "\u2581illicit": 7507,
  "\u2581gobernanza": 7508,
  "\u2581fill": 7509,
  "r\u00ed": 7510,
  "\u2581Qui": 7511,
  "\u2581restaurants": 7512,
  "\u2581conducto": 7513,
  "\u2581elaborado": 7514,
  "\u2581bajos": 7515,
  "\u2581Thursday": 7516,
  "\u2581finding": 7517,
  "\u2581Cross": 7518,
  "\u2581mensajes": 7519,
  "\u2581coordinated": 7520,
  "\u2581ratio": 7521,
  "ira": 7522,
  "\u2581ensayo": 7523,
  "DP": 7524,
  "\u258121,": 7525,
  "\u2581Store": 7526,
  "\u2581piedra": 7527,
  "\u2581=": 7528,
  "\u2581consejo": 7529,
  "\u2581destaca": 7530,
  "Ro": 7531,
  "\u2581torno": 7532,
  "\u2581driving": 7533,
  "\u2581Macedonia": 7534,
  "\u2581fiscales": 7535,
  "\u2581topic": 7536,
  "\u2581generalmente": 7537,
  "\u2581integrity": 7538,
  "\")": 7539,
  "\u2581Coordination": 7540,
  "\u2581List": 7541,
  "\u2581heaven": 7542,
  "\u2581Communities": 7543,
  "\u2581Comunicaci\u00f3n": 7544,
  "\u2581Games": 7545,
  "\u2581mountain": 7546,
  "\u2581Charles": 7547,
  "\u2581paga": 7548,
  "t\u00ed": 7549,
  "\u2581reciben": 7550,
  "\u2581restaurantes": 7551,
  "\u2581Italiano": 7552,
  "\u2581Game": 7553,
  "\u2581expansion": 7554,
  "\u2581Croacia": 7555,
  "\u2581aren": 7556,
  "\u2581concreto": 7557,
  "\u2581Software": 7558,
  "\u2581Comunidades": 7559,
  "\u2581seguir\u00e1": 7560,
  "\u2581observar": 7561,
  "\u2581existente": 7562,
  "\u2581movements": 7563,
  "\u2581tendr\u00eda": 7564,
  "IE": 7565,
  "\u2581A\u00f1adido": 7566,
  "\u2581igualmente": 7567,
  "82": 7568,
  "\u2581Adam": 7569,
  "\u2581sonido": 7570,
  "\u2581totally": 7571,
  "\u2581Res": 7572,
  "\u2581az\u00facar": 7573,
  "\u25811999.": 7574,
  "\u2581modificaciones": 7575,
  "\u2581Chamber": 7576,
  "\u2581coverage": 7577,
  "\u2581seat": 7578,
  "\u2581Color": 7579,
  "\u2581investments": 7580,
  "\u2581peri\u00f3dicos": 7581,
  "\u2581closer": 7582,
  "jas": 7583,
  "\u2581siente": 7584,
  "\u2581Welcome": 7585,
  "\u2581dates": 7586,
  "uro": 7587,
  "niendo": 7588,
  "\u2581Tel": 7589,
  "\u2581allowing": 7590,
  "\u2581Coordinaci\u00f3n": 7591,
  "\u2581none": 7592,
  "\u2581lies": 7593,
  "cur": 7594,
  "\u2581n\u00fameros": 7595,
  "FR": 7596,
  "\u2581appointment": 7597,
  "\u2581polvo": 7598,
  "MS": 7599,
  "\u2581strengthened": 7600,
  "PR": 7601,
  "\u2581Racial": 7602,
  "\u2581denuncia": 7603,
  "\u2581azul": 7604,
  "\u2581strongly": 7605,
  "\u2581Cyprus": 7606,
  "\u2581l\u00edder": 7607,
  "\u2581Sunday": 7608,
  "\u2581extensive": 7609,
  "\u2581witness": 7610,
  "\u2581concentraci\u00f3n": 7611,
  "\u2581satisfacer": 7612,
  "rus": 7613,
  "\u2581europeas": 7614,
  "Bo": 7615,
  "\u2581Cam": 7616,
  "\u2581permitir\u00e1": 7617,
  "\u2581Lista": 7618,
  "\u2581opposition": 7619,
  "\u2581techniques": 7620,
  "\u2581Prime": 7621,
  "\u2581institucionales": 7622,
  "\u2581player": 7623,
  "\u2581col": 7624,
  "\u2581Ambassador": 7625,
  "\u2581Big": 7626,
  "\u2581llevan": 7627,
  "\u2581entrevista": 7628,
  "\u2581cierre": 7629,
  "\u2581amazing": 7630,
  "\u2581weather": 7631,
  "\u2581Fra": 7632,
  "\u2581villa": 7633,
  "\u2581cuyos": 7634,
  "\u2581suficientemente": 7635,
  "\u2581Royal": 7636,
  "\u2581huh": 7637,
  "\u2581(4": 7638,
  "\u2581route": 7639,
  "lina": 7640,
  "\u2581trees": 7641,
  "\u2581profunda": 7642,
  "\u2581Science": 7643,
  "\u2581minorities": 7644,
  "\u2581Superior": 7645,
  "ua": 7646,
  "met": 7647,
  "\u2581criterio": 7648,
  "\u2581correctamente": 7649,
  "\u2581danger": 7650,
  "\u2581pages": 7651,
  "\u2581Sta": 7652,
  "\u2581Dinamarca": 7653,
  "\u2581Vista": 7654,
  "\u2581contingentes": 7655,
  "\u2581entity": 7656,
  "nza": 7657,
  "\u2581batalla": 7658,
  "\u2581clinical": 7659,
  "\u2581observaci\u00f3n": 7660,
  "\u2581pleasure": 7661,
  "\u2581pieces": 7662,
  "\u2581positivo": 7663,
  "\u2581escolar": 7664,
  "\u2581logros": 7665,
  "700": 7666,
  "\u2581Original": 7667,
  "\u00e3": 7668,
  "\u2581regreso": 7669,
  "\u2581letters": 7670,
  "\u2581perspectivas": 7671,
  "\u2581preocupaciones": 7672,
  "\u2581examinado": 7673,
  "\u2581planet": 7674,
  "\u2581Location": 7675,
  "\u2581finalidad": 7676,
  "\u2581evidente": 7677,
  "\u2581organizado": 7678,
  "RA": 7679,
  "gna": 7680,
  "tt": 7681,
  "\u2581Professional": 7682,
  "\u2581paquete": 7683,
  "\u2581declara": 7684,
  "\u2581engage": 7685,
  "\u2581enhanced": 7686,
  "\u2581\"\u00bf": 7687,
  "\u2581seriously": 7688,
  "\u2581testing": 7689,
  "\u2581refleja": 7690,
  "\u2581comentario": 7691,
  "ema": 7692,
  "\u2581quick": 7693,
  "\u2581130": 7694,
  "idades": 7695,
  "\u2581presentadas": 7696,
  "dar": 7697,
  "\u2581Er": 7698,
  "\u2581municipal": 7699,
  "\u2581faced": 7700,
  "\u2581Operaciones": 7701,
  "lli": 7702,
  "fra": 7703,
  "\u2581candidates": 7704,
  "\u2581lessons": 7705,
  "\u2581suggest": 7706,
  "\u2581foro": 7707,
  "\u2581tratos": 7708,
  "\u2581finished": 7709,
  "spe": 7710,
  "\u2581ritmo": 7711,
  "\u258171": 7712,
  "\u2581Actualmente": 7713,
  "\u2581Access": 7714,
  "\u2581(\"": 7715,
  "\u2581Croatia": 7716,
  "\u2581consumers": 7717,
  "\u2581feed": 7718,
  "\u2581reviewed": 7719,
  "\u2581navegaci\u00f3n": 7720,
  "\u2581A\u00fan": 7721,
  "\u2581sides": 7722,
  "\u2581canal": 7723,
  "d\u00eda": 7724,
  "\u2581headquarters": 7725,
  "900": 7726,
  "\u2581corriente": 7727,
  "Hola": 7728,
  "\u2581apartamentos": 7729,
  "\u2581chicas": 7730,
  "\u2581Segunda": 7731,
  "\u2581pr\u00f3ximos": 7732,
  "\u2581Eastern": 7733,
  "lly": 7734,
  "\u2581forty": 7735,
  "\u2581vuelve": 7736,
  "\u2581objects": 7737,
  "\u2581Verde": 7738,
  "\u2581medicamento": 7739,
  "\u2581entendimiento": 7740,
  "\u2581Asian": 7741,
  "\u2581Ed": 7742,
  "\u2581fit": 7743,
  "\u2581Tour": 7744,
  "/59/": 7745,
  "\u2581contributed": 7746,
  "\u2581heat": 7747,
  "\u2581Kong": 7748,
  "\u2581organizada": 7749,
  "-19": 7750,
  "\u2581dimensi\u00f3n": 7751,
  "sum": 7752,
  "\u2581segundos": 7753,
  "\u2581teams": 7754,
  "\u2581avi\u00f3n": 7755,
  "\u2581cristianos": 7756,
  "\u2581Hong": 7757,
  "\u2581impuesto": 7758,
  "\u2581corta": 7759,
  "\u2581Reverse": 7760,
  "\u2581Cre": 7761,
  "\u2581Denmark": 7762,
  "\u2581suffered": 7763,
  "\u2581mencionados": 7764,
  "\u2581organs": 7765,
  "\u2581totalidad": 7766,
  "\u2581multilaterales": 7767,
  "\u2581conjuntamente": 7768,
  "\u2581pr\u00e9stamos": 7769,
  "\u2581resort": 7770,
  "\u2581amending": 7771,
  "\u2581votes": 7772,
  "\u2581VIII": 7773,
  "\u2581moderno": 7774,
  "\u2581cient\u00edfica": 7775,
  "\u2581m\u00ednima": 7776,
  "\u2581Among": 7777,
  "IM": 7778,
  "c\u00f3": 7779,
  "\u2581stations": 7780,
  "\u2581telephone": 7781,
  "\u2581waters": 7782,
  "work": 7783,
  "\u2581tuvieron": 7784,
  "\u2581Ay": 7785,
  "\u2581actitud": 7786,
  "\u2581Market": 7787,
  "\u2581Discriminaci\u00f3n": 7788,
  "cri": 7789,
  "\u2581gain": 7790,
  "7%": 7791,
  "lum": 7792,
  "\u2581Sure": 7793,
  "\u2581ordenaci\u00f3n": 7794,
  "\u2581bedrooms": 7795,
  "\u2581arrived": 7796,
  "\u2581atmosphere": 7797,
  "\u2581worse": 7798,
  "\u2581Ger": 7799,
  "\u2581civilians": 7800,
  "\u2581mejoras": 7801,
  "\u2581increases": 7802,
  "\u2581Name": 7803,
  "istic": 7804,
  "\u2581secreto": 7805,
  "\u2581wear": 7806,
  "\u2581gross": 7807,
  "\u2581completion": 7808,
  "\u2581firmado": 7809,
  "\u2581handle": 7810,
  "\u2581timely": 7811,
  "lus": 7812,
  "\u2581Otro": 7813,
  "\u2581instructions": 7814,
  "\u2581Line": 7815,
  "\u2581sixty": 7816,
  "\u2581forum": 7817,
  "\u2581caliente": 7818,
  "\u2581Econ\u00f3micos": 7819,
  "\u2581straight": 7820,
  "\u2581accompanied": 7821,
  "\u2581highlighted": 7822,
  "\u2581afectan": 7823,
  "\u2581transformaci\u00f3n": 7824,
  "\u2581stone": 7825,
  "\u2581applies": 7826,
  "\u2581concretos": 7827,
  "\u2581catch": 7828,
  "\u258183": 7829,
  "tribu": 7830,
  "\u2581contenidos": 7831,
  "\u2581adelantados": 7832,
  "\u2581Espero": 7833,
  "\u25813:": 7834,
  "\u2581joy": 7835,
  "\u2581kinds": 7836,
  "\u25811970": 7837,
  "\u2581widely": 7838,
  "\u2581operate": 7839,
  "\u2581Disarmament": 7840,
  "\u2581associations": 7841,
  "\u2581attached": 7842,
  "\u2581Login": 7843,
  "\u2581Tre": 7844,
  "://": 7845,
  "CT": 7846,
  "\u2581determination": 7847,
  "\u2581verse": 7848,
  "\u2581solid": 7849,
  "\u2581filled": 7850,
  "\u2581farmers": 7851,
  "\u2581Navidad": 7852,
  "\u2581libres": 7853,
  "\u2581mark": 7854,
  "\u2581desa": 7855,
  "\u2581governing": 7856,
  "\u2581therapy": 7857,
  "AB": 7858,
  "\u2581concluir": 7859,
  "Yo": 7860,
  "\u2581notas": 7861,
  "\u2581declar\u00f3": 7862,
  "\u2581cuentan": 7863,
  "\u2581metas": 7864,
  "\u258174": 7865,
  "\u2581secundaria": 7866,
  "Mar": 7867,
  "\u2581positiva": 7868,
  "\u2581dar\u00e1": 7869,
  "ight": 7870,
  "\u2581discover": 7871,
  "\u2581undertaking": 7872,
  "ane": 7873,
  "\u2581Love": 7874,
  "\u2581Team": 7875,
  "\u2581recomend\u00f3": 7876,
  "\u2581muestran": 7877,
  "\u2581Senegal": 7878,
  "\u2581viviendas": 7879,
  "\u2581booking": 7880,
  "\u2581tr\u00e1nsito": 7881,
  "\u2581abre": 7882,
  "\u2581MA": 7883,
  "\u2581leaves": 7884,
  "\u2581aportar": 7885,
  "\u2581ended": 7886,
  "\u2581beat": 7887,
  "\u2581mirar": 7888,
  "\u2581realiz\u00f3": 7889,
  "\u2581guaranteed": 7890,
  "\u2581encargados": 7891,
  "\u2581happening": 7892,
  "ENT": 7893,
  "\u2581aumentado": 7894,
  "\u2581situated": 7895,
  "mun": 7896,
  "\u2581comunitarios": 7897,
  "\u2581apenas": 7898,
  "\u2581valid": 7899,
  "\u2581raza": 7900,
  "\u2581110": 7901,
  "\u2581karaoke": 7902,
  "\u2581Chipre": 7903,
  "\u2581Chair": 7904,
  "\u2581conformity": 7905,
  "\u2581IS": 7906,
  "\u2581architecture": 7907,
  "\u2581invite": 7908,
  "OP": 7909,
  "gg": 7910,
  "\u2581alleged": 7911,
  "\u2581burden": 7912,
  "\u2581arquitectura": 7913,
  "\u2581operacionales": 7914,
  "MP": 7915,
  "\u2581delincuencia": 7916,
  "\u2581villas": 7917,
  "ele": 7918,
  "\u2581dignidad": 7919,
  "\u2581intento": 7920,
  "\u2581cu\u00e1l": 7921,
  "\u2581detenidos": 7922,
  "\u2581Letter": 7923,
  "vel": 7924,
  "\u2581minuto": 7925,
  "\u2581limitado": 7926,
  "act": 7927,
  "\u2581Wednesday": 7928,
  "\u2581till": 7929,
  "\u2581directed": 7930,
  "\u2581subjects": 7931,
  "\u2581res": 7932,
  "\u2581dormitorios": 7933,
  "\u2581ancient": 7934,
  "\u2581visited": 7935,
  "ph": 7936,
  "\u2581qu\u00edmicos": 7937,
  "\u2581meters": 7938,
  "Una": 7939,
  "flu": 7940,
  "\u2581Tar": 7941,
  "\u2581teacher": 7942,
  "\u2581administrativos": 7943,
  "\u2581Safety": 7944,
  "\u2581rapid": 7945,
  "\u2581database": 7946,
  "\u2581Medidas": 7947,
  "\u2581posteriormente": 7948,
  "\u2581Local": 7949,
  "\u2581exclusive": 7950,
  "\u2581Mer": 7951,
  "\u2581malos": 7952,
  "\u25811982": 7953,
  "\u2581comp": 7954,
  "/2006": 7955,
  "\u2581investigations": 7956,
  "ora": 7957,
  "\u2581sitting": 7958,
  "\u2581Fuerza": 7959,
  "\u2581Albania": 7960,
  "\u258100": 7961,
  "\u2581COP": 7962,
  "/58/": 7963,
  "\u2581brothers": 7964,
  "\u2581launch": 7965,
  "\u2581plantea": 7966,
  "\u2581guest": 7967,
  "\u2581investigar": 7968,
  "\u2581combating": 7969,
  "\u2581Facultativo": 7970,
  "\u2581Jordan": 7971,
  "\u2581quinto": 7972,
  "\u2581excepto": 7973,
  "\u2581reparaci\u00f3n": 7974,
  "\u2581destinado": 7975,
  "\u2581significado": 7976,
  "\u2581Camp": 7977,
  "\u25811984": 7978,
  "\u2581empresarial": 7979,
  "\u2581register": 7980,
  "gy": 7981,
  "\u2581des": 7982,
  "izado": 7983,
  "\u2581accountability": 7984,
  "\u2581prove": 7985,
  "\u2581Ocean": 7986,
  "\u2581Blue": 7987,
  "\u2581tiendas": 7988,
  "\u2581scene": 7989,
  "\u2581cerebro": 7990,
  "\u2581Quiz\u00e1": 7991,
  "rina": 7992,
  "\u2581covers": 7993,
  "\u2581reto": 7994,
  "\u2581conventions": 7995,
  "cher": 7996,
  "\u2581pal": 7997,
  "\u2581dia": 7998,
  "\u2581Deja": 7999,
  "4)": 8000,
  "\u2581detalle": 8001,
  "\u2581Bor": 8002,
  "\u2581limitaciones": 8003,
  "zer": 8004,
  "\u2581desechos": 8005,
  "\u2581Rey": 8006,
  "\u2581Isl\u00e1mica": 8007,
  "\u2581bill": 8008,
  "\u2581bienvenida": 8009,
  "cla": 8010,
  "\u2581Excuse": 8011,
  "entregue": 8012,
  "\u2581penalty": 8013,
  "\u2581habido": 8014,
  "\u00eds": 8015,
  "vie": 8016,
  "bur": 8017,
  "\u2581har\u00eda": 8018,
  "\u00e9s": 8019,
  "\u2581Buy": 8020,
  "\u2581eco": 8021,
  "\u2581calor": 8022,
  "\u2581jam\u00e1s": 8023,
  "Eso": 8024,
  "oma": 8025,
  "\u2581merece": 8026,
  "\u2581bedroom": 8027,
  "ions": 8028,
  "cional": 8029,
  "\u2581Roman": 8030,
  "\u2581putting": 8031,
  "called": 8032,
  "cum": 8033,
  "\u2581estar\u00eda": 8034,
  "\u2581CESE": 8035,
  "izada": 8036,
  "inter": 8037,
  "\u2581informaciones": 8038,
  "6%": 8039,
  "\u2581encanta": 8040,
  "\u2581subparagraph": 8041,
  "\u2581calles": 8042,
  "\u2581presta": 8043,
  "\u2581Distr": 8044,
  "\u2581brings": 8045,
  "\u2581soporte": 8046,
  "\u2581ain": 8047,
  "\u2581minority": 8048,
  "\u2581procede": 8049,
  "\u2581urgente": 8050,
  "\u2581participan": 8051,
  "\u2581deb\u00edan": 8052,
  "\u2581desayuno": 8053,
  "\u2581Final": 8054,
  "\u2581cer": 8055,
  "\u2581jo": 8056,
  "\u2581presentados": 8057,
  "\u2581bu": 8058,
  "rea": 8059,
  "\u2581dignity": 8060,
  "\u2581populations": 8061,
  "\u2581beings": 8062,
  "\u2581Ban": 8063,
  "\u2581Tecnolog\u00eda": 8064,
  "\u2581allocated": 8065,
  "\u2581donors": 8066,
  "\u2581Assistance": 8067,
  "\u2581charged": 8068,
  "\u2581Precio": 8069,
  "\u2581speech": 8070,
  "\u2581impulso": 8071,
  "\u2581deliberaciones": 8072,
  "\u2581pregnant": 8073,
  "\u2581Without": 8074,
  "\u2581cometido": 8075,
  "\u2581quiz\u00e1": 8076,
  "cate": 8077,
  "\u2581movilidad": 8078,
  "\u2581longitud": 8079,
  "\u2581Ref": 8080,
  "\u2581Hospital": 8081,
  "\u2581]": 8082,
  "\u2581Eritrea": 8083,
  "dri": 8084,
  "\u2581Necesito": 8085,
  "idos": 8086,
  "\u2581Jamaica": 8087,
  "\u2581loco": 8088,
  "\u2581Nam": 8089,
  "dro": 8090,
  "\u2581easier": 8091,
  "deliver": 8092,
  "\u2581externa": 8093,
  "\u2581incorporar": 8094,
  "\u2581soldiers": 8095,
  "\u2581Amsterdam": 8096,
  "\u2581Prevenci\u00f3n": 8097,
  "\u2581Ir": 8098,
  "\u2581reply": 8099,
  "\u2581client": 8100,
  "\u2581Hol": 8101,
  "\u2581preventing": 8102,
  "\u2581Diario": 8103,
  "\u2581Art\u00edculos": 8104,
  "\u2581formar": 8105,
  "\u2581convierte": 8106,
  "\u2581legitimate": 8107,
  "\u2581presents": 8108,
  "\u2581aprobar": 8109,
  "\u2581Spa": 8110,
  "\u2581j": 8111,
  "\u2581streets": 8112,
  "\u2581overcome": 8113,
  "\u2581alem\u00e1n": 8114,
  "\u2581Puedo": 8115,
  "\u2581afectadas": 8116,
  "gubernamentales": 8117,
  "\u2581exclusivamente": 8118,
  "\u2581Embajador": 8119,
  "\u2581intellectual": 8120,
  "nea": 8121,
  "\u2581Mike": 8122,
  "od": 8123,
  "\u2581chat": 8124,
  "\u2581Type": 8125,
  "\u2581thereby": 8126,
  "\u2581Road": 8127,
  "CR": 8128,
  "\u2581Products": 8129,
  "\u2581button": 8130,
  "\u2581requieren": 8131,
  "\u2581scheduled": 8132,
  "\u2581encontr\u00f3": 8133,
  "\u2581somebody": 8134,
  "\u2581currency": 8135,
  "uff": 8136,
  "\u2581migrants": 8137,
  "ct": 8138,
  "\u2581consideran": 8139,
  "Car": 8140,
  "\u2581transactions": 8141,
  "ama": 8142,
  "\u2581attended": 8143,
  "\u2581regularly": 8144,
  "\u2581colecci\u00f3n": 8145,
  "As": 8146,
  "\u2581Model": 8147,
  "\u2581banco": 8148,
  "vert": 8149,
  "\u2581internationally": 8150,
  "\u2581v\u00ednculos": 8151,
  "\u2581\u00e1rabe": 8152,
  "tec": 8153,
  "ction": 8154,
  "\u2581transparent": 8155,
  "\u2581ratification": 8156,
  "\u2581assigned": 8157,
  "\u2581estimates": 8158,
  "\u2581sections": 8159,
  "c\u00e9": 8160,
  "\u2581mini": 8161,
  "\u2581assessments": 8162,
  "\u2581oh": 8163,
  "\u2581electricity": 8164,
  "din": 8165,
  "\u2581socios": 8166,
  "ali": 8167,
  "\u2581leads": 8168,
  "IL": 8169,
  "\u2581oficiosas": 8170,
  "ging": 8171,
  "\u2581desempe\u00f1o": 8172,
  "\u2581placer": 8173,
  "\u2581intentar": 8174,
  "\u2581walking": 8175,
  "\u2581Ob": 8176,
  "zu": 8177,
  "\u2581acid": 8178,
  "\u2581collect": 8179,
  "\u2581materias": 8180,
  "AS": 8181,
  "ky": 8182,
  "\u2581Jacob": 8183,
  "\u2581errores": 8184,
  "\u2581competitive": 8185,
  "\u2581Compare": 8186,
  "\u2581spa": 8187,
  "\u2581saved": 8188,
  "\u2581Employment": 8189,
  "\u2581migraci\u00f3n": 8190,
  "gin": 8191,
  "\u2581electricidad": 8192,
  "mont": 8193,
  "\u2581holiday": 8194,
  "\u25812015.": 8195,
  "\u2581Kyoto": 8196,
  "\u2581Rose": 8197,
  "\u2581Resources": 8198,
  "\u2581welfare": 8199,
  "-8": 8200,
  "r\u00e1s": 8201,
  "\u2581evidencia": 8202,
  "cimiento": 8203,
  "\u2581integrada": 8204,
  "\u2581odio": 8205,
  "\u2581Status": 8206,
  "\u2581bot\u00f3n": 8207,
  "\u2581V\u00e9ase": 8208,
  "pl": 8209,
  "bert": 8210,
  "\u2581refers": 8211,
  "\u2581asistir": 8212,
  "\u2581fija": 8213,
  "\u2581Otra": 8214,
  "\u2581observadores": 8215,
  "\u2581intervenciones": 8216,
  "Ho": 8217,
  "\u2581Pueblo": 8218,
  "-7": 8219,
  "gel": 8220,
  "\u2581aparece": 8221,
  "\u2581Joseph": 8222,
  "\u2581Japanese": 8223,
  "\u2581taxi": 8224,
  "\u2581comisiones": 8225,
  "\u2581plus": 8226,
  "\u2581FAO": 8227,
  "mil": 8228,
  "\u2581verificaci\u00f3n": 8229,
  "\u2581hiciste": 8230,
  "\u258126.": 8231,
  "\u2581protecting": 8232,
  "\u2581finish": 8233,
  "\u2581llena": 8234,
  "\u2581elegido": 8235,
  "\u2581Procedure": 8236,
  "\u2581llamadas": 8237,
  "\u2581Far": 8238,
  "ches": 8239,
  "ants": 8240,
  "\u2581emerging": 8241,
  "\u2581(5": 8242,
  "\u2581cerrar": 8243,
  "\u2581despliegue": 8244,
  "\u2581m\u00e1quinas": 8245,
  "\u2581v\u00edas": 8246,
  "\u2581g\u00e9neros": 8247,
  "\u2581Palestine": 8248,
  "\u2581EESC": 8249,
  "\u2581defender": 8250,
  "\u2581Nairobi": 8251,
  "\u2581successfully": 8252,
  "\u2581millions": 8253,
  "\u2581decrease": 8254,
  "\u2581display": 8255,
  "\u2581permitan": 8256,
  "\u2581parcial": 8257,
  "\u2581pleased": 8258,
  "\u2581mortalidad": 8259,
  "\u2581Mexican": 8260,
  "\u2581emphasized": 8261,
  "\u2581translation": 8262,
  "\u2581Subcomisi\u00f3n": 8263,
  "art\u00edculo": 8264,
  "\u2581Multi": 8265,
  "\u2581destroyed": 8266,
  "\u2581proportion": 8267,
  "\u2581comprobar": 8268,
  "\u2581frecuentes": 8269,
  "\u2581university": 8270,
  "\u2581Marruecos": 8271,
  "\u2581normalmente": 8272,
  "\u2581pretende": 8273,
  "\u2581rose": 8274,
  "\u2581vuestro": 8275,
  "\u2581discurso": 8276,
  "plan": 8277,
  "\u2581Hait\u00ed": 8278,
  "\u2581\u2019": 8279,
  "\u2581arising": 8280,
  "\u2581vessels": 8281,
  "GA": 8282,
  "amos": 8283,
  "\u2581opera": 8284,
  "gon": 8285,
  "\u2581profesor": 8286,
  "siderablemente": 8287,
  "ctor": 8288,
  "\u2581maneras": 8289,
  "\u2581recepci\u00f3n": 8290,
  "\u2581Communication": 8291,
  "cord": 8292,
  "af": 8293,
  "\u2581auditor\u00eda": 8294,
  "\u2581\u00f3rdenes": 8295,
  "\u2581800": 8296,
  "\u2581nationality": 8297,
  "\u2581accounting": 8298,
  "\u2581sal\u00f3n": 8299,
  "\u2581viajar": 8300,
  "ef": 8301,
  "\u2581alcanzado": 8302,
  "di\u00f3": 8303,
  "\u2581fen\u00f3meno": 8304,
  "fen": 8305,
  "OJ": 8306,
  "\u2581canci\u00f3n": 8307,
  "\u2581vocational": 8308,
  "\u2581b\u00e1sico": 8309,
  "war": 8310,
  "Ra": 8311,
  "\u2581abuso": 8312,
  "\u2581Language": 8313,
  "\u2581preliminary": 8314,
  "ably": 8315,
  "\u2581prejudice": 8316,
  "\u2581Valencia": 8317,
  "\u2581unity": 8318,
  "\u2581formulario": 8319,
  "\u2581dif\u00edciles": 8320,
  "\u2581candidate": 8321,
  "\u2581careful": 8322,
  "\u2581crimen": 8323,
  "\u2581province": 8324,
  "An": 8325,
  "\u2581tome": 8326,
  "\u2581encourages": 8327,
  "\u2581Breta\u00f1a": 8328,
  "\u2581Europcar": 8329,
  "\u25811.2": 8330,
  "\u2581www": 8331,
  "\u2581contactos": 8332,
  "\u2581dijeron": 8333,
  "\u2581copia": 8334,
  "\u2581reclamaciones": 8335,
  "sky": 8336,
  "\u2581broken": 8337,
  "\u2581installation": 8338,
  "ets": 8339,
  "\u2581band": 8340,
  "\u2581marked": 8341,
  "\u2581estar\u00e1n": 8342,
  "\u2581constant": 8343,
  "\u2581replace": 8344,
  ".1.": 8345,
  "\u2581artistas": 8346,
  "\u2581satisfaction": 8347,
  "\u2581Base": 8348,
  "\u2581f\u00edsico": 8349,
  "\u2581poderes": 8350,
  "\u2581relacionada": 8351,
  "\u2581relatively": 8352,
  "So": 8353,
  "\u2581pensamiento": 8354,
  "\u2581Send": 8355,
  "\u25812014.": 8356,
  "\u2581estatuto": 8357,
  "\u2581willing": 8358,
  "serv": 8359,
  "\u2581topics": 8360,
  "\u2581appeared": 8361,
  "\u2581Medical": 8362,
  "dad": 8363,
  "\u2581trend": 8364,
  "\u2581cur": 8365,
  "\u2581pop": 8366,
  "\u2581asumir": 8367,
  "\u2581arena": 8368,
  "\u2581resistance": 8369,
  "\u2581Morocco": 8370,
  "\u2581heading": 8371,
  "\u2581serving": 8372,
  "\u2581involve": 8373,
  "\u2581vender": 8374,
  "\u2581ru": 8375,
  "everal": 8376,
  "\u2581metro": 8377,
  "\u2581distributed": 8378,
  "\u2581ninguno": 8379,
  "\u2581fifth": 8380,
  "chu": 8381,
  "antes": 8382,
  "\u2581exposure": 8383,
  "NO": 8384,
  "\u2581marcas": 8385,
  "\u2581manifiesto": 8386,
  "\u2581apropiado": 8387,
  "dal": 8388,
  "\u2581carbon": 8389,
  "\u2581deployment": 8390,
  "\u2581Quiz\u00e1s": 8391,
  "\u2581hermosa": 8392,
  "\u2581Regulations": 8393,
  "\u2581ge": 8394,
  "\u2581disabled": 8395,
  "\u2581pareja": 8396,
  "\u2581dices": 8397,
  "\u2581suffer": 8398,
  "\u2581Luxembourg": 8399,
  "\u2581apartments": 8400,
  "bio": 8401,
  "\u2581Esos": 8402,
  "wide": 8403,
  "\u2581viernes": 8404,
  "\u2581Shi": 8405,
  "\u2581Bush": 8406,
  "mark": 8407,
  "\u2581judgment": 8408,
  "\u2581commission": 8409,
  "\u2581derivados": 8410,
  "\u2581Rule": 8411,
  "\u2581\u00edndole": 8412,
  "\u2581reserve": 8413,
  "\u2581fabricante": 8414,
  "\u2581C\u00e1mara": 8415,
  "Cu\u00e1ndo": 8416,
  "\u2581departamento": 8417,
  "\u2581reservar": 8418,
  "cor": 8419,
  "ular": 8420,
  "tine": 8421,
  "\u2581(2001)": 8422,
  "SS": 8423,
  "enda": 8424,
  "\u2581exception": 8425,
  "\u2581enhancing": 8426,
  "\u2581convertir": 8427,
  "\u2581transmission": 8428,
  "\u2581Standard": 8429,
  "\u2581urged": 8430,
  "\u2581Fiscal": 8431,
  "Ya": 8432,
  "jan": 8433,
  "\u2581stable": 8434,
  "\u2581valuable": 8435,
  "ever": 8436,
  "ok": 8437,
  "\u2581enviado": 8438,
  "\u2581vuelto": 8439,
  "\u2581sujetos": 8440,
  "\u2581adopt\u00f3": 8441,
  "\u2581historic": 8442,
  "\u2581Debemos": 8443,
  "\u2581maintaining": 8444,
  "\u2581registros": 8445,
  "\u2581hire": 8446,
  "resoluci\u00f3n": 8447,
  "\u2581Lake": 8448,
  "\u2581incorporaci\u00f3n": 8449,
  "\u2581frequently": 8450,
  "\u2581capaces": 8451,
  "\u2581incorporated": 8452,
  "\u2581Territory": 8453,
  "\u2581campa\u00f1as": 8454,
  "\u2581Joe": 8455,
  "\u2581count": 8456,
  "\u2581publicidad": 8457,
  "\u2581Krishna": 8458,
  "fil": 8459,
  "\u2581realizan": 8460,
  "\u2581applying": 8461,
  "jar": 8462,
  "mber": 8463,
  "ika": 8464,
  "\u2581Esas": 8465,
  "\u2581deseos": 8466,
  "tte": 8467,
  "\u2581Bro": 8468,
  "\u25811.1": 8469,
  "\u2581encouraging": 8470,
  "\u2581drawing": 8471,
  "\u2581distrito": 8472,
  "\u2581Arte": 8473,
  "ib": 8474,
  "\u2581impresi\u00f3n": 8475,
  "\u2581fui": 8476,
  "\u2581Granada": 8477,
  "\u2581Fifth": 8478,
  "\u2581incrementar": 8479,
  "\u2581carefully": 8480,
  "\u2581obstacles": 8481,
  "\u2581revista": 8482,
  "\u2581PA": 8483,
  "\u2581machines": 8484,
  "\u2581il\u00edcito": 8485,
  "eva": 8486,
  "\u2581dominio": 8487,
  "uch": 8488,
  "\u2581coast": 8489,
  "t\u00f3n": 8490,
  "\u2581sexag\u00e9simo": 8491,
  "\u2581aspect": 8492,
  "\u2581Debido": 8493,
  "\u25811990,": 8494,
  "TU": 8495,
  "\u2581abroad": 8496,
  "\u2581descarga": 8497,
  "\u2581intelectual": 8498,
  "\u2581Via": 8499,
  "\u2581designated": 8500,
  "\u2581geographical": 8501,
  "\u2581epi": 8502,
  "\u2581assessed": 8503,
  "\u2581convention": 8504,
  "\u2581traer": 8505,
  "\u2581separado": 8506,
  "\u2581quedan": 8507,
  "\u2581pursue": 8508,
  "\u2581Gold": 8509,
  "\u2581dimension": 8510,
  "Tienes": 8511,
  "ks": 8512,
  "bia": 8513,
  "\u2581resolve": 8514,
  "\u2581avanzar": 8515,
  "1)": 8516,
  "\u2581administrativa": 8517,
  "\u2581Guerra": 8518,
  "\u2581bilaterales": 8519,
  "\u2581definitiva": 8520,
  "\u2581regla": 8521,
  "\u2581cambiado": 8522,
  "PP": 8523,
  "\u2581Dado": 8524,
  "\u2581hoc": 8525,
  "\u2581Sector": 8526,
  "\u2581tarifas": 8527,
  "UM": 8528,
  "\u2581margen": 8529,
  "\u2581depending": 8530,
  "\u2581olvidar": 8531,
  "\u2581Defensa": 8532,
  "Esta": 8533,
  "\u2581ratificaci\u00f3n": 8534,
  "\u2581Tor": 8535,
  "right": 8536,
  "\u2581destroy": 8537,
  "\u2581funcionario": 8538,
  "\u2581permanentes": 8539,
  "\u2581israel\u00edes": 8540,
  "ising": 8541,
  "ame": 8542,
  "\u2581ads": 8543,
  "\u2581proof": 8544,
  "\u2581incre\u00edble": 8545,
  "\u2581fuertes": 8546,
  "\u2581soft": 8547,
  "\u2581Station": 8548,
  "/61/": 8549,
  "\u00a3": 8550,
  "\u2581Sociedad": 8551,
  "\u2581recruitment": 8552,
  "\u2581advantages": 8553,
  "eros": 8554,
  "\u2581carrito": 8555,
  "\u2581reservations": 8556,
  "\u2581retos": 8557,
  "\u2581Introduction": 8558,
  "\u2581strike": 8559,
  "400": 8560,
  "\u2581alienta": 8561,
  "\u2581Stay": 8562,
  "\u2581kingdom": 8563,
  "\u2581prima": 8564,
  "\u258127.": 8565,
  "\u00d7": 8566,
  "\u2581ponga": 8567,
  "\u2581Cuban": 8568,
  "eur": 8569,
  "\u2581driver": 8570,
  "\u2581browser": 8571,
  "\u2581adjustment": 8572,
  "\u2581Char": 8573,
  "\u2581bottom": 8574,
  "\u2581examined": 8575,
  "FA": 8576,
  "\u2581(4)": 8577,
  "anda": 8578,
  "lis": 8579,
  "ral": 8580,
  "\u2581Britain": 8581,
  "\u2581Deutsch": 8582,
  "\u2581Seguro": 8583,
  "\u2581contrase\u00f1a": 8584,
  "\u2581celebra": 8585,
  "/9": 8586,
  "OM": 8587,
  "\u2581pase": 8588,
  "\u2581schemes": 8589,
  "book": 8590,
  "\u2581Cap\u00edtulo": 8591,
  "\u2581conveniente": 8592,
  "\u2581facility": 8593,
  "\u2581Ministerial": 8594,
  "LO": 8595,
  "\u2581composition": 8596,
  "\u2581relativamente": 8597,
  "\u2581initiated": 8598,
  "\u2581Est\u00e1n": 8599,
  "\u2581formation": 8600,
  "\u2581Everything": 8601,
  "\u2581DVD": 8602,
  "\u258120%": 8603,
  "\u2581battle": 8604,
  "\u2581Yemen": 8605,
  "\u2581Parque": 8606,
[...]
