{"</s>": 0, "<unk>": 1, ".": 2, ",": 3, "'": 4, "\u2581a": 5, "\u2581the": 6, "\u2581de": 7, "?": 8, "s": 9, "\u2581I": 10, "\u2581la": 11, "\u2581que": 12, "\u2581to": 13, "\u2581-": 14, "\u2581you": 15, "\u2581el": 16, "\u2581of": 17, "\u2581i": 18, "-": 19, "\u2581and": 20, "\u2581no": 21, "t": 22, "!": 23, "\u2581d": 24, "\u2581per": 25, "\u2581in": 26, "\u2581en": 27, "...": 28, "\u2581un": 29, "\u2581l": 30, "\u2581No": 31, "\u2581is": 32, "\u2581that": 33, "\u2581it": 34, ":": 35, "\u2581una": 36, "\u2581\u00e9s": 37, "\u2581les": 38, "\u2581els": 39, "\u2581del": 40, "\u2581on": 41, "\u2581for": 42, "\u2581\"": 43, "\u2581amb": 44, "\u2581&": 45, "\u2581You": 46, "\u2581be": 47, ";": 48, "m": 49, "\u2581this": 50, "\u2581(": 51, "\u2581va": 52, "\u2581not": 53, "\u2581me": 54, ")": 55, "\u2581ha": 56, "\u2581have": 57, "\u2581es": 58, "\u2581al": 59, "\u2581are": 60, "\u2581with": 61, "\u2581was": 62, "\u2581we": 63, "\u2581he": 64, "\u2581your": 65, "\u2581can": 66, "\u2581The": 67, "\u2581com": 68, "re": 69, "\u2581": 70, "\u2581m\u00e9s": 71, "\u2581s": 72, "\u2581my": 73, "\u2581do": 74, "\u2581El": 75, "\u2581It": 76, "\u2581A": 77, "\u2581know": 78, "\u2581all": 79, "\u2581And": 80, "\u2581what": 81, "\u2581as": 82, "\u2581ho": 83, "\u2581si": 84, "a": 85, "\u2581La": 86, "\u2581will": 87, "\u2581from": 88, "\u2581us": 89, "\u2581at": 90, "\u2581o": 91, "d": 92, "\u2581He": 93, "\u2581fer": 94, "\u2581What": 95, "\u2581one": 96, "\u2581aix\u00f2": 97, "\u2581hi": 98, "\u2581or": 99, "\u2581qu\u00e8": 100, "\u2581about": 101, "\u2581they": 102, "\u2581We": 103, "\u2581just": 104, "\u2581here": 105, "\u2581don": 106, "ing": 107, "\u2581ser": 108, "\u2581like": 109, "n": 110, "\u2581up": 111, "\u2581by": 112, "\u2581out": 113, "ll": 114, "\u2581there": 115, "\u2581Si": 116, "\u2581has": 117, "\u2581an": 118, "\u2581\u00c9s": 119, "\u2581em": 120, "\u2581Per": 121, "\u2581if": 122, "\u2581so": 123, "\u2581but": 124, "\u2581him": 125, "\u2581dels": 126, "\u2581est\u00e0": 127, "/": 128, "\u2581dir": 129, "\u2581tot": 130, ".\"": 131, "ve": 132, "\u2581want": 133, "\u2581get": 134, "en": 135, "\u2581right": 136, "\u2581her": 137, "\u2581aquest": 138, "\u2581per\u00f2": 139, "\u2581S\u00ed": 140, "\u2581Qu\u00e8": 141, "\u2581aqu\u00ed": 142, "\u00b7": 143, "\u2581cap": 144, "\u2581This": 145, "\u2581aquesta": 146, "\u2581his": 147, "\u2581b\u00e9": 148, "\u2581molt": 149, "\u2581L": 150, "\u2581them": 151, "ho": 152, "y": 153, "\u2581'": 154, "\u2581go": 155, "\u2581vaig": 156, "\u2581meu": 157, "\u2581m": 158, "\u25811": 159, "\u2581think": 160, "\u2581tu": 161, "\u2581But": 162, "\u2581So": 163, "r": 164, "\u2581need": 165, "\u2581Per\u00f2": 166, "\u2581time": 167, "\u2581seu": 168, "\u2581S": 169, "ed": 170, "\u2581That": 171, "\u2581she": 172, "\u2581Oh": 173, "\u2581pot": 174, "\u2581et": 175, "\u2581see": 176, "\u2581when": 177, "es": 178, "\u2581were": 179, "\u2581now": 180, "\u2581En": 181, "\u2581sobre": 182, "\u2581name": 183, "\u2581had": 184, "\u2581quan": 185, "\u2581would": 186, "\u2581been": 187, "\u2581got": 188, "\"": 189, "\u2581more": 190, "\u2581If": 191, "\u2581#": 192, "\u2581seva": 193, "\u2581who": 194, "\u2581going": 195, "\u2581jo": 196, "\u2581t": 197, "\u2581cosa": 198, "i": 199, "\u2581meva": 200, "me": 201, "\u2581back": 202, "\u2581s\u00f3n": 203, "\u2581li": 204, "\u2581our": 205, "\u2581veure": 206, "\u2581Els": 207, "o": 208, "\u2581Un": 209, "%": 210, "te": 211, "ha": 212, "\u2581era": 213, "\u2581some": 214, "\u2581Aix\u00f2": 215, "\u2581people": 216, "\u2581des": 217, "\u2581D": 218, "\u2581They": 219, "l": 220, "\u2581could": 221, "\u2581ara": 222, "\u2581res": 223, "\u2581did": 224, "\u2581fet": 225, "\u2581Com": 226, "\u2581any": 227, "\u2581ens": 228, "\u2581van": 229, "\u2581how": 230, "\u2581only": 231, "\u2581Yeah": 232, "\u2581their": 233, "\u2581Well": 234, "e": 235, "\u2581then": 236, "\u2581good": 237, "\u2581estat": 238, "\u2581%1": 239, "\u2581als": 240, "\u2581part": 241, "\u2581which": 242, "la": 243, "\u2581down": 244, "_": 245, "\u2581There": 246, "\u2581tots": 247, "\u2581way": 248, "\u2581Ho": 249, "\u2581M": 250, "\u2581nom\u00e9s": 251, "hi": 252, "\u2581ja": 253, "\u2581mi": 254, "\u2581home": 255, "\u2581said": 256, "\u2581De": 257, "\u2581into": 258, "\u2581fa": 259, "\u2581make": 260, "\u2581B\u00e9": 261, "\u2581does": 262, "se": 263, "\u2581Em": 264, "\u2581other": 265, "\u2581fitxer": 266, "--": 267, "un": 268, "in": 269, "\u2581take": 270, "\u2581temps": 271, "\u2581say": 272, "\u2581She": 273, "\u2581...": 274, "I": 275, "\u2581Do": 276, "\u2581should": 277, "\u2581file": 278, "\u2581over": 279, "\u2581very": 280, "\u2581man": 281, "em": 282, "\u2581perqu\u00e8": 283, "\u2581come": 284, "\u2581--": 285, "\u2581Hi": 286, "\u2581tan": 287, "\u2581teu": 288, "\u2581How": 289, "S": 290, "\u2581something": 291, "\u2581se": 292, "\u2581two": 293, "\u2581tamb\u00e9": 294, "nt": 295, "\u2581pel": 296, "\u2581In": 297, "\u2581Yes": 298, "\u2581new": 299, "\u2581text": 300, "\u2581T": 301, "\u2581s\u00e9": 302, "\u2581gonna": 303, "\u2581t\u00e9": 304, "\u2581these": 305, "\u2581sense": 306, "\u2581Jo": 307, "\u2581where": 308, "\u2581than": 309, "u": 310, "er": 311, "\u2581n": 312, "acord": 313, "c": 314, ",\"": 315, "\u2581really": 316, "\u2581Les": 317, "\u2581fins": 318, "da": 319, "\u2581first": 320, "\u2581gent": 321, "li": 322, "\u2581Ja": 323, "\u2581han": 324, "\u2581aix\u00ed": 325, "\u2581kgm": 326, "\u2581dos": 327, "\u25812": 328, "\u2581little": 329, "\u2581mateix": 330, "\u2581despr\u00e9s": 331, "\u2581dia": 332, "\u2581manera": 333, "@": 334, "\u2581never": 335, "\u2581didn": 336, "\u2581ell": 337, "\u2581Es": 338, "\u2581teva": 339, "\u2581puc": 340, "\u2581All": 341, "\u2581too": 342, "\u2581tell": 343, "\u2581use": 344, "\u2581because": 345, "\u2581anys": 346, "\u2581find": 347, "\u2581lloc": 348, "\u2581qui": 349, "lo": 350, "\u00e0": 351, "\u2581Una": 352, "\u2581nom": 353, "\u2581casa": 354, "\u2581kde": 355, "\u2581look": 356, "\u2581let": 357, "\u2581havia": 358, "\u2581moment": 359, "\u2581Now": 360, "\u2581Why": 361, "\u2581much": 362, "ly": 363, "\u2581off": 364, "ia": 365, "\u2581color": 366, "\u2581coses": 367, "ment": 368, "va": 369, "\u2581Ara": 370, "\u2581thing": 371, "\u2581My": 372, "\u2581vida": 373, "\u2581Aix\u00ed": 374, "\u2581mai": 375, "\u2581gran": 376, "Name": 377, "\u2581must": 378, "\u2581cada": 379, "\u2581Aquest": 380, "\u2581Ha": 381, "\u2581To": 382, "\u2581work": 383, "\u2581alguna": 384, "an": 385, "\u2581Va": 386, "\u2581am": 387, "x": 388, "\u2581On": 389, "A": 390, "una": 391, "\u2581/": 392, "\u2581Que": 393, "\u2581Quan": 394, "\u2581used": 395, "\u2581before": 396, "\u2581vas": 397, "\u2581Nom\u00e9s": 398, "\u2581Your": 399, "\u2581anar": 400, "\u2581well": 401, "he": 402, "\u2581Hey": 403, "al": 404, "\u2581even": 405, "\u2581after": 406, "\u2581nou": 407, "\u2581tenir": 408, "\u2581help": 409, "\u2581vegada": 410, "\u2581abans": 411, "\u2581day": 412, "\u2581life": 413, "\u2581s\u00f3c": 414, "\u2581Let": 415, "\u2581Aquesta": 416, "\u2581Come": 417, "\u2581again": 418, "\u2581tipus": 419, "\u2581doing": 420, "\u2581still": 421, "ar": 422, "\u2581cartes": 423, "\u2581things": 424, "\u2581world": 425, "\u2581also": 426, "\u2581hem": 427, "\u2581dit": 428, "\u2581seus": 429, "\u2581poden": 430, "\u2581K": 431, "\u2581encara": 432, "\u2581tant": 433, "\u2581entre": 434, "\u2581pare": 435, "\u2581years": 436, "\u2581idea": 437, "\u2581sigui": 438, "\u2581mean": 439, "\u2581When": 440, "\u2581O": 441, "\u2581set": 442, "\u2581why": 443, "\u2581ets": 444, "\u2581left": 445, "\u2581altres": 446, "\u2581Don": 447, "\u2581vol": 448, "\u2581Gr\u00e0cies": 449, "\u2581last": 450, "\u2581nit": 451, "\u2581same": 452, "\u2581millor": 453, "\u2581ella": 454, "optional": 455, "\u2581m\u00f3n": 456, "\u2581those": 457, "\u2581Okay": 458, "\u2581totes": 459, "\u2581mica": 460, "\u2581Not": 461, "\u2581vull": 462, "eu": 463, "\u2581possible": 464, "\u2581parlar": 465, "\u2581many": 466, "\u2581\u266a": 467, "\u2581fitxers": 468, "\u2581trobar": 469, "\u2581piles": 470, "b": 471, "\u2581estan": 472, "\u2581give": 473, "\u2581Mr": 474, "\u2581tinc": 475, "\u2581C": 476, "\u2581podeu": 477, "\u2581base": 478, "\u2581love": 479, "\u2581long": 480, "\u2581through": 481, "\u2581ni": 482, "\u2581sure": 483, "\u2581sempre": 484, "\u2581card": 485, "\u2581may": 486, "des": 487, "\u2581made": 488, "p": 489, "\u2581dades": 490, "\u2581plau": 491, "\u2581passa": 492, "\u2581altre": 493, "\u2581senyor": 494, "\u2581altra": 495, "\u2581llista": 496, "D": 497, "\u2581estic": 498, "\u2581s\u00ed": 499, "\u2581Where": 500, "\u2581nosaltres": 501, "\u2581qualsevol": 502, "\u2581D\u00e9u": 503, "\u2581donar": 504, "\u2581pila": 505, "\u2581found": 506, "\u2581thought": 507, "\u2581cop": 508, "\u2581away": 509, "\u2581Please": 510, "3": 511, "\u25813": 512, "\u2581Et": 513, "\u2581Just": 514, "\u2581each": 515, "\u2581carta": 516, "\u2581important": 517, "\u2581tres": 518, "\u2581put": 519, "\u2581talk": 520, "\u2581translation": 521, "\u2581estava": 522, "\u2581being": 523, "or": 524, "\u2581Hola": 525, "\u2581always": 526, "\u2581place": 527, "\u2581Vaig": 528, "\u2581anything": 529, "\u2581Are": 530, "\u2581own": 531, "\u2581three": 532, "\u2581data": 533, "\u2581pots": 534, "\u2581dona": 535, "\u2581tornar": 536, "\u2581haver": 537, "on": 538, "\u2581%": 539, "\u2581@": 540, "\u2581For": 541, "\u2581God": 542, "C": 543, "\u2581col": 544, "\u2581might": 545, "\u2581another": 546, "\u2581Thank": 547, "\u2581punt": 548, "\u2581*": 549, "\u2581most": 550, "\u2581pogut": 551, "\u2581its": 552, "\u2581around": 553, "\u2581sap": 554, "\u2581start": 555, "\u2581mare": 556, "?\"": 557, "\u2581files": 558, "\u2581call": 559, "\u2581done": 560, "\u2581list": 561, "\u2581vostre": 562, "\u2581night": 563, "\u2581veritat": 564, "\u2581alg\u00fa": 565, "\u2581primer": 566, "\u2581estar": 567, "\u2581vols": 568, "\u2581cards": 569, "\u2581every": 570, "\u2581fora": 571, "\u2581better": 572, "\u2581number": 573, "\u2581Est\u00e0": 574, "\u2581mort": 575, "\u2581Al": 576, "\u2581sorry": 577, "\u2581KDE": 578, "\u2581Tu": 579, "at": 580, "\u2581Go": 581, "\u2581Mostra": 582, "T": 583, "\u2581probabl": 584, "2": 585, "\u2581document": 586, "\u2581ever": 587, "\u2581old": 588, "\u2581told": 589, "\u2581Has": 590, "\u2581won": 591, "\u2581next": 592, "\u2581sistema": 593, "\u2581New": 594, "\u2581Who": 595, "\u2581okay": 596, "\u2581real": 597, "\u2581aquests": 598, "\u2581passat": 599, "\u2581deixar": 600, "\u2581re": 601, "\u2581vist": 602, "han": 603, "\u2581diu": 604, "\u2581porta": 605, "\u2581[": 606, "\u2581B": 607, "\u2581passar": 608, "\u2581podria": 609, "\u2581tenim": 610, "\u2581error": 611, "\u2581window": 612, "\u2581tota": 613, "\u2581kind": 614, "City": 615, "\u2581hauria": 616, "\u2581fill": 617, "\u2581course": 618, "\u2581lot": 619, "\u2581nothing": 620, "\u2581all\u00e0": 621, "\u2581crec": 622, "k": 623, "\u2581ser\u00e0": 624, "\u2581informaci\u00f3": 625, "\u2581sembla": 626, "\u2581Tot": 627, "\u2581durant": 628, "\u2581father": 629, "\u2581nostre": 630, "\u2581son": 631, "\u2581keep": 632, "\u2581Potser": 633, "\u2581podem": 634, "\u2581different": 635, "\u2581Qui": 636, "\u2581tens": 637, "\u2581open": 638, ":%": 639, "\u2581came": 640, "\u2581Can": 641, "\u2581seves": 642, "\u2581saps": 643, "\u2581P": 644, "\u2581saber": 645, "de": 646, "\u2581fent": 647, "\u2581change": 648, "\u2581est\u00e0s": 649, "\u2581aquestes": 650, "\u2581comen\u00e7ar": 651, "nos": 652, "\u2581great": 653, "\u00e9": 654, "]": 655, "\u2581Then": 656, "\u2581information": 657, "\u2581nostres": 658, "\u2581show": 659, "\u2581massa": 660, "\u2581opci\u00f3": 661, "\u2581Li": 662, "\u2581Estic": 663, "\u2581while": 664, "\u2581S\u00f3c": 665, "\u2581understand": 666, "\u2581nostra": 667, "\u258110": 668, "\u2581control": 669, "\u2581such": 670, "\u2581Perqu\u00e8": 671, "\u2581actual": 672, "\u2581move": 673, "\u2581finestra": 674, "\u2581sota": 675, "\u2581F": 676, "\u2581believe": 677, "\u2581already": 678, "\u2581poder": 679, "\u2581l\u00ednia": 680, "el": 681, "\u2581N": 682, "\u2581doesn": 683, "\u2581sento": 684, "to": 685, "\u2581Aqu\u00ed": 686, "P": 687, "\u2581vost\u00e8": 688, "\u2581Good": 689, "\u2581men": 690, "\u2581nova": 691, "\u2581between": 692, "\u2581Show": 693, "\u2581end": 694, "\u2581system": 695, "\u2581dues": 696, "\u2581please": 697, "\u2581everything": 698, "\u2581under": 699, "\u2581without": 700, "\u2581using": 701, "no": 702, "\u2581Get": 703, "\u2581Look": 704, "\u2581One": 705, "\u2581sol": 706, "\u2581Vull": 707, "ne": 708, "\u2581enough": 709, "\u2581potser": 710, "\u2581contra": 711, "\u2581line": 712, "\u2581vostra": 713, "\u2581selected": 714, "\u2581Molt": 715, "\u2581meus": 716, "\u2581cas": 717, "\u2581Tom": 718, "\u2581info": 719, "\u2581dead": 720, "has": 721, "is": 722, "\u2581ning\u00fa": 723, "able": 724, "\u2581actually": 725, "\u2581option": 726, "\u2581As": 727, "\u2581dins": 728, "\u2581tenen": 729, "M": 730, "\u2581voleu": 731, "\u2581Ens": 732, "\u2581feel": 733, "\u2581wanted": 734, "\u2581heu": 735, "B": 736, "\u2581vegades": 737, "\u2581clar": 738, "\u2581vam": 739, "\u2581segur": 740, "\u2581went": 741, "\u2581E": 742, "\u2581face": 743, "\u2581sentit": 744, "\u2581kill": 745, "\u2581web": 746, "\u2581Here": 747, "\u2581imatge": 748, "No": 749, "\u2581cara": 750, "\u2581matar": 751, "\u2581leave": 752, "\u2581X": 753, "\u2581bona": 754, "\u2581feina": 755, "\u2581Sr": 756, "\u2581prou": 757, "\u2581Did": 758, "\u2581Error": 759, "\u2581oi": 760, "\u2581called": 761, "\u2581point": 762, "\u2581tenia": 763, "\u2581button": 764, "\u2581sir": 765, "\u2581principal": 766, "\u2581\u00bf": 767, "*": 768, "los": 769, "\u2581persones": 770, "\u2581trobat": 771, "\u2581pensar": 772, "\u2581File": 773, "les": 774, "\u2581primera": 775, "\u2581type": 776, "\u2581x": 777, "E": 778, "vos": 779, "\u2581happened": 780, "\u2581sort": 781, "\u2581vista": 782, "\u2581money": 783, "\u2581problema": 784, "\u2581forma": 785, "\u2581format": 786, "\u2581Amb": 787, "g": 788, "\u2581final": 789, "\u2581te": 790, "\u2581wrong": 791, "\u25814": 792, "\u2581stop": 793, "\u2581hear": 794, "\u2581posar": 795, "\u2581Llavors": 796, "\u2581looking": 797, "\u2581qual": 798, "\u2581uns": 799, "\u2581ells": 800, "\u2581ask": 801, "\u2581usar": 802, "\u2581homes": 803, "\u2581mal": 804, "\u2581local": 805, "\u2581message": 806, "\u2581G": 807, "\u2581else": 808, "\u2581coming": 809, "\u2581valor": 810, "\u2581sent": 811, "R": 812, "\u2581Hem": 813, "\u2581Crec": 814, "\u2581diners": 815, "\u2581sols": 816, "\u2581together": 817, "\u2581Mira": 818, "\u2581current": 819, "\u2581exemple": 820, "\u2581dies": 821, "\u2581girl": 822, "\u2581user": 823, "\u2581mentre": 824, "\u2581family": 825, "\u2581saw": 826, "\u2581play": 827, "\u2581mode": 828, "\u2581mother": 829, "it": 830, "\u2581Lord": 831, "\u2581p\u00e0gina": 832, "\u2581seen": 833, "th": 834, "\u2581both": 835, "\u2581try": 836, "ven": 837, "\u2581Because": 838, "\u2581Select": 839, "\u2581R": 840, "\u258120": 841, "\u2581carpeta": 842, "\u2581someone": 843, "\u2581key": 844, "ci\u00f3": 845, "\u2581tal": 846, "\u2581guy": 847, "\u2581Ets": 848, "\u2581servidor": 849, "\u2581car": 850, "\u2581cal": 851, "\u2581took": 852, "\u2581canviar": 853, "\u2581llavors": 854, "\u2581sentir": 855, "\u2581compte": 856, "\u2581action": 857, "\u2581value": 858, "\u2581few": 859, "\u2581house": 860, "\u2581treball": 861, "\u2581dialog": 862, "\u2581bit": 863, "\u2581rei": 864, "\u2581top": 865, "ies": 866, "\u2581talking": 867, "Comment": 868, "\u2581Est\u00e0s": 869, "\u2581big": 870, "\u2581remember": 871, "\u2581whole": 872, "\u2581ra\u00f3": 873, "\u2581missatge": 874, "\u2581game": 875, "\u2581di\u00e0leg": 876, "ant": 877, "\u2581head": 878, "F": 879, "\u2581estem": 880, "z": 881, "O": 882, "\u2581Encara": 883, "\u2581trying": 884, "\u2581sortir": 885, "\u2581today": 886, "r\u00e9": 887, "\u2581menu": 888, "\u2581cel": 889, "\u2581Me": 890, "\u2581isn": 891, "\u2581best": 892, "\u2581usuari": 893, "\u2581available": 894, "\u2581image": 895, "\u25815": 896, "\u2581ajudar": 897, "\u2581full": 898, "\u2581once": 899, "\u2581boy": 900, "\u2581superior": 901, "\u2581yourself": 902, "\u2581King": 903, "\u2581case": 904, "\u2581Fa": 905, "\u2581folder": 906, "\u2581hora": 907, "ic": 908, "\u2581year": 909, "\u2581woman": 910, "\u2581bot\u00f3": 911, "\u2581days": 912, "aqu\u00ed": 913, "\u2581bo": 914, "\u2581John": 915, "\u2581room": 916, "ada": 917, "\u2581barra": 918, "\u2581cannot": 919, "\u2581run": 920, "\u2581live": 921, "\u2581guys": 922, "\u2581menys": 923, "f": 924, "\u2581crear": 925, "\u2581four": 926, "\u2581word": 927, "\u2581bon": 928, "\u2581getting": 929, "\u2581Tinc": 930, "\u2581hand": 931, "\u2581job": 932, "\u2581Ei": 933, "\u2581fam\u00edlia": 934, "\u2581Mai": 935, "\u2581pels": 936, "\u2581quatre": 937, "\u2581wasn": 938, "\u2581men\u00fa": 939, "\u2581grup": 940, "4": 941, "\u2581mind": 942, "\u2581stay": 943, "\u2581OF": 944, "\u2581item": 945, "\u2581volia": 946, "\u2581yet": 947, "\u2581dreta": 948, "\u2581tauler": 949, "\u2581mateixa": 950, "\u2581bad": 951, "\u2581fas": 952, "\u2581org": 953, "\u2581clic": 954, "\u2581dones": 955, "\u2581fan": 956, "\u2581camp": 957, "\u2581Vinga": 958, "\u2581correu": 959, "\u2581friend": 960, "\u2581ago": 961, "\u2581Saps": 962, "ta": 963, "\u2581pile": 964, "\u2581problem": 965, "\u2581box": 966, "\u2581care": 967, "\u2581Ell": 968, "\u2581Ctrl": 969, "\u2581killed": 970, "\u2581molts": 971, "v": 972, "\u25811.": 973, "\u2581element": 974, "\u2581means": 975, "\u00e9s": 976, "\u2581costat": 977, "L": 978, "\u2581Move": 979, "\u2581ciutat": 980, "\u2581pas": 981, "\u2581read": 982, "\u2581realment": 983, "\u2581Or": 984, "\u2581hist\u00f2ria": 985, "\u2581Right": 986, "\u2581against": 987, "\u2581font": 988, "as": 989, "\u2581heard": 990, "\u2581Ah": 991, "\u2581country": 992, "\u2581save": 993, "ro": 994, "\u2581page": 995, "\u2581doncs": 996, "\u2581Deixa": 997, "\u2581knew": 998, "\u2581som": 999, "\u2581Maybe": 1000, "\u2581empty": 1001, "\u2581select": 1002, "aquesta": 1003, "\u2581server": 1004, "\u2581started": 1005, "\u2581servir": 1006, "us": 1007, "\u2581portar": 1008, "\u2581joc": 1009, "\u2581until": 1010, "\u2581brother": 1011, "\u2581gr\u00e0cies": 1012, "\u2581check": 1013, "\u2581second": 1014, "\u2581p": 1015, "\u2581pa\u00eds": 1016, "\u2581group": 1017, "\u2581fine": 1018, "\u2581Use": 1019, "os": 1020, "\u2581maybe": 1021, "\u2581An": 1022, "\u2581Anem": 1023, "\u2581e": 1024, "\u2581terra": 1025, "\u2581Color": 1026, "1": 1027, "N": 1028, "\u2581por": 1029, "G": 1030, "\u2581European": 1031, "\u2581times": 1032, "\u2581Re": 1033, "\u2581default": 1034, "man": 1035, "\u2581arribar": 1036, "\u2581far": 1037, "\u2581amic": 1038, "\u2581seg\u00fcent": 1039, "per": 1040, "que": 1041, "\u2581omissi\u00f3": 1042, "\u2581example": 1043, "\u2581germ\u00e0": 1044, "\u2581ben": 1045, "\u2581hell": 1046, "\u2581wait": 1047, "\u2581true": 1048, "\u2581Era": 1049, "\u2581Se": 1050, "ns": 1051, "\u2581http": 1052, "\u2581matter": 1053, "\u2581_": 1054, "K": 1055, "\u2581obrir": 1056, "ra": 1057, "\u2581since": 1058, "\u2581hard": 1059, "\u2581side": 1060, "\u2581veu": 1061, "\u2581Of": 1062, "\u2581women": 1063, "le": 1064, "h": 1065, "\u2581projecte": 1066, "\u2581persona": 1067, "\u2581order": 1068, "\u2581permet": 1069, "aix\u00f2": 1070, "\u2581die": 1071, "\u2581simple": 1072, "\u2581Podeu": 1073, "\u2581policia": 1074, "\u2581morir": 1075, "\u2581At": 1076, "\u2581Us": 1077, "\u2581Could": 1078, "\u2581Tots": 1079, "\u2581view": 1080, "\u2581vostres": 1081, "\u2581menjar": 1082, "\u2581cam\u00ed": 1083, "\u2581paper": 1084, "\u2581caixa": 1085, "ls": 1086, "ts": 1087, "\u2581lo": 1088, "\u2581moure": 1089, "\u2581Tens": 1090, "\u2581Add": 1091, "\u2581Name": 1092, "\u2581configuraci\u00f3": 1093, "\u2581command": 1094, "\u2581URL": 1095, "\u2581five": 1096, "\u2581diferents": 1097, "\u2581programa": 1098, "\u2581venir": 1099, "et": 1100, "\u2581Despr\u00e9s": 1101, "\u2581choose": 1102, "\u2581power": 1103, "\u2581\"%": 1104, "\u2581ordre": 1105, "\u2581Tamb\u00e9": 1106, "co": 1107, "\u2581Hello": 1108, "\u2581noi": 1109, "\u2581gone": 1110, "\u2581eines": 1111, "do": 1112, "\u2581Set": 1113, "\u2581algun": 1114, "\u2581k": 1115, "\u2581cinc": 1116, "\u2581cotxe": 1117, "\u2581wouldn": 1118, "dor": 1119, "ir": 1120, "\u2581able": 1121, "\u2581children": 1122, "\u2581esquerra": 1123, "\u2581Open": 1124, "\u2581myself": 1125, "\u2581title": 1126, "\u2581working": 1127, "\u2581lost": 1128, "\u2581poc": 1129, "\u2581Tableau": 1130, "\u2581petit": 1131, "\u2581Cap": 1132, "ci": 1133, "\u2581instal": 1134, "\u2581nens": 1135, "\u2581create": 1136, "\u2581mail": 1137, "\u2581deb\u00f2": 1138, "\u2581tard": 1139, "\u2581davant": 1140, "\u2581social": 1141, "\\": 1142, "anar": 1143, "\u2581acabat": 1144, "\u2581normal": 1145, "\u2581seria": 1146, "U": 1147, "ri": 1148, "\u2581noia": 1149, "\u2581vosaltres": 1150, "\u2581Have": 1151, "\u2581alguns": 1152, "\u2581greu": 1153, "\u2581free": 1154, "\u2581says": 1155, "\u2581favor": 1156, "ers": 1157, "\u2581Ella": 1158, "\u2581seguretat": 1159, "V": 1160, "\u2581door": 1161, "\u2581avui": 1162, "\u2581imatges": 1163, "\u2581mostra": 1164, "\u2581Text": 1165, "\u2581human": 1166, "\u2581m\u00e0": 1167, "\u2581pal": 1168, "\u2581person": 1169, "agrada": 1170, "\u2581moltes": 1171, "\u2581problemes": 1172, "\u2581morning": 1173, "\u2581Doncs": 1174, "\u2581yeah": 1175, "\u2581mostrar": 1176, "\u2581pretty": 1177, "\u2581>": 1178, "\u2581Settings": 1179, "\u2581teus": 1180, "\u2581%2": 1181, "\u2581dic": 1182, "\u2581ulls": 1183, "\u2581cor": 1184, "!\"": 1185, "haver": 1186, "\u2581given": 1187, "\u2581bring": 1188, "\u2581See": 1189, "\u00e8": 1190, "\u2581Senyor": 1191, "\u2581Uh": 1192, "\u2581resta": 1193, "\u2581Afegeix": 1194, "\u2581business": 1195, "\u2581quite": 1196, "com": 1197, "and": 1198, "\u2581support": 1199, "\u2581space": 1200, "\u2581least": 1201, "\u2581View": 1202, "=": 1203, "\u2581fos": 1204, "\u2581Mou": 1205, "\u2581THE": 1206, "\u2581amics": 1207, "\u2581hope": 1208, "ca": 1209, "\u2581eyes": 1210, "\u2581W": 1211, "\u2581story": 1212, "\u2581With": 1213, "\u2581uh": 1214, "\u2581inside": 1215, "\u2581project": 1216, "\u2581application": 1217, "\u2581diferent": 1218, "\u2581g": 1219, "\u2581cos": 1220, "\u2581front": 1221, "\u2581Internet": 1222, "\u2581fact": 1223, "\u2581nice": 1224, "\u2581guerra": 1225, "ion": 1226, "\u2581missatges": 1227, "\u2581prendre": 1228, "\u2581T\u00e9": 1229, "\u2581asked": 1230, "\u2581probably": 1231, "Laughter": 1232, "aquest": 1233, "\u2581clau": 1234, "\u2581question": 1235, "\u2581sang": 1236, "\u2581war": 1237, "\u2581comes": 1238, "\u2581friends": 1239, "\u2581wife": 1240, "\u2581Seleccioneu": 1241, "\u2581teniu": 1242, "\u2581These": 1243, "\u2581makes": 1244, "\u2581general": 1245, "\u2581built": 1246, "\u2581saying": 1247, "\u2581aplicaci\u00f3": 1248, "\u2581city": 1249, "\u2581General": 1250, "\u2581deu": 1251, "\u2581Dr": 1252, "\u2581language": 1253, "\u2581rest": 1254, "\u2581merda": 1255, "ter": 1256, "\u2581mes": 1257, "\u2581pantalla": 1258, "\u2581tothom": 1259, "\u2581n\u00famero": 1260, "\u2581podia": 1261, "\u2581V": 1262, "\u2581S\u00f3n": 1263, "\u2581jugar": 1264, "\u2581alone": 1265, "\u2581aquell": 1266, "\u2581later": 1267, "\u2581trav\u00e9s": 1268, "\u2581close": 1269, "\u2581ajuda": 1270, "\u2581igual": 1271, "\u2581konqueror": 1272, "\u2581lletra": 1273, "\u2581add": 1274, "\u2581soon": 1275, "\u25810": 1276, "\u2581click": 1277, "\u2581size": 1278, "\u2581small": 1279, "\u2581Edit": 1280, "\u2581Ni": 1281, "\u2581blood": 1282, "\u2581present": 1283, "\u2581dret": 1284, "\u2581thinking": 1285, "\u2581cert": 1286, "\u2581personal": 1287, "ie": 1288, "\u2581water": 1289, "\u2581realitat": 1290, "\u2581mida": 1291, "\u2581quedar": 1292, "\u2581Remove": 1293, "\u2581Vols": 1294, "\u2581ex": 1295, "\u2581light": 1296, "go": 1297, "\u2581nivell": 1298, "\u2581anat": 1299, "\u2581date": 1300, "\u258130": 1301, "\u2581Nom": 1302, "\u2581access": 1303, "\u2581turn": 1304, "\u2581elements": 1305, "w": 1306, "\u2581algunes": 1307, "\u2581ve": 1308, "\u2581tingut": 1309, "\u2581Mary": 1310, "\u2581Stop": 1311, "\u2581paraula": 1312, "X": 1313, "\u2581Take": 1314, "\u2581aviat": 1315, "\u2581police": 1316, "\u2581shit": 1317, "r\u00e0": 1318, "\u2581CD": 1319, "\u2581Be": 1320, "\u2581autom\u00e0ticament": 1321, "\u2581gave": 1322, "\u2581anyone": 1323, "the": 1324, "\u2581entrada": 1325, "home": 1326, "\u2581fi": 1327, "\u2581school": 1328, "\u00ed": 1329, "\u2581become": 1330, "\u2581yes": 1331, "\u2581aconseguir": 1332, "\u2581bar": 1333, "\u2581canvi": 1334, "\u2581child": 1335, "\u2581colors": 1336, "\u2581Des": 1337, "\u2581high": 1338, "ell": 1339, "\u2581couldn": 1340, "\u2581paraules": 1341, "\u2581happen": 1342, "\u2581meet": 1343, "\u2581S\u00e9": 1344, "\u2581body": 1345, "The": 1346, "\u25816": 1347, "\u2581young": 1348, "\u2581hores": 1349, "\u2581ready": 1350, "\u2581search": 1351, "\u2581display": 1352, "\u2581Som": 1353, "\u2581wants": 1354, "\u2581editor": 1355, "\u2581Queen": 1356, "\u2581segons": 1357, "\u2581escriure": 1358, "di": 1359, "\u2581death": 1360, "\u2581half": 1361, "\u2581moved": 1362, "\u2581names": 1363, "W": 1364, "\u2581making": 1365, "\u2581opcions": 1366, "\u2581pre": 1367, "\u2581anem": 1368, "\u2581entrar": 1369, "\u2581eren": 1370, "\u2581fucking": 1371, "\u2581nombre": 1372, "\u2581client": 1373, "\u2581company": 1374, "\u2581llum": 1375, "\u2581having": 1376, "\u2581Sempre": 1377, "\u2581needs": 1378, "\u2581grans": 1379, "\u2581deal": 1380, "\u2581majoria": 1381, "il": 1382, "\u2581running": 1383, "\u2581speak": 1384, "\u2581unes": 1385, "\u2581model": 1386, "\u2581heart": 1387, "\u2581Obre": 1388, "LA": 1389, "\u25818": 1390, "\u2581Ben": 1391, "\u2581either": 1392, "\u2581Escolta": 1393, "\u2581for\u00e7a": 1394, "\u2581state": 1395, "5": 1396, "\u2581banda": 1397, "\u2581sabia": 1398, "\u2581Sorry": 1399, "\u2581U": 1400, "\u2581dur": 1401, "cions": 1402, "\u2581Fins": 1403, "\u2581address": 1404, "\u2581amunt": 1405, "\u2581prop": 1406, "\u258115": 1407, "\u2581setmana": 1408, "\u258112": 1409, "\u2581book": 1410, "\u2581demanar": 1411, "\u2581minuts": 1412, "\u2581everyone": 1413, "\u2581sin\u00f3": 1414, "\u2581haven": 1415, "\u2581words": 1416, "\u2581Quina": 1417, "\u2581settings": 1418, "\u2581program": 1419, "up": 1420, "\u2581Puc": 1421, "\u2581enter": 1422, "\u2581mirar": 1423, "H": 1424, "\u2581govern": 1425, "\u2581minutes": 1426, "\u2581level": 1427, "\u2581suit": 1428, "\u2581wish": 1429, "\u2581fallat": 1430, "\u2581Z": 1431, "\u2581pla": 1432, "\u2581taking": 1433, "\u2581Tell": 1434, "\u2581gaire": 1435, "\u2581seleccionat": 1436, "\u2581filla": 1437, "\u2581hours": 1438, "\u2581quin": 1439, "\u2581fight": 1440, "\u2581fons": 1441, "\u2581hagi": 1442, "\u2581Wait": 1443, "\u2581feu": 1444, "\u2581$": 1445, "\u2581Some": 1446, "\u2581baby": 1447, "\u2581dif\u00edcil": 1448, "\u2581etc": 1449, "\u2581funci\u00f3": 1450, "\u2581reason": 1451, "\u2581Bret": 1452, "\u2581Sense": 1453, "\u2581Thanks": 1454, "\u2581fem": 1455, "\u2581knows": 1456, "na": 1457, "\u2581Sembla": 1458, "\u2581Res": 1459, "\u2581fuck": 1460, "\u2581f\u00e0cil": 1461, "\u2581mans": 1462, "\u2581hands": 1463, "\u2581happy": 1464, "\u2581Fitxer": 1465, "si": 1466, "ul": 1467, "\u2581enviar": 1468, "\u2581news": 1469, "\u2581messages": 1470, "\u2581vingut": 1471, "\u2581nen": 1472, "\u2581Espera": 1473, "\u2581hold": 1474, "\u2581nois": 1475, "\u2581single": 1476, "\u2581suport": 1477, "\u2581milions": 1478, "\u2581punts": 1479, "\u2581llegir": 1480, "\u2581pregunta": 1481, "\u2581Global": 1482, "\u2581easy": 1483, "altre": 1484, "\u2581phone": 1485, "\u2581Cada": 1486, "\u2581Edita": 1487, "\u2581himself": 1488, "\u2581original": 1489, "\u2581send": 1490, "ch": 1491, "\u2581xarxa": 1492, "\u2581guess": 1493, "ma": 1494, "\u2581process": 1495, "any": 1496, "est": 1497, "\u2581answer": 1498, "\u2581secret": 1499, "\u2581taula": 1500, "est\u00e0": 1501, "\u2581afegir": 1502, "\u2581changes": 1503, "\u2581treure": 1504, "gt": 1505, "\u2581dius": 1506, "\u2581fills": 1507, "\u2581H": 1508, "\u2581field": 1509, "\u2581write": 1510, "agradaria": 1511, "\u2581Ma": 1512, "\u2581haur\u00e0": 1513, "\u2581treballar": 1514, "\u2581following": 1515, "\u2581share": 1516, "\u2581mantenir": 1517, "\u2581outside": 1518, "\u2581By": 1519, "\u2581Van": 1520, "\u2581whether": 1521, "\u2581cursor": 1522, "\u2581His": 1523, "\u2581behind": 1524, "\u2581esteu": 1525, "\u2581Quin": 1526, "\u2581senyora": 1527, "\u2581HTML": 1528, "\u2581proc\u00e9s": 1529, "ad": 1530, "\u2581Save": 1531, "\u2581Elimina": 1532, "\u2581c": 1533, "\u2581J": 1534, "\u2581mat\u00ed": 1535, "\u2581~": 1536, "Y": 1537, "\u2581Oliver": 1538, "\u2581petita": 1539, "\u2581taken": 1540, "\u2581though": 1541, "ja": 1542, "\u2581codi": 1543, "\u2581lliure": 1544, "\u2581configuration": 1545, "\u2581six": 1546, "\u2581Facebook": 1547, "\u2581media": 1548, "ran": 1549, "\u2581tema": 1550, "\u25817": 1551, "\u2581Foundation": 1552, "\u2581From": 1553, "\u2581r\u00e0pid": 1554, "\u2581faig": 1555, "\u2581week": 1556, "\u2581Like": 1557, "\u2581disponible": 1558, "\u2581far\u00e0": 1559, "\u2581segon": 1560, "+": 1561, "\u2581sis": 1562, "\u2581viu": 1563, "\u2581100": 1564, "\u2581Ser": 1565, "\u2581creure": 1566, "\u2581exactly": 1567, "\u2581cell": 1568, "\u2581major": 1569, "\u2581sub": 1570, "\u2581Stark": 1571, "\u2581viure": 1572, "\u2581ordres": 1573, "\u2581past": 1574, "\u2581veig": 1575, "\u2581Configura": 1576, "\u25819": 1577, "\u2581construir": 1578, "\u2581trust": 1579, "\u2581others": 1580, "\u2581con\u00e8ixer": 1581, "\u2581report": 1582, "\u2581Enter": 1583, "\u2581almost": 1584, "\u2581Configure": 1585, "\u2581government": 1586, "\u2581late": 1587, "\u2581fire": 1588, "\u2581looks": 1589, "ur": 1590, "\u2581TRANS": 1591, "\u2581desar": 1592, "\u2581far\u00e9": 1593, "\u2581perdre": 1594, "\u2581Nova": 1595, "\u2581thank": 1596, "\u2581Check": 1597, "\u2581Tenim": 1598, "\u2581public": 1599, "\u2581safe": 1600, "\u2581tab": 1601, "qui": 1602, "\u2581function": 1603, "\u2581mena": 1604, "\u2581tried": 1605, "havia": 1606, "\u2581pay": 1607, "\u2581perdut": 1608, "\u2581After": 1609, "\u2581Only": 1610, "\u2581daughter": 1611, "\u2581buscar": 1612, "ria": 1613, "\u2581()": 1614, "\u2581future": 1615, "\u2581goes": 1616, "\u2581mig": 1617, "\u2581Cards": 1618, "\u2581turned": 1619, "\u2581collons": 1620, "\u2581lives": 1621, "\u2581Vas": 1622, "\u2581canvis": 1623, "TORS": 1624, "\u2581mesos": 1625, "\u2581=": 1626, "\u2581poble": 1627, "\u2581voltant": 1628, "\u2581!": 1629, "\u2581junts": 1630, "\u2581president": 1631, "\u2581puta": 1632, "ce": 1633, "\u2581plan": 1634, "\u2581kids": 1635, "am": 1636, "\u2581espai": 1637, "\u2581stuff": 1638, "ien": 1639, "\u2581truth": 1640, "\u2581ma": 1641, "\u2581necessita": 1642, "\u2581alive": 1643, "\u2581along": 1644, "\u2581d\u00f2lars": 1645, "\u2581creus": 1646, "\u2581pugui": 1647, "\u2581sabem": 1648, "\u2581sortida": 1649, "\u2581within": 1650, "\u258150": 1651, "\u2581position": 1652, "\"?": 1653, "\u2581quant": 1654, "\u2581Image": 1655, "\u2581longer": 1656, "\u2581units": 1657, "\u2581V\u00e9s": 1658, "\u2581Jack": 1659, "\u2581shall": 1660, "\u2581usant": 1661, "\u2581Data": 1662, "\u2581chance": 1663, "rem": 1664, "\u2581resposta": 1665, "\u2581less": 1666, "\u2581Time": 1667, "\u2581month": 1668, "\u2581options": 1669, "\u2581seguir": 1670, "\u2581script": 1671, "BAR": 1672, "\u2581'%": 1673, "\u2581York": 1674, "\u2581llocs": 1675, "\u2581baix": 1676, "estar": 1677, "\u2581version": 1678, "\u2581instead": 1679, "\u2581hagu\u00e9s": 1680, "\u2581hit": 1681, "\u2581tonight": 1682, "\u2581afraid": 1683, "\u2581known": 1684, "\u2581beautiful": 1685, "\u2581images": 1686, "mo": 1687, "\u2581hurt": 1688, "\u2581failed": 1689, "\u2581table": 1690, "\u2581doctor": 1691, "\u2581acabar": 1692, "\u2581classe": 1693, "\u2581automatically": 1694, "\u2581changed": 1695, "\u2581preguntar": 1696, "\u2581escriptori": 1697, "\u2581watch": 1698, "im": 1699, "\u2581penso": 1700, "\u2581sound": 1701, "\u2581M\u00e9s": 1702, "\u2581agafar": 1703, "\u2581bases": 1704, "\u2581versi\u00f3": 1705, "\u2581con": 1706, "\u2581eh": 1707, "\u2581total": 1708, "\u2581dalt": 1709, "ga": 1710, "tes": 1711, "\u2581OK": 1712, "\u2581brought": 1713, "\u2581clear": 1714, "\u2581quina": 1715, "\u2581looked": 1716, "\u2581rather": 1717, "\u2581Pots": 1718, "\u00f2": 1719, "\u2581CUPS": 1720, "ton": 1721, "\u2581Parliament": 1722, "\u2581months": 1723, "\u2581town": 1724, "\u2581died": 1725, "\u2581diuen": 1726, "\u2581pol\u00edtica": 1727, "\u2581Click": 1728, "\u2581Bon": 1729, "\u2581humans": 1730, "\u258118": 1731, "\u2581Nothing": 1732, "\u2581aquella": 1733, "\u2581listen": 1734, "\u2581malament": 1735, "\u2581deixa": 1736, "\u2581cont\u00e9": 1737, "\u2581sleep": 1738, "\u2581y": 1739, "\u2581Will": 1740, "\u2581disponibles": 1741, "\u2581marxar": 1742, "\u2581sister": 1743, "\u2581gets": 1744, "\u2581mine": 1745, "\u2581'%1": 1746, "\u2581party": 1747, "\u2581tomorrow": 1748, "bo": 1749, "\u2581necessito": 1750, "\u2581posici\u00f3": 1751, "\u2581simplement": 1752, "\u2581supposed": 1753, "\u2581account": 1754, "\u2581allow": 1755, "\u2581Mrs": 1756, "\u2581*.": 1757, "\u2581Format": 1758, "if": 1759, "\u2581label": 1760, "\u2581futur": 1761, "\u2581meves": 1762, "\u2581area": 1763, "\u2581upon": 1764, "\u2581Estem": 1765, "\u2581Stock": 1766, "\u2581podreu": 1767, "\u2581Estats": 1768, "\u2581tornat": 1769, "\u2581Han": 1770, "\u2581special": 1771, "ble": 1772, "\u2581Our": 1773, "\u2581mouse": 1774, "\u2581Introdu\u00efu": 1775, "\u2581buit": 1776, "\u2581gaireb\u00e9": 1777, "\u2581mar": 1778, "\u2581Two": 1779, "\u2581during": 1780, "\u2581icon": 1781, "sa": 1782, "\u2581avall": 1783, "\u2581cerca": 1784, "\u2581clients": 1785, "\u2581existeix": 1786, "\u2581parlant": 1787, "\u2581seleccionar": 1788, "\u258119": 1789, "\u2581donat": 1790, "\u2581gotta": 1791, "\u2581security": 1792, "\u2581llit": 1793, "\u2581tracta": 1794, "\u2581Voices": 1795, "\u2581germana": 1796, "\u2581jove": 1797, "\u2581centre": 1798, "ation": 1799, "\u2581content": 1800, "\u2581retorna": 1801, "\u2581ratol\u00ed": 1802, "\u2581vos": 1803, "\u2581(@": 1804, "\u2581Fes": 1805, "\u2581connexi\u00f3": 1806, "\u2581dem\u00e0": 1807, "ament": 1808, "\u2581deixat": 1809, "\u2581shot": 1810, "\u2581Heu": 1811, "\u2581estigui": 1812, "\u2581Mode": 1813, "\u2581Y": 1814, "\u2581met": 1815, "\u2581co": 1816, "\u2581king": 1817, "\u2581seems": 1818, "\u2581source": 1819, "jo": 1820, "\u2581Bill": 1821, "\u2581arribat": 1822, "amor": 1823, "sh": 1824, "um": 1825, "\u2581directory": 1826, "\u2581living": 1827, "\u2581May": 1828, "\u2581importa": 1829, "\u2581often": 1830, "\u2581vi": 1831, "\u2581//": 1832, "\u2581returns": 1833, "\u2581torna": 1834, "\u2581President": 1835, "\u2581ones": 1836, "\u2581Arranjament": 1837, "\u2581Doctor": 1838, "\u2581Give": 1839, "\u2581boys": 1840, "\u2581queda": 1841, "lar": 1842, "\u2581Twitter": 1843, "\u2581remove": 1844, "\u2581worry": 1845, "\u2581choice": 1846, "El": 1847, "\u2581Captain": 1848, "\u2581Desa": 1849, "\u2581cut": 1850, "\u2581screen": 1851, "\u2581black": 1852, "\u2581penses": 1853, "\u2581video": 1854, "\u2581checked": 1855, "\u2581Does": 1856, "\u2581class": 1857, "\u2581context": 1858, "\u2581d\u00f3na": 1859, "\u2581above": 1860, "\u2581pensava": 1861, "\u2581Bona": 1862, "\u2581quelcom": 1863, "\u2581stand": 1864, "\u2581Listen": 1865, "\u2581Walter": 1866, "\u2581noms": 1867, "\u2581parts": 1868, "\u2581Tipus": 1869, "\u2581mira": 1870, "\u2581drink": 1871, "\u2581waiting": 1872, "\u2581ain": 1873, "\u2581exactament": 1874, "\u2581faci": 1875, "\u2581llibre": 1876, "\u2581valors": 1877, "\u2581kmail": 1878, "\u2581happens": 1879, "\u2581vell": 1880, "\u2581form": 1881, "\u2581pa\u00efsos": 1882, "\u2581Man": 1883, "\u2581espera": 1884, "\u2581particular": 1885, "\u2581pestanya": 1886, "ells": 1887, "\u2581molta": 1888, "era": 1889, "j": 1890, "\u2581learn": 1891, "\u2581llarg": 1892, "\u2581acc\u00e9s": 1893, "\u2581bed": 1894, "\u2581comptes": 1895, "\u2581column": 1896, "\u2581darrere": 1897, "\u2581salvar": 1898, "\u2581Voleu": 1899, "\u2581amor": 1900, "\u2581walk": 1901, "ity": 1902, "son": 1903, "ti": 1904, "\u00f3": 1905, "\u2581currently": 1906, "\u2581grups": 1907, "\u2581pro": 1908, "\u2581selecci\u00f3": 1909, "):": 1910, "vi": 1911, "\u2581parell": 1912, "\u2581path": 1913, "\u2581wanna": 1914, "ren": 1915, "\u2581Top": 1916, "ella": 1917, "\u2581Delete": 1918, "\u2581Keep": 1919, "\u2581filled": 1920, "\u2581Sir": 1921, "\u2581below": 1922, "\u2581Lady": 1923, "\u2581explicar": 1924, "\u2581main": 1925, "\u2581aplicacions": 1926, "\u2581documents": 1927, "\u2581object": 1928, "\u2581seleccioneu": 1929, "\u2581sou": 1930, "ent": 1931, "pa": 1932, "\u2581Create": 1933, "\u2581Help": 1934, "\u2581Ning\u00fa": 1935, "\u2581husband": 1936, "\u2581Uni\u00f3": 1937, "\u2581anymore": 1938, "\u2581mil": 1939, "ist": 1940, "\u2581cost": 1941, "\u2581couple": 1942, "\u2581minute": 1943, "\u2581office": 1944, "\u2581\u00b6": 1945, "\u2581needed": 1946, "\u2581onto": 1947, "\u2581million": 1948, "\u2581Joe": 1949, "\u2581Parlament": 1950, "\u2581created": 1951, "\u2581allows": 1952, "\u2581device": 1953, "\u258116": 1954, "\u2581Estava": 1955, "\u2581eat": 1956, "\u2581utilitzar": 1957, "\u2581David": 1958, "\u2581desktop": 1959, "ig": 1960, "\u2581code": 1961, "\u2581history": 1962, "\u2581law": 1963, "\u2581moviment": 1964, "\u2581Would": 1965, "\u2581food": 1966, "\u2581dispositiu": 1967, "\u2581press": 1968, "\u2581red": 1969, "\u2581Q": 1970, "\u2581troba": 1971, "\u2581creu": 1972, "\u2581post": 1973, "\u2581significa": 1974, "\u00fanica": 1975, "\u2581port": 1976, "\u2581seven": 1977, "altra": 1978, "\u2581certain": 1979, "\u2581Te": 1980, "\u2581seem": 1981, "\u2581countries": 1982, "\u2581Dad": 1983, "\u2581contingut": 1984, "\u2581across": 1985, "\u2581descartades": 1986, "\u2581icona": 1987, "\u2581tel\u00e8fon": 1988, "\u2581Peter": 1989, "\u2581impressi\u00f3": 1990, "\u2581Vol": 1991, "\u2581computer": 1992, "\u2581endavant": 1993, "\u2581entenc": 1994, "\u2581reparteix": 1995, "\u2581building": 1996, "\u2581questions": 1997, "\u2581Port": 1998, "\u2581nous": 1999, "\u2581sola": 2000, "\u2581test": 2001, "ut": 2002, "\u2581Canvia": 2003, "\u2581convertir": 2004, "\u2581m\u00e0quina": 2005, "\u2581v\u00eddeo": 2006, "hora": 2007, "\u2581Cerca": 2008, "\u2581intentar": 2009, "aigua": 2010, "\u2581City": 2011, "\u2581Which": 2012, "\u2581directori": 2013, "\u2581moving": 2014, "\u2581preguntes": 2015, "\u2581whatever": 2016, "\u00fanic": 2017, "\u2581lluny": 2018, "\u2581mem\u00f2ria": 2019, "ine": 2020, "\u2581marit": 2021, "\u2581short": 2022, "\u2581sessi\u00f3": 2023, "\u2581Vine": 2024, "\u2581tool": 2025, "\u2581bottom": 2026, "\u2581white": 2027, "\u2581negre": 2028, "\u2581Pot": 2029, "\u2581build": 2030, "\u2581impossible": 2031, "\u2581obtenir": 2032, "der": 2033, "Q": 2034, "\u2581similar": 2035, "tra": 2036, "\u2581hagut": 2037, "\u2581shown": 2038, "ix": 2039, "\u2581Usa": 2040, "\u2581inferior": 2041, "\u2581partida": 2042, "\u2581Union": 2043, "\u2581feia": 2044, "\u2581placed": 2045, "\u2581sit": 2046, "\u2581saved": 2047, "\u2581Any": 2048, "\u2581enrere": 2049, "\u2581veus": 2050, "ina": 2051, "ry": 2052, "\u2581adre\u00e7a": 2053, "\u2581all\u00f2": 2054, "\u2581dient": 2055, "La": 2056, "\u2581Grace": 2057, "\u2581buy": 2058, "\u2581common": 2059, "\u2581funciona": 2060, "\u2581paio": 2061, "\u2581takes": 2062, "ex": 2063, "\u2581DVD": 2064, "\u2581guanyar": 2065, "\u2581honor": 2066, "\u2581status": 2067, "\u2581First": 2068, "\u2581hour": 2069, "\u2581natural": 2070, "\u2581usuaris": 2071, "\u2581acci\u00f3": 2072, "\u2581reina": 2073, "\u2581Ragnar": 2074, "fi": 2075, "line": 2076, "\u2581Make": 2077, "\u2581entry": 2078, "\u2581feeling": 2079, "\u2581Crea": 2080, "\u2581especial": 2081, "pe": 2082, "\u2581Next": 2083, "\u2581configurar": 2084, "\u00f3s": 2085, "\u2581f": 2086, "\u2581kid": 2087, "\u2581Merda": 2088, "\u2581contrasenya": 2089, "\u2581database": 2090, "ness": 2091, "\u2581Frank": 2092, "\u2581Editor": 2093, "\u2581objecte": 2094, "\u2581passant": 2095, "\u2581users": 2096, "\u2581English": 2097, "\u2581descomptat": 2098, "\u2581Quant": 2099, "\u2581contact": 2100, "You": 2101, "ver": 2102, "\u2581applications": 2103, "\u2581article": 2104, "\u2581works": 2105, "\u2581brain": 2106, "\u2581comprar": 2107, "J": 2108, "\u2581errors": 2109, "\u2581filter": 2110, "\u2581return": 2111, "\u2581tasca": 2112, "be": 2113, "\u2581middle": 2114, "int": 2115, "\u2581Sherlock": 2116, "\u2581fort": 2117, "\u2581relaci\u00f3": 2118, "\u258111": 2119, "\u2581political": 2120, "\u2581row": 2121, "\u2581b": 2122, "weather": 2123, "\u2581disc": 2124, "\u2581membres": 2125, "\u2581deia": 2126, "\u2581drets": 2127, "tor": 2128, "\u2581Tan": 2129, "\u2581mapa": 2130, "\u2581online": 2131, "\u2581Vost\u00e8": 2132, "\u2581fila": 2133, "pi": 2134, "\u2581bastant": 2135, "\u2581break": 2136, "\u2581pres\u00f3": 2137, "ge": 2138, "\u2581Sarah": 2139, "land": 2140, "\u2581based": 2141, "\u2581crazy": 2142, "\u2581prova": 2143, "\u2581ways": 2144, "\u2581noves": 2145, "\u2581picture": 2146, "\u2581\u00fas": 2147, "\u2581email": 2148, "\u2581extra": 2149, "\u2581network": 2150, "\u2581pares": 2151, "\u2581reserva": 2152, "What": 2153, "\u2581servei": 2154, "\u2581cent": 2155, "\u2581culpa": 2156, "\u2581ten": 2157, "\u2581intel": 2158, "\u2581not\u00edcies": 2159, "\u2581animals": 2160, "\u2581manual": 2161, "\u2581Miss": 2162, "\u2581estrany": 2163, "\u2581lose": 2164, "ru": 2165, "\u2581aquells": 2166, "ah": 2167, "\u258125": 2168, "\u2581finestres": 2169, "\u2581girls": 2170, "\u2581Really": 2171, "\u2581values": 2172, "\u2581Start": 2173, "\u2581input": 2174, "\u2581lady": 2175, "\u2581zero": 2176, "\u258140": 2177, "\u2581Robert": 2178, "\u2581fun": 2179, "\u2581aleshores": 2180, "\u2581trouble": 2181, "itat": 2182, "6": 2183, "aci\u00f3": 2184, "\u2581aren": 2185, "\u2581facis": 2186, "\u2581forget": 2187, "\u2581nena": 2188, "\u2581Even": 2189, "\u2581asking": 2190, "\u2581large": 2191, "du": 2192, "\u2581figure": 2193, "\u2581Alg\u00fa": 2194, "\u2581felt": 2195, "\u2581registre": 2196, "\u2581count": 2197, "\u2581foto": 2198, "\u2581provar": 2199, "\u2581several": 2200, "\u2581somebody": 2201, "ques": 2202, "color": 2203, "\u2581location": 2204, "\u2581log": 2205, "\u2581terrible": 2206, "con": 2207, "\u2581dad": 2208, "\u2581sign": 2209, "\u2581step": 2210, "\u2581continuar": 2211, "\u2581password": 2212, "\u2581pensat": 2213, "\u2581poor": 2214, "\u2581problems": 2215, "one": 2216, "\u2581foc": 2217, "id": 2218, "\u2581Gregor": 2219, "\u2581connection": 2220, "\u2581eye": 2221, "\u2581eliminar": 2222, "\u2581fonts": 2223, "we": 2224, "\u2581Europea": 2225, "\u2581North": 2226, "\u2581eight": 2227, "\u2581via": 2228, "\u2581telling": 2229, "mi": 2230, "\u2581contains": 2231, "\u2581feli\u00e7": 2232, "\u2581Sam": 2233, "\u2581entire": 2234, "\u2581mitjans": 2235, "\u2581condition": 2236, "\u2581carpetes": 2237, "\u2581energy": 2238, "\u2581global": 2239, "\u2581Rei": 2240, "\u2581volen": 2241, "Applause": 2242, "\u2581policy": 2243, "ista": 2244, "\u2581Aquests": 2245, "\u2581cops": 2246, "tion": 2247, "\u2581drive": 2248, "0": 2249, "bar": 2250, "ber": 2251, "st": 2252, "\u2581segura": 2253, "of": 2254, "\u2581art": 2255, "\u2581buida": 2256, "\u2581lines": 2257, "\u2581l\u00ednies": 2258, "\u2581\u00a1": 2259, "\u2581pick": 2260, "\u2581More": 2261, "\u2581People": 2262, "\u2581il": 2263, "\u2581service": 2264, "\u2581Canno": 2265, "\u2581non": 2266, "ades": 2267, "\u2581Alice": 2268, "\u2581maneres": 2269, "cils": 2270, "\u2581Waste": 2271, "\u2581agent": 2272, "7": 2273, "\u2581llei": 2274, "\u2581print": 2275, "\u2581States": 2276, "\u2581Con": 2277, "\u2581description": 2278, "\u25812.": 2279, "\u2581Opcions": 2280, "\u2581protocol": 2281, "\u2581p\u00e0gines": 2282, "\u2581specified": 2283, "8": 2284, "\u2581situaci\u00f3": 2285, "estic": 2286, "ke": 2287, "ves": 2288, "\u2581.\"": 2289, "\u2581carrer": 2290, "\u2581inici": 2291, "\u258113": 2292, "aquests": 2293, "\u2581Every": 2294, "\u2581Necessito": 2295, "\u2581cases": 2296, "\u2581character": 2297, "\u2581percent": 2298, "amount": 2299, "\u2581AND": 2300, "\u2581bones": 2301, "\u2581copy": 2302, "\u2581keys": 2303, "\u2581nord": 2304, "\u2581Aleshores": 2305, "\u2581Type": 2306, "\u2581beginning": 2307, "...\"": 2308, "ler": 2309, "\u25813.": 2310, "\u2581strong": 2311, "\u258124": 2312, "\u2581continue": 2313, "\u2581dear": 2314, "\u2581items": 2315, "\u2581piece": 2316, "\u2581propi": 2317, "\u2581air": 2318, "\u2581canviat": 2319, "\u2581dormir": 2320, "\u2581net": 2321, "\u2581regular": 2322, "\u2581usa": 2323, "\u2581sabeu": 2324, "\u2581trucar": 2325, "\u2581Esteu": 2326, "\u2581XML": 2327, "\u2581contacte": 2328, "\u2581points": 2329, "\u2581shows": 2330, "}": 2331, "\u2581blanc": 2332, "\u2581leaving": 2333, "escola": 2334, "\u2581estil": 2335, "\u2581\"%1\"": 2336, "\u2581Aquestes": 2337, "\u2581etiqueta": 2338, "\u2581sex": 2339, "\u2581huh": 2340, "\u2581sovint": 2341, "\u2581clicking": 2342, "\u2581fast": 2343, "\u2581ship": 2344, "\u2581sopar": 2345, "\u2581teves": 2346, "\u2581vuit": 2347, "\u2581..": 2348, "\u258114": 2349, "\u2581event": 2350, "\u2581itself": 2351, "\u2581playing": 2352, "Oh": 2353, "Sten": 2354, "ni": 2355, "q": 2356, "\u2581Estableix": 2357, "\u2581gun": 2358, "\u2581lluitar": 2359, "\u2581cadena": 2360, "\u2581gas": 2361, "\u2581pensa": 2362, "\u2581sigut": 2363, "\u2581Digues": 2364, "\u2581Files": 2365, "\u2581Lannister": 2366, "\u2581pau": 2367, "\u2581Primer": 2368, "\u2581sala": 2369, "\u2581v\u00f3s": 2370, "ling": 2371, "\u2581America": 2372, "\u2581List": 2373, "\u2581Podria": 2374, "\u2581team": 2375, "\u2581cervell": 2376, "\u2581esperar": 2377, "\u2581Excuse": 2378, "\u2581parla": 2379, "fa": 2380, "\u2581Pel": 2381, "\u2581fes": 2382, "\u2581protect": 2383, "\u2581session": 2384, "\u2581third": 2385, "ka": 2386, "\u2581Change": 2387, "\u2581calendari": 2388, "ck": 2389, "\u2581Podem": 2390, "\u2581TO": 2391, "Per": 2392, "\u2581segona": 2393, "osa": 2394, "\u2581claus": 2395, "\u2581drop": 2396, "\u2581mom": 2397, "\u2581Selecciona": 2398, "\u2581focus": 2399, "\u2581Charlie": 2400, "\u2581everybody": 2401, "\u2581setmanes": 2402, "\u2581carregar": 2403, "\u2581desenvolupament": 2404, "\u2581pagar": 2405, "\u2581parents": 2406, "\u2581(%": 2407, "\u2581Tanca": 2408, "\u2581Um": 2409, "\u2581columna": 2410, "\u2581married": 2411, "\u2581morts": 2412, "\u2581protegir": 2413, "tic": 2414, "\u00faltima": 2415, "\u2581Esborra": 2416, "\u2581System": 2417, "\u2581p\u00fablic": 2418, "\u2581Sheldon": 2419, "\u2581capital": 2420, "\u2581escollir": 2421, "\u2581paquet": 2422, "op": 2423, "\u2581began": 2424, "\u2581dark": 2425, "\u2581dream": 2426, "\u2581oportunitat": 2427, "\u2581val": 2428, "\u2581Once": 2429, "\u2581sometimes": 2430, "\u00e0s": 2431, "\u2581Jemaine": 2432, "\u2581Last": 2433, "\u2581Number": 2434, "\u2581Suposo": 2435, "\u2581speed": 2436, "\u2581string": 2437, "\u2581happening": 2438, "\u2581omplir": 2439, "\u2581pa": 2440, "\u2581perill": 2441, "\u2581t\u00edtol": 2442, "\u2581useful": 2443, "ten": 2444, "\u2581promise": 2445, "au": 2446, "\u2581Consell": 2447, "\u2581Each": 2448, "\u2581weeks": 2449, "\u2581Martin": 2450, "\u2581Creus": 2451, "\u2581causa": 2452, "\u2581land": 2453, "\u2581missing": 2454, "\u2581seran": 2455, "car": 2456, "\u2581m\u00ednim": 2457, "\u2581package": 2458, "\u2581sa": 2459, "\u2581meeting": 2460, "\u2581Enable": 2461, "\u2581entendre": 2462, "ary": 2463, "\u2581anyway": 2464, "\u2581lie": 2465, "\u2581recordar": 2466, "mp": 2467, "\u2581St": 2468, "\u2581appear": 2469, "\u2581Ad\u00e9u": 2470, "\u2581Choose": 2471, "\u2581displayed": 2472, "\u2581installed": 2473, "\u2581Bo": 2474, "\u2581D\u00f3na": 2475, "\u2581Hold": 2476, "\u2581Terra": 2477, "\u2581pensant": 2478, "\u2581terminal": 2479, "\u2581Units": 2480, "\u2581allowed": 2481, "\u2581comen\u00e7a": 2482, "\u2581lead": 2483, "\u2581quantitat": 2484, "\u2581result": 2485, "\u2581Control": 2486, "\u2581esperant": 2487, "\u2581pitjor": 2488, "\u2581seg\u00fcents": 2489, "\u2581starting": 2490, "ba": 2491, "pro": 2492, "\u2581Holmes": 2493, "\u2581Michael": 2494, "\u2581Search": 2495, "\u2581cul": 2496, "\u2581rights": 2497, "aquestes": 2498, "\u2581Black": 2499, "\u2581Cal": 2500, "\u2581fall": 2501, "\u2581pr\u00f2pia": 2502, "po": 2503, "\u2581interesting": 2504, "ava": 2505, "\u2581Very": 2506, "\u2581est\u00e0ndard": 2507, "\u2581habitaci\u00f3": 2508, "\u2581tampoc": 2509, "\u2581tasques": 2510, "\u2581car\u00e0cters": 2511, "\u2581configure": 2512, "\u2581doble": 2513, "\u2581festa": 2514, "\u2581quants": 2515, "hauria": 2516, "\u2022": 2517, "\u2581Four": 2518, "\u2581match": 2519, "It": 2520, "ris": 2521, "\u2581Everything": 2522, "\u2581um": 2523, "\u2581Import": 2524, "\u2581completely": 2525, "\u2581cool": 2526, "\u2581hauries": 2527, "\u2581ment": 2528, "\u2581seleccionada": 2529, "\u2581Val": 2530, "\u2581adreces": 2531, "\u2581detalls": 2532, "gen": 2533, "\u2581Ted": 2534, "\u2581active": 2535, "\u2581background": 2536, "\u2581force": 2537, "\u2581imagine": 2538, "\u2581lt": 2539, "\u2581Mike": 2540, "\u2581TV": 2541, "\u2581Window": 2542, "\u2581complete": 2543, "\u2581experience": 2544, "\u2581probablement": 2545, "\u2581simply": 2546, "\u2581Note": 2547, "\u2581Sa": 2548, "\u2581dinner": 2549, "\u2581Deu": 2550, "\u2581ID": 2551, "\u2581actualment": 2552, "\u2581ahead": 2553, "\u2581capa\u00e7": 2554, "\u2581rebre": 2555, "\u2581setting": 2556, "\u2581Up": 2557, "\u2581completament": 2558, "\u2581faria": 2559, "\u2581quals": 2560, "\u2581roba": 2561, "\u2581teclat": 2562, "\u2581anava": 2563, "\u2581decidir": 2564, "\u2581iniciar": 2565, "\u2581map": 2566, "isme": 2567, "\u2581American": 2568, "\u2581manager": 2569, "\u2581portat": 2570, "vo": 2571, "\u258117": 2572, "\u2581aprendre": 2573, "\u2581escoltar": 2574, "\u2581worth": 2575, "eix": 2576, "\u2581Hmm": 2577, "\u2581respecte": 2578, "\u2581tancar": 2579, "\u2581Europeu": 2580, "\u2581follow": 2581, "\u2581havien": 2582, "\u2581Find": 2583, "\u2581Mida": 2584, "\u2581anti": 2585, "\u2581blue": 2586, "\u2581fear": 2587, "\u2581filtre": 2588, "\u2581music": 2589, "\u2581plugin": 2590, "\u2581portes": 2591, "for": 2592, "\u2581Put": 2593, "\u2581Try": 2594, "\u2581llibertat": 2595, "\u2581voice": 2596, "\u2581writing": 2597, "\u2581Watch": 2598, "\u2581cancel": 2599, "\u2581eina": 2600, "\u2581r": 2601, "\u2581Mom": 2602, "\u2581executar": 2603, "\u2581ne": 2604, "\u2581s\u00e8rie": 2605, "by": 2606, "nd": 2607, "\u2581Alt": 2608, "\u2581gos": 2609, "\u2581viatge": 2610, "\u2581accions": 2611, "\u2581llengua": 2612, "\u2581tret": 2613, "\u2581alt": 2614, "AR": 2615, "ER": 2616, "mon": 2617, "\u2581anterior": 2618, "\u2581darrera": 2619, "\u2581kate": 2620, "\u2581shouldn": 2621, "10": 2622, "\u2581Default": 2623, "\u2581establir": 2624, "\u2581farem": 2625, "\u2581legal": 2626, "\u2581partir": 2627, "\u2581situation": 2628, "\u2581worked": 2629, "out": 2630, "\u2581hair": 2631, "\u2581haur\u00edem": 2632, "\u2581round": 2633, "\u2581Date": 2634, "\u2581correcte": 2635, "\u2581equip": 2636, "\u2581terme": 2637, "\u2581Jesus": 2638, "\u2581Murray": 2639, "\u2581cause": 2640, "\u2581estaven": 2641, "\u2581section": 2642, "\u2581early": 2643, "\u2581oh": 2644, "\u2581perfil": 2645, "\u2581root": 2646, "ES": 2647, "\\\\": 2648, "\u2581Europe": 2649, "\u2581canal": 2650, "\u2581espais": 2651, "\u2581Vi": 2652, "\u2581Windows": 2653, "\u2581agrada": 2654, "\u2581market": 2655, "less": 2656, "\u2581Was": 2657, "Rialles": 2658, "ner": 2659, "\u2581<": 2660, "\u2581Close": 2661, "\u2581However": 2662, "\u2581Na": 2663, "\u2581necessary": 2664, "\u2581shut": 2665, "ps": 2666, "\u2581Avui": 2667, "\u2581Feu": 2668, "\u2581win": 2669, "altres": 2670, "eta": 2671, "\u25812,": 2672, "\u2581Export": 2673, "\u2581noies": 2674, "\u2581ordinador": 2675, "\u2581Deal": 2676, "\u2581conegut": 2677, "\u2581dest\u00ed": 2678, "\u2581near": 2679, "\u2581numbers": 2680, "\u2581posat": 2681, "\u2581eres": 2682, "\u2581forward": 2683, "\u2581among": 2684, "\u2581operation": 2685, "\u2581Google": 2686, "\u2581Page": 2687, "\u2581Totes": 2688, "\u2581dir\u00e9": 2689, "\u2581volem": 2690, "\u2581Le": 2691, "\u2581negoci": 2692, "\u2581objectes": 2693, "ty": 2694, "\u2581meitat": 2695, "\u2581posa": 2696, "\u2581pr\u00e8via": 2697, "\u2581recursos": 2698, "\u2581tingui": 2699, "so": 2700, "\u2581Earth": 2701, "\u2581George": 2702, "\u2581Torna": 2703, "\u2581forces": 2704, "\u2581memory": 2705, "\u2581valid": 2706, "\u2581visible": 2707, "\u2581Am": 2708, "\u2581accident": 2709, "\u2581murder": 2710, "\u2581m\u00fasica": 2711, "\u2581sick": 2712, "Aplaudiments": 2713, "\u2581Espero": 2714, "\u2581mercat": 2715, "\u2581necessitem": 2716, "\u2581resultat": 2717, "fer": 2718, "\u2581Call": 2719, "\u2581Cancel": 2720, "\u2581Mo": 2721, "\u2581ground": 2722, "\u2581impressora": 2723, "\u2581veiem": 2724, "Qu\u00e8": 2725, "\u2581Ajuda": 2726, "\u2581Mm": 2727, "\u2581Sure": 2728, "\u2581attack": 2729, "\u2581calendar": 2730, "\u2581recent": 2731, "\u2581rules": 2732, "\u2581touch": 2733, "ac": 2734, "onstellation": 2735, "\u2581kept": 2736, "\u2581secci\u00f3": 2737, "\u2581stopped": 2738, "\u2581stupid": 2739, "\u2581{": 2740, "\u2581Insert": 2741, "\u2581Options": 2742, "\u2581low": 2743, "gi": 2744, "\u2581Nord": 2745, "\u2581buscant": 2746, "\u2581dog": 2747, "\u2581themselves": 2748, "\u00ef": 2749, "\u2581Group": 2750, "\u2581Porta": 2751, "\u2581Segur": 2752, "\u2581cau": 2753, "\u2581permetre": 2754, "\u2581principi": 2755, "\u2581serious": 2756, "\u2581national": 2757, "ian": 2758, "io": 2759, "\u2581caure": 2760, "\u2581hey": 2761, "\u2581hospital": 2762, "\u2581hot": 2763, "\u2581Game": 2764, "\u2581Hood": 2765, "\u2581ensenyar": 2766, "\u2581mirant": 2767, "aire": 2768, "\u2581Great": 2769, "\u2581decided": 2770, "\u2581Maria": 2771, "\u2581User": 2772, "\u2581classes": 2773, "\u2581edit": 2774, "\u2581exist": 2775, "\u2581further": 2776, "\u2581q\u00fcesti\u00f3": 2777, "\u2581shoot": 2778, "\u2581tranquil": 2779, "ive": 2780, "mar": 2781, "\u2581Sol": 2782, "\u2581difer\u00e8ncia": 2783, "ats": 2784, "cal": 2785, "\u2581Project": 2786, "\u2581feet": 2787, "\u2581selection": 2788, "tu": 2789, "\u2581Bar": 2790, "\u2581Fuck": 2791, "\u2581Robin": 2792, "\u2581digui": 2793, "\u2581offer": 2794, "\u2581popular": 2795, "art": 2796, "\u25812013": 2797, "\u2581Jason": 2798, "\u2581central": 2799, "\u2581Stay": 2800, "\u2581expect": 2801, "\u2581recerca": 2802, "\u2581usually": 2803, "ana": 2804, "estimo": 2805, "\u2581Co": 2806, "\u2581Molly": 2807, "\u2581conec": 2808, "\u2581plans": 2809, "\u2581v\u00e0lid": 2810, "\u2581San": 2811, "\u2581hate": 2812, "\u2581perhaps": 2813, "\u2581sea": 2814, "Z": 2815, "illa": 2816, "ol": 2817, "\u2581Web": 2818, "\u2581boca": 2819, "\u2581necessari": 2820, "\u2581Copy": 2821, "\u2581paquets": 2822, "\u2581track": 2823, "\u2581\u00e0rea": 2824, "\u2581Place": 2825, "\u2581difference": 2826, "\u2581peace": 2827, "\u2581seemed": 2828, "\u2581societat": 2829, "\u2581written": 2830, "\u2581channel": 2831, "\u2581seconds": 2832, "\u2581Left": 2833, "\u2581disparar": 2834, "\u2581equal": 2835, "\u2581self": 2836, "all": 2837, "\u2581Max": 2838, "\u2581begin": 2839, "\u2581dubte": 2840, "ons": 2841, "ric": 2842, "\u2581+": 2843, "\u25811\"": 2844, "\u2581Abans": 2845, "\u2581Reserve": 2846, "\u2581Thea": 2847, "\u2581became": 2848, "\u2581munt": 2849, "gui": 2850, "\u2581finished": 2851, "hem": 2852, "\u2581act": 2853, "\u2581miss": 2854, "\u2581reading": 2855, "\u2581Carrie": 2856, "\u2581Council": 2857, "\u2581Tant": 2858, "\u2581millors": 2859, "\u2581specific": 2860, "\u2581whatsthis": 2861, "rs": 2862, "\u2581cridar": 2863, "\u2581dolor": 2864, "\u2581plantilla": 2865, "\u2581seeing": 2866, "\u2581Col": 2867, "\u2581Font": 2868, "\u2581clean": 2869, "\u2581explain": 2870, "ip": 2871, "\u2581giving": 2872, "\u2581meant": 2873, "\u2581played": 2874, "\u2581ple": 2875, "\u2581quiet": 2876, "\u2581velocitat": 2877, "\u2581worse": 2878, "\u2581Print": 2879, "\u2581Vam": 2880, "\u2581baixant": 2881, "\u2581descobrir": 2882, "\u2581finally": 2883, "\u2581style": 2884, "\u2581EU": 2885, "\u2581Her": 2886, "\u2581delete": 2887, "\u2581parlat": 2888, "\u2581\u266b": 2889, "\u2581Ok": 2890, "\u2581cors": 2891, "\u2581Llista": 2892, "\u2581somni": 2893, "\u2581treballant": 2894, "iu": 2895, "\u2581Red": 2896, "\u2581damn": 2897, "\u2581gold": 2898, "\u2581output": 2899, "esquerra": 2900, "wa": 2901, "\u2581About": 2902, "\u2581Never": 2903, "\u2581auto": 2904, "\u2581bitch": 2905, "\u2581capit\u00e0": 2906, "\u2581interested": 2907, "\u2581loved": 2908, "\u2581standard": 2909, "\u2581vaixell": 2910, "\u2581Run": 2911, "\u2581ca": 2912, "\u2581director": 2913, "\u2581siguin": 2914, "\u2581store": 2915, "\u2581thanks": 2916, "\u2581u": 2917, "\u2581unit": 2918, "\u2581Three": 2919, "\u2581diverses": 2920, "\u2581sud": 2921, "bi": 2922, "\u2581Auto": 2923, "\u2581Filter": 2924, "\u2581intentant": 2925, "\u2581interessant": 2926, "\u2581removed": 2927, "\u2581dolent": 2928, "\u2581lists": 2929, "\u2581pujant": 2930, "\u2581serveis": 2931, "\u2581sounds": 2932, "\u2581Pare": 2933, "\u2581Something": 2934, "\u2581consider": 2935, "\u2581emails": 2936, "\u2581hearts": 2937, "\u2581variable": 2938, "\u2581United": 2939, "\u2581diamants": 2940, "\u2581difficult": 2941, "\u2581directament": 2942, "\u2581effect": 2943, "9": 2944, "\u258160": 2945, "\u2581Foundations": 2946, "\u2581Gran": 2947, "\u2581age": 2948, "\u2581completa": 2949, "\u2581socials": 2950, "\u2581society": 2951, "\u2581street": 2952, "\u2581\u00fatil": 2953, "\u2581anomenat": 2954, "\u2581gives": 2955, "\u2581groups": 2956, "\u2581sequence": 2957, "\u2581tree": 2958, "ng": 2959, "\u25812015": 2960, "\u2581Quatre": 2961, "\u2581Vista": 2962, "\u2581esdeveniments": 2963, "\u2581falta": 2964, "\u2581mostrar\u00e0": 2965, "\u2581proves": 2966, "\u2581provide": 2967, "\u2581suposa": 2968, "alguna": 2969, "\u2581somewhere": 2970, "ador": 2971, "\u2581Visualitza": 2972, "\u2581named": 2973, "\u2581sitting": 2974, "lt": 2975, "\u2581Back": 2976, "\u2581attention": 2977, "\u2581aturar": 2978, "\u2581born": 2979, "\u2581triar": 2980, "\u2581Qt": 2981, "\u2581dis": 2982, "\u2581range": 2983, "\u2581rule": 2984, "\u2581IT": 2985, "\u2581Message": 2986, "\u2581block": 2987, "\u2581places": 2988, "\u00faltim": 2989, "\u2581cold": 2990, "\u2581connector": 2991, "\u2581c\u00f2pia": 2992, "\u2581development": 2993, "\u2581events": 2994, "\u2581pain": 2995, "\u2581profile": 2996, "\u2581proper": 2997, "\u2581seq\u00fc\u00e8ncia": 2998, "\u2581tecla": 2999, "EMAIL": 3000, "men": 3001, "\u2581Cisco": 3002, "\u2581Failed": 3003, "\u2581fotos": 3004, "\u2581tractar": 3005, "\u2581Folder": 3006, "\u2581Laurel": 3007, "\u2581Tothom": 3008, "\u2581hide": 3009, "\u2581specify": 3010, "He": 3011, "nes": 3012, "\u2581Document": 3013, "\u2581Envia": 3014, "\u2581MIME": 3015, "\u2581acaba": 3016, "\u2581compartir": 3017, "\u2581peu": 3018, "\u2581plain": 3019, "\u2581Display": 3020, "\u2581Tab": 3021, "\u2581arreu": 3022, "\u2581fix": 3023, "\u2581interest": 3024, "\u2581windows": 3025, "AL": 3026, "\u2581Mare": 3027, "\u2581Perdona": 3028, "\u2581anybody": 3029, "\u2581baralla": 3030, "\u2581till": 3031, "eg": 3032, "\u2581Desktop": 3033, "\u2581Got": 3034, "\u2581US": 3035, "\u2581damunt": 3036, "\u2581details": 3037, "\u2581film": 3038, "\u2581Eh": 3039, "\u2581Insereix": 3040, "\u2581adonar": 3041, "\u2581boig": 3042, "\u2581casos": 3043, "\u2581characters": 3044, "\u2581opened": 3045, "\u2581decisions": 3046, "\u2581genial": 3047, "\u2581gestor": 3048, "\u2581pena": 3049, "ara": 3050, "ff": 3051, "tar": 3052, "\u2581Free": 3053, "\u2581folders": 3054, "\u2581including": 3055, "\u2581peus": 3056, "ang": 3057, "ley": 3058, "\u2581evitar": 3059, "\u2581unitat": 3060, "RE": 3061, "\u2581demanat": 3062, "\u2581risk": 3063, "\u2581seua": 3064, "ari": 3065, "ida": 3066, "\u2581Alguna": 3067, "\u2581Alguns": 3068, "\u2581Huck": 3069, "\u2581Send": 3070, "\u2581South": 3071, "\u2581amount": 3072, "\u2581army": 3073, "\u2581cells": 3074, "\u2581glad": 3075, "\u2581perfect": 3076, "\u2581programes": 3077, "\u2581software": 3078, "\u2581talked": 3079, "ish": 3080, "\u2581baixa": 3081, "\u2581cercar": 3082, "\u2581dealt": 3083, "\u2581dollars": 3084, "est\u00e0s": 3085, "ries": 3086, "za": 3087, "\u2581Home": 3088, "\u2581broma": 3089, "\u2581comen\u00e7ament": 3090, "\u2581environment": 3091, "\u2581familiar": 3092, "\u2581operaci\u00f3": 3093, "\u2581quickly": 3094, "\u2581Dos": 3095, "\u2581Habilita": 3096, "\u2581funny": 3097, "\u2581korganizer": 3098, "\u2581professor": 3099, "\u2581China": 3100, "\u2581multiple": 3101, "\u2581pressa": 3102, "S\u00ed": 3103, "ines": 3104, "ull": 3105, "\u2581Atura": 3106, "\u2581Sra": 3107, "\u2581escrit": 3108, "\u2581resultats": 3109, "importa": 3110, "res": 3111, "\u25811)": 3112, "\u2581crime": 3113, "\u2581icones": 3114, "\u2581Server": 3115, "\u2581argument": 3116, "\u2581fe": 3117, "\u2581record": 3118, "\u2581stories": 3119, "\u2581toolbar": 3120, "ster": 3121, "\u2581Comissi\u00f3": 3122, "\u2581Tenia": 3123, "\u2581calling": 3124, "\u2581diari": 3125, "\u2581diversos": 3126, "\u2581join": 3127, "\u2581voler": 3128, "time": 3129, "\u2581(\"": 3130, "\u2581Fora": 3131, "\u2581IS": 3132, "ak": 3133, "ard": 3134, "\u2581Mentre": 3135, "\u2581letter": 3136, "\u2581mateixos": 3137, "\u2581nine": 3138, "\u2581Perhaps": 3139, "\u2581\\": 3140, "\u2581contents": 3141, "\u2581individual": 3142, "\u2581zona": 3143, "\u2581Moltes": 3144, "\u2581cua": 3145, "\u2581esborrar": 3146, "\u2581matat": 3147, "unit": 3148, "\u2581Durant": 3149, "\u2581luck": 3150, "\u2581vides": 3151, "\u2581visit": 3152, "\u2581c\u00f3rrer": 3153, "\u2581decisi\u00f3": 3154, "\u2581respect": 3155, "\u2581task": 3156, "ki": 3157, "\u2581200": 3158, "\u2581enabled": 3159, "\u2581escala": 3160, "\u2581immediately": 3161, "\u2581minut": 3162, "\u2581obert": 3163, "\u2581recurs": 3164, "ING": 3165, "\u2581Most": 3166, "\u2581c\u00e0mera": 3167, "\u2581electr\u00f2nic": 3168, "\u2581queen": 3169, "\u2581supported": 3170, "\u2581whose": 3171, "\u2581Hall": 3172, "\u2581joves": 3173, "\u2581para": 3174, "\u2581uses": 3175, "gar": 3176, "\u2581Roy": 3177, "\u2581correct": 3178, "\u2581expression": 3179, "\u2581perm\u00eds": 3180, "\u2581radio": 3181, "\u2581rebut": 3182, "\u2581Remember": 3183, "\u2581entrades": 3184, "\u2581parar": 3185, "\u2581pero": 3186, "\u2581vora": 3187, "\u2581Big": 3188, "\u2581Estan": 3189, "\u2581cura": 3190, "\u2581remote": 3191, "\u2581floor": 3192, "\u2581machine": 3193, "\u2581tarda": 3194, "\u2581mala": 3195, "\u2581m\u00e0xim": 3196, "\u2581obstant": 3197, "\u2581prison": 3198, "estat": 3199, "\u2581pages": 3200, "\u2581spent": 3201, "ura": 3202, "ure": 3203, "\u2581Nou": 3204, "\u2581busy": 3205, "\u2581fighting": 3206, "\u2581none": 3207, "\u2581podr\u00edem": 3208, "\u2581semblava": 3209, "\u2581watching": 3210, "gues": 3211, "\u2581\\\\": 3212, "\u2581aconseguit": 3213, "\u2581arbre": 3214, "\u2581bastard": 3215, "\u2581dangerous": 3216, "\u2581mon": 3217, "\u2581pujar": 3218, "\u2581target": 3219, "\u2581desconegut": 3220, "\u2581nau": 3221, "\u2581sents": 3222, "\u2581sessions": 3223, "\u2581slot": 3224, "real": 3225, "\u2581Dan": 3226, "\u2581blog": 3227, "\u2581d\u00e9us": 3228, "\u2581immediatament": 3229, "\u2581normalment": 3230, "\u2581Bella": 3231, "\u2581Del": 3232, "\u2581Mireu": 3233, "\u2581ball": 3234, "\u2581esdeveniment": 3235, "\u2581estona": 3236, "\u2581introduir": 3237, "\u2581lluita": 3238, "\u2581mama": 3239, "\u2581site": 3240, "\u2581straight": 3241, ";)": 3242, "espai": 3243, "\u2581Ra": 3244, "\u2581efecte": 3245, "\u2581enviat": 3246, "\u2581estar\u00e0": 3247, "\u2581ran": 3248, "We": 3249, "ny": 3250, "\u2581Pro": 3251, "\u2581White": 3252, "\u2581World": 3253, "\u2581added": 3254, "\u2581alta": 3255, "\u2581camera": 3256, "\u2581clubs": 3257, "\u2581estri": 3258, "\u2581informe": 3259, "\u2581objects": 3260, "\u2581road": 3261, "\u2581Africa": 3262, "\u2581Agafa": 3263, "\u2581Copyright": 3264, "\u2581Daniel": 3265, "\u2581Hauria": 3266, "\u2581certificat": 3267, "\u2581importants": 3268, "\u2581pass": 3269, "\u2581printer": 3270, "\u2581suppose": 3271, "\u2581alarm": 3272, "\u2581cover": 3273, "\u2581load": 3274, "\u2581quick": 3275, "\u2581retalls": 3276, "\u2581vinga": 3277, "In": 3278, "\u2581Those": 3279, "\u2581diguis": 3280, "\u2581exists": 3281, "\u2581instance": 3282, "\u2581lived": 3283, "\u2581spend": 3284, "\u2581Di": 3285, "\u2581Jon": 3286, "\u2581KMail": 3287, "\u2581Matt": 3288, "\u2581accept": 3289, "\u2581arranjament": 3290, "\u2581lying": 3291, "\u2581rang": 3292, "ted": 3293, "\u2581French": 3294, "\u2581car\u00e0cter": 3295, "\u2581correctament": 3296, "\u2581inter": 3297, "\u2581los": 3298, "\u2581milers": 3299, "\u2581Deixeu": 3300, "\u2581IP": 3301, "\u2581enemy": 3302, "\u2581grow": 3303, "\u2581podries": 3304, "\u2581theme": 3305, "ov": 3306, "\u2581articles": 3307, "\u2581diamonds": 3308, "\u2581documentaci\u00f3": 3309, "\u2581evening": 3310, "\u2581inter\u00e8s": 3311, "\u2581mouth": 3312, "\u2581technology": 3313, "\u2581\u00fanica": 3314, "ize": 3315, "\u2581Konqueror": 3316, "\u2581caught": 3317, "\u2581documentation": 3318, "\u2581learned": 3319, "\u2581resource": 3320, "\u2581transport": 3321, "\u2581\u00fanic": 3322, "Com": 3323, "den": 3324, "ec": 3325, "lu": 3326, "\u2581,\"": 3327, "\u2581Altesa": 3328, "\u2581Fine": 3329, "\u2581Information": 3330, "\u2581Unknown": 3331, "\u2581accedir": 3332, "\u2581ciutadans": 3333, "\u2581double": 3334, "\u2581gods": 3335, "\u2581innocent": 3336, "\u2581interval": 3337, "\u2581plaer": 3338, "\u2581tag": 3339, "dors": 3340, "istes": 3341, "mer": 3342, "\u25810.": 3343, "\u2581criminal": 3344, "\u2581morta": 3345, "\u2581required": 3346, "old": 3347, "\u2581ISO": 3348, "\u2581conjunt": 3349, "\u2581planet": 3350, "\u2581science": 3351, "\u2581senyal": 3352, "\u2581sky": 3353, "\u2581train": 3354, "Al": 3355, "habitaci\u00f3": 3356, "\u00fa": 3357, "\u2581Someone": 3358, "\u2581aigua": 3359, "\u2581comunicaci\u00f3": 3360, "\u2581fair": 3361, "\u2581recuperar": 3362, "\u2581spaces": 3363, "\u2581Au": 3364, "\u2581Out": 3365, "\u2581petits": 3366, "\u2581qualitat": 3367, "che": 3368, "ko": 3369, "\u2581deep": 3370, "\u2581mitjan\u00e7ant": 3371, "\u2581objectiu": 3372, "\u2581wrote": 3373, "\u2581Jim": 3374, "\u2581Joffrey": 3375, "\u2581Menu": 3376, "\u2581Spock": 3377, "\u2581decision": 3378, "\u2581defecte": 3379, "\u2581hum\u00e0": 3380, "\u2581just\u00edcia": 3381, "\u2581passi": 3382, "\u2581plaf\u00f3": 3383, "\u2581preu": 3384, "\u2581progress": 3385, "\u2581tecnologia": 3386, "cu": 3387, "pen": 3388, "\u2581Clear": 3389, "\u2581Shut": 3390, "\u2581Since": 3391, "\u2581community": 3392, "\u2581deck": 3393, "\u2581far\u00e0s": 3394, "\u2581host": 3395, "\u2581llibres": 3396, "energia": 3397, "par": 3398, "\u2581THAT": 3399, "\u2581angle": 3400, "\u2581entorn": 3401, "\u2581template": 3402, "\u2581Copia": 3403, "\u2581Mar": 3404, "\u2581Mother": 3405, "\u2581bonic": 3406, "\u2581broken": 3407, "\u2581casar": 3408, "\u2581confian\u00e7a": 3409, "\u2581except": 3410, "\u2581execuci\u00f3": 3411, "\u2581install": 3412, "\u2581passar\u00e0": 3413, "\u2581recordo": 3414, "lic": 3415, "\u2581Ace": 3416, "\u2581Java": 3417, "\u2581Qualsevol": 3418, "\u2581rank": 3419, "reu": 3420, "\u2581a\u00e7\u00f2": 3421, "\u2581companyia": 3422, "\u2581construeixen": 3423, "\u2581llenguatge": 3424, "\u2581nano": 3425, "\u2581pogu\u00e9s": 3426, "\u2581rich": 3427, "\u2581trencar": 3428, "bit": 3429, "\u2581Configuration": 3430, "\u2581House": 3431, "\u2581Size": 3432, "\u2581ahir": 3433, "\u2581due": 3434, "\u2581handle": 3435, "\u2581import": 3436, "\u2581involved": 3437, "\u2581lord": 3438, "\u2581saben": 3439, "\u2581vulguis": 3440, "\u2581wall": 3441, "\u25814.": 3442, "\u2581IN": 3443, "\u2581Nombre": 3444, "\u2581Ro": 3445, "\u2581anywhere": 3446, "\u2581bons": 3447, "\u2581honest": 3448, "\u2581mistake": 3449, "\u2581wonder": 3450, "\")": 3451, "\u2581Exporta": 3452, "\u2581Hide": 3453, "\u2581baixar": 3454, "\u2581bits": 3455, "\u2581sistemes": 3456, "\u2581super": 3457, "\u2581versions": 3458, "\u2581widget": 3459, "\u2581Capit\u00e0": 3460, "\u2581Down": 3461, "\u2581haurien": 3462, "\u2581notes": 3463, "\u2581papa": 3464, "\u2581Empty": 3465, "\u2581Informaci\u00f3": 3466, "\u2581Play": 3467, "\u2581Pre": 3468, "\u2581escolta": 3469, "\u2581locals": 3470, "\u2581material": 3471, "\u2581par\u00e0metres": 3472, "\u2581planeta": 3473, "Re": 3474, "age": 3475, "cause": 3476, "world": 3477, "you": 3478, "\u2581Current": 3479, "\u2581Linux": 3480, "\u2581ac\u00ed": 3481, "\u2581almenys": 3482, "\u2581categories": 3483, "\u2581dates": 3484, "\u2581photo": 3485, "\u2581rain": 3486, "\u2581scared": 3487, "\u2581sexual": 3488, "\u2581types": 3489, "De": 3490, "ED": 3491, "min": 3492, "\u25812)": 3493, "\u2581Should": 3494, "\u2581books": 3495, "\u2581controlar": 3496, "\u2581terms": 3497, "dos": 3498, "\u2581Everyone": 3499, "\u2581animal": 3500, "\u2581certificate": 3501, "\u2581keyboard": 3502, "\u2581ourselves": 3503, "\u2581pull": 3504, "ita": 3505, "\u2581James": 3506, "\u2581Many": 3507, "\u2581consell": 3508, "\u2581repartir": 3509, "\u2581volta": 3510, "\u2581waste": 3511, "ism": 3512, "ow": 3513, "\u2581Barra": 3514, "\u2581Endavant": 3515, "\u2581Nice": 3516, "GenericName": 3517, "rd": 3518, "\u2581Nick": 3519, "\u2581closed": 3520, "\u2581creat": 3521, "\u2581nobody": 3522, "\u2581pres": 3523, "\u2581systems": 3524, "\u2581vau": 3525, "\u2581Configuraci\u00f3": 3526, "\u2581Manual": 3527, "\u2581complet": 3528, "\u2581defined": 3529, "\u2581digital": 3530, "\u2581policies": 3531, "\u2581research": 3532, "\u2581strange": 3533, "ets": 3534, "org": 3535, "\u2581IMAP": 3536, "\u2581Seven": 3537, "\u2581Wall": 3538, "\u2581Welcome": 3539, "\u2581enll\u00e0": 3540, "\u2581existing": 3541, "\u2581introdu\u00efu": 3542, "\u2581killing": 3543, "\u2581standing": 3544, "\u2581v\u00edctimes": 3545, "els": 3546, "\u2581Another": 3547, "\u2581Barney": 3548, "\u2581Hank": 3549, "\u2581camps": 3550, "\u2581green": 3551, "\u2581ideas": 3552, "\u2581vagi": 3553, "\u2581Network": 3554, "\u2581None": 3555, "\u2581Say": 3556, "\u2581note": 3557, "\u2581respondre": 3558, "ate": 3559, "r\u00e0s": 3560, "\u2581Marie": 3561, "\u2581botons": 3562, "\u2581center": 3563, "\u2581cita": 3564, "\u2581divertit": 3565, "\u2581herself": 3566, "\u2581oficial": 3567, "\u2581vertical": 3568, "\u2581Ca": 3569, "\u2581earth": 3570, "\u2581games": 3571, "\u2581haureu": 3572, "\u2581health": 3573, "\u2581hidden": 3574, "\u2581siguis": 3575, "\u2581wedding": 3576, "\u2581welcome": 3577, "end": 3578, "\u2581Importa": 3579, "\u2581enlla\u00e7": 3580, "\u2581virtual": 3581, "\u2581Sub": 3582, "\u2581Whil": 3583, "\u2581presentar": 3584, "\u2581previous": 3585, "\u2581r\u00e0pidament": 3586, "\u2581square": 3587, "\u2581\u00e8xit": 3588, ".]": 3589, "sis": 3590, "\u2581Leave": 3591, "\u2581Proctor": 3592, "\u2581Sometimes": 3593, "\u2581doubt": 3594, "\u2581mesura": 3595, "\u2581Photo": 3596, "\u2581club": 3597, "\u2581index": 3598, "\u2581official": 3599, "ena": 3600, "\u2581Toolbar": 3601, "\u2581download": 3602, "\u2581draw": 3603, "\u2581horrible": 3604, "\u2581nuclear": 3605, "\u2581th": 3606, "\u2581tocar": 3607, "\u2581\u00faltima": 3608, "\u2581Tommy": 3609, "\u2581suposo": 3610, "\u258121": 3611, "\u2581agents": 3612, "\u2581corner": 3613, "\u2581culture": 3614, "\u2581dealing": 3615, "\u2581holding": 3616, "\u2581marxa": 3617, "\u2581podrien": 3618, "\u2581professional": 3619, "mes": 3620, "via": 3621, "\u2581CVS": 3622, "\u2581h": 3623, "\u2581lower": 3624, "&": 3625, "\u2581Lily": 3626, "\u2581Pa": 3627, "\u2581Saga": 3628, "\u2581Street": 3629, "\u2581armes": 3630, "\u2581hist\u00f2ries": 3631, "\u2581pluja": 3632, "\u2581series": 3633, "off": 3634, "ous": 3635, "\u2581com\u00fa": 3636, "\u2581desitgeu": 3637, "\u2581directly": 3638, "\u2581fault": 3639, "\u2581gust": 3640, "\u2581poblaci\u00f3": 3641, "\u2581premeu": 3642, "\u2581realize": 3643, "\u2581swear": 3644, "\u2581tr\u00e8vols": 3645, "\u2581vent": 3646, "\u00edem": 3647, "\u2581Leonard": 3648, "\u2581catch": 3649, "\u2581executable": 3650, "\u2581subject": 3651, "\u2581Chris": 3652, "\u2581Mark": 3653, "\u2581certainly": 3654, "\u2581direcci\u00f3": 3655, "\u2581hotel": 3656, "\u2581justice": 3657, "\u2581module": 3658, "\u2581suficient": 3659, "\u2581DE": 3660, "\u2581Pensava": 3661, "\u2581motiu": 3662, "\u2581private": 3663, "\u2581surt": 3664, "\u2581torni": 3665, "00": 3666, "ong": 3667, "\u2581Claire": 3668, "\u2581Penny": 3669, "\u2581West": 3670, "\u2581agree": 3671, "\u2581piques": 3672, "\u2581role": 3673, "\u2581silenci": 3674, "\u2581unless": 3675, "AT": 3676, "Si": 3677, "\u2581Central": 3678, "\u2581immigrants": 3679, "\u2581marca": 3680, "\u2581possibilitat": 3681, "\u2581services": 3682, "\u2581worried": 3683, "net": 3684, "\u2581conversa": 3685, "\u2581estimada": 3686, "\u2581reproducci\u00f3": 3687, "\u2581segueix": 3688, "\u2581torn": 3689, "\u2581useu": 3690, "etes": 3691, "\u2581dintre": 3692, "\u2581include": 3693, "\u2581miles": 3694, "\u2581results": 3695, "\u2581\u00e2TMa": 3696, "\u2581Ser\u00e0": 3697, "\u2581actions": 3698, "\u2581assegurar": 3699, "\u2581buits": 3700, "\u2581coll": 3701, "\u2581Manager": 3702, "\u2581forecast": 3703, "\u2581international": 3704, "\u2581lar": 3705, "\u2581preparat": 3706, "\u2581rate": 3707, "\u2581sell": 3708, "IN": 3709, "Jo": 3710, "\u2581State": 3711, "\u2581koffice": 3712, "\u2581resoldre": 3713, "amp": 3714, "can": 3715, "l\u00edcula": 3716, "port": 3717, "ron": 3718, "\u2581broke": 3719, "\u2581connectar": 3720, "\u2581forat": 3721, "\u2581refer\u00e8ncia": 3722, "\u2581sun": 3723, "\u2581\u00faltim": 3724, "EN": 3725, "\u2581Joc": 3726, "\u2581entries": 3727, "\u2581multi": 3728, "uc": 3729, "\u2581Key": 3730, "\u2581Snow": 3731, "\u2581Tools": 3732, "\u2581UNIX": 3733, "\u2581contain": 3734, "\u2581fou": 3735, "\u2581freedom": 3736, "\u2581pit": 3737, "\u2581regles": 3738, "\u2581totalment": 3739, "\u2581visual": 3740, "gu": 3741, "ium": 3742, "\u2581Commission": 3743, "\u2581Xina": 3744, "\u2581agenda": 3745, "\u2581complex": 3746, "\u2581cross": 3747, "\u2581deixeu": 3748, "\u2581feature": 3749, "\u2581link": 3750, "\u2581tornada": 3751, "\u2581vendre": 3752, "11": 3753, "Well": 3754, "tin": 3755, "\u2581Super": 3756, "\u2581component": 3757, "\u2581cultura": 3758, "\u2581esta": 3759, "\u2581held": 3760, "\u2581pictures": 3761, "\u2581sweet": 3762, "\u2581vestit": 3763, "\u2581Chuck": 3764, "\u2581Cosimo": 3765, "\u2581assistent": 3766, "\u2581calls": 3767, "\u2581lucky": 3768, "\u2581nature": 3769, "\u2581reuni\u00f3": 3770, "ier": 3771, "\u2581arrest": 3772, "\u2581decide": 3773, "\u2581idees": 3774, "\u2581quantes": 3775, "\u2581resources": 3776, "\u2581seguida": 3777, "NAME": 3778, "ya": 3779, "\u2581300": 3780, "\u2581Aaron": 3781, "\u2581Ells": 3782, "\u2581Ta": 3783, "\u2581Whatever": 3784, "\u2581acord": 3785, "\u2581atenci\u00f3": 3786, "\u2581energia": 3787, "\u2581forta": 3788, "\u2581idioma": 3789, "\u2581publicar": 3790, "ful": 3791, "\u2581Cliqueu": 3792, "\u2581Father": 3793, "\u2581Jean": 3794, "\u2581followed": 3795, "\u2581interf\u00edcie": 3796, "\u2581lectura": 3797, "\u258123": 3798, "\u2581assassinat": 3799, "\u2581bus": 3800, "\u2581carn": 3801, "\u2581interface": 3802, "\u2581n\u00fameros": 3803, "\u2581pic": 3804, "\u2581Segons": 3805, "\u2581bell": 3806, "\u2581comen\u00e7at": 3807, "\u2581direction": 3808, "\u2581evidence": 3809, "\u2581forever": 3810, "\u2581island": 3811, "\u2581programari": 3812, "\u2581relationship": 3813, "\u2581wonderful": 3814, "\u2581\u00e0udio": 3815, "cat": 3816, "\u2581Agent": 3817, "\u2581Iran": 3818, "\u2581Para": 3819, "\u2581PostScript": 3820, "\u2581board": 3821, "\u2581comunitat": 3822, "\u2581gana": 3823, "\u2581gens": 3824, "\u2581imaginar": 3825, "\u2581military": 3826, "\u2581paid": 3827, "OR": 3828, "sk": 3829, "\u2581angl\u00e8s": 3830, "\u2581hundred": 3831, "\u2581likely": 3832, "\u2581member": 3833, "\u2581mostren": 3834, "Yes": 3835, "\u2581aspecte": 3836, "\u2581dist\u00e0ncia": 3837, "\u2581m\u00faltiples": 3838, "\u2581temes": 3839, "\u2581tools": 3840, "\u2581turns": 3841, "ence": 3842, "lega": 3843, "pre": 3844, "\u2581Am\u00e8rica": 3845, "\u2581Normal": 3846, "\u2581appropriate": 3847, "\u2581comprovar": 3848, "\u2581continua": 3849, "\u2581disk": 3850, "\u2581kopete": 3851, "\u2581signatura": 3852, "\u2581v\u00e0lida": 3853, "\u2581c\u00e0rrec": 3854, "\u2581especially": 3855, "\u2581etiquetes": 3856, "\u2581god": 3857, "\u2581l\u00edmit": 3858, "\u2581members": 3859, "\u2581unknown": 3860, "loca": 3861, "\u2581%3": 3862, "\u2581Sansa": 3863, "\u2581arriba": 3864, "\u2581behavior": 3865, "\u2581citizens": 3866, "\u2581especificar": 3867, "\u2581inmenu": 3868, "\u2581ocupat": 3869, "\u2581producte": 3870, "\u2581smart": 3871, "ordre": 3872, "\u25813,": 3873, "\u2581Nosaltres": 3874, "\u2581clothes": 3875, "\u2581experi\u00e8ncia": 3876, "\u2581kspread": 3877, "\u2581website": 3878, "\u2581Christ": 3879, "\u2581YOU": 3880, "\u2581alarma": 3881, "\u2581bug": 3882, "\u2581costa": 3883, "\u2581higher": 3884, "\u2581oil": 3885, "\u2581passed": 3886, "\u2581powerful": 3887, "\u2581product": 3888, "\u2581reach": 3889, "\u2581tren": 3890, "\u2581\u00faltims": 3891, "lin": 3892, "\u2581Prou": 3893, "\u2581arma": 3894, "\u2581campanya": 3895, "\u2581editar": 3896, "\u2581fred": 3897, "\u2581limit": 3898, "\u2581necessites": 3899, "\u2581plane": 3900, "\u2581rellotge": 3901, "\u2581seleccionats": 3902, "\u2581tooltip": 3903, "\u2581z": 3904, "Riures": 3905, "\u2581Eines": 3906, "\u2581Ex": 3907, "\u2581Paris": 3908, "\u2581activa": 3909, "\u2581corrent": 3910, "\u2581estimat": 3911, "\u2581hasn": 3912, "\u2581killer": 3913, "\u2581llarga": 3914, "\u2581m\u00e0xima": 3915, "\u2581parles": 3916, "\u2581pista": 3917, "\u2581podr\u00e0": 3918, "\u2581slow": 3919, "\u2581star": 3920, "\u2581buides": 3921, "\u2581mestre": 3922, "\u2581m\u00f2dul": 3923, "\u2581scene": 3924, "\u25811:": 3925, "\u2581Calla": 3926, "\u2581Paul": 3927, "\u2581Segueix": 3928, "\u2581diff": 3929, "\u2581robar": 3930, "\u2581spades": 3931, "\u2581tenien": 3932, "but": 3933, "\u258190": 3934, "\u2581Other": 3935, "\u2581Posa": 3936, "\u2581War": 3937, "\u2581comportament": 3938, "\u2581crim": 3939, "\u2581fish": 3940, "\u2581mark": 3941, "\u2581rep": 3942, "\u2581signature": 3943, "\u2581speaking": 3944, "our": 3945, "tro": 3946, "\u2581Anne": 3947, "\u2581Estat": 3948, "\u2581Over": 3949, "\u2581Temps": 3950, "\u2581bonica": 3951, "\u2581diria": 3952, "\u2581especialment": 3953, "\u2581espero": 3954, "\u2581faltar": 3955, "\u2581regions": 3956, "\u2581release": 3957, "\u2581showing": 3958, "\u2581tecles": 3959, "\u2581wear": 3960, "\u2581civil": 3961, "\u2581coneix": 3962, "\u2581partit": 3963, "\u2581pendents": 3964, "\u2581recordes": 3965, "\u2581tra": 3966, "\u2581viol\u00e8ncia": 3967, "12": 3968, "50": 3969, "ial": 3970, "year": 3971, "\u00e7": 3972, "\u2581Chinese": 3973, "\u2581Ka": 3974, "\u2581Log": 3975, "\u2581MB": 3976, "\u2581humana": 3977, "\u2581internet": 3978, "\u2581manage": 3979, "\u2581projectes": 3980, "\u2581r\u00e0pida": 3981, "\u2581sortit": 3982, "\u2581starts": 3983, "\u2581students": 3984, "MB": 3985, "\u2581Mac": 3986, "\u2581Tres": 3987, "\u2581collection": 3988, "\u2581court": 3989, "fe": 3990, "rc": 3991, "\u2581High": 3992, "\u2581Papa": 3993, "\u2581audio": 3994, "\u2581carry": 3995, "\u2581identitat": 3996, "\u2581risc": 3997, "\u2581riu": 3998, "\u2581tele": 3999, "\u2581tindr\u00e0": 4000, "ju": 4001, "key": 4002, "ze": 4003, "\u00c9s": 4004, "\u2581%1:": 4005, "\u2581500": 4006, "\u2581Stefan": 4007, "\u2581Tal": 4008, "\u2581band": 4009, "\u2581dying": 4010, "\u2581ficar": 4011, "\u2581incre\u00efble": 4012, "\u2581pen": 4013, "\u2581seguit": 4014, "\u2581song": 4015, "\u2581Henry": 4016, "\u2581Invalid": 4017, "\u2581Russian": 4018, "\u2581bank": 4019, "\u2581expressi\u00f3": 4020, "\u2581pattern": 4021, "ajuda": 4022, "itz": 4023, "\u2581Local": 4024, "\u2581beat": 4025, "\u2581caf\u00e8": 4026, "\u2581design": 4027, "\u2581excepte": 4028, "\u2581gmail": 4029, "\u2581master": 4030, "\u2581panel": 4031, "\u2581plena": 4032, "\u2581regal": 4033, "\u2581thousands": 4034, "don": 4035, "\u2581Ar": 4036, "\u2581Imatge": 4037, "\u2581Marqueu": 4038, "\u2581careful": 4039, "\u2581membre": 4040, "\u2581negocis": 4041, "\u2581notice": 4042, "\u2581Sap": 4043, "\u2581campaign": 4044, "\u2581custom": 4045, "\u2581fell": 4046, "\u2581identity": 4047, "\u2581mou": 4048, "\u2581permission": 4049, "\u2581pol\u00edtiques": 4050, "\u2581various": 4051, "ors": 4052, "\u2581Colors": 4053, "\u2581Damn": 4054, "\u2581Oculta": 4055, "\u2581Shit": 4056, "\u2581easily": 4057, "\u2581experiment": 4058, "\u2581pe\u00e7a": 4059, "LE": 4060, "cer": 4061, "gg": 4062, "not": 4063, "\u2581Wa": 4064, "\u2581beyond": 4065, "\u2581buttons": 4066, "\u2581confiar": 4067, "\u2581finalment": 4068, "B\u00e9": 4069, "ple": 4070, "\u2581Fill": 4071, "\u2581Light": 4072, "\u2581Line": 4073, "\u2581hang": 4074, "\u2581oferir": 4075, "\u2581opening": 4076, "\u2581parella": 4077, "\u2581stock": 4078, "\u2581trobem": 4079, "\u2581wake": 4080, "ev": 4081, "\u2581Location": 4082, "\u2581Long": 4083, "\u2581beure": 4084, "\u2581bloc": 4085, "\u2581bodies": 4086, "\u2581cultural": 4087, "\u2581drag": 4088, "\u2581konsole": 4089, "\u2581models": 4090, "\u2581moments": 4091, "\u2581ride": 4092, "\u2581soluci\u00f3": 4093, "\u2581wearing": 4094, "\u2581Think": 4095, "\u2581Walt": 4096, "\u2581arm": 4097, "\u2581combat": 4098, "\u2581diagrama": 4099, "\u2581locked": 4100, "\u2581saving": 4101, "\u2581v": 4102, "ab": 4103, "ag": 4104, "ona": 4105, "\u25812002": 4106, "\u2581Actually": 4107, "\u2581Probablement": 4108, "\u2581appears": 4109, "\u2581preview": 4110, "\u2581proud": 4111, "\u2581received": 4112, "\u2581yesterday": 4113, "\u258122": 4114, "\u258180": 4115, "\u2581All\u00e0": 4116, "\u2581Ju": 4117, "\u2581SO": 4118, "\u2581aneu": 4119, "\u2581author": 4120, "\u2581components": 4121, "\u2581enable": 4122, "\u2581gentlemen": 4123, "\u2581lots": 4124, "\u2581method": 4125, "\u2581mitja": 4126, "\u2581towards": 4127, "osos": 4128, "\u2581National": 4129, "\u2581Wow": 4130, "\u2581Written": 4131, "\u2581contactes": 4132, "\u2581di": 4133, "\u2581disseny": 4134, "\u2581formats": 4135, "\u2581lay": 4136, "\u2581propietats": 4137, "\u2581putting": 4138, "\u2581remot": 4139, "\u2581responsible": 4140, "\u2581stick": 4141, "ap": 4142, "ger": 4143, "hospital": 4144, "\u2581Creu": 4145, "\u2581Marshall": 4146, "\u2581Nobody": 4147, "\u2581contrari": 4148, "\u2581fit": 4149, "\u2581foot": 4150, "\u2581motor": 4151, "\u2581ok": 4152, "\u2581propietat": 4153, "\u2581switch": 4154, "\u2581thousand": 4155, "\u2581virus": 4156, "\u2581Description": 4157, "\u2581Escrit": 4158, "\u2581Mel": 4159, "\u2581Senyora": 4160, "\u2581UE": 4161, "\u2581entered": 4162, "\u2581icons": 4163, "\u2581missed": 4164, "\u2581sexe": 4165, "\u2581usat": 4166, "\u2581German": 4167, "\u2581Gu": 4168, "\u2581Sobre": 4169, "\u2581according": 4170, "\u2581education": 4171, "\u2581neu": 4172, "\u2581pestanyes": 4173, "\u2581batalla": 4174, "\u2581jocs": 4175, "\u2581keeping": 4176, "\u2581lliures": 4177, "\u2581localitzaci\u00f3": 4178, "\u2581modern": 4179, "\u2581request": 4180, "\u2581ser\u00e9": 4181, "\u2581soul": 4182, "ON": 4183, "ee": 4184, "ot": 4185, "ud": 4186, "ula": 4187, "zi": 4188, "\u2581Ba": 4189, "\u2581Executa": 4190, "\u2581Saul": 4191, "\u2581Volia": 4192, "\u2581WE": 4193, "\u2581amazing": 4194, "\u2581blow": 4195, "\u2581edici\u00f3": 4196, "\u2581html": 4197, "\u2581su": 4198, "\u2581tornar\u00e0": 4199, "\u2581update": 4200, "\u2581Base": 4201, "\u2581Bob": 4202, "\u2581Comment": 4203, "\u2581angry": 4204, "\u2581dance": 4205, "\u2581emprar": 4206, "\u2581marc": 4207, "\u2581nearly": 4208, "\u2581relacions": 4209, "\u2581semblar": 4210, "\u2581senyoreta": 4211, "amb": 4212, "\u2581Escolliu": 4213, "\u2581commands": 4214, "\u2581escriptura": 4215, "\u2581inicial": 4216, "\u2581moves": 4217, "\u2581nacional": 4218, "\u2581sector": 4219, "\u2581tired": 4220, "\u2581torrent": 4221, "quot": 4222, "ub": 4223, "\u2581Becky": 4224, "\u2581boat": 4225, "\u2581crida": 4226, "\u2581enjoy": 4227, "\u2581tros": 4228, "\u2581veritable": 4229, "\u00fas": 4230, "\u2581Fer": 4231, "\u2581Full": 4232, "\u2581germans": 4233, "\u2581huge": 4234, "\u2581metge": 4235, "\u2581pleasure": 4236, "\u2581prometo": 4237, "\u2581propera": 4238, "\u2581recorda": 4239, "\u2581skin": 4240, "\u2581stood": 4241, "hether": 4242, "\u2581Car": 4243, "\u2581Neteja": 4244, "\u2581Richard": 4245, "\u2581Script": 4246, "\u2581cat": 4247, "\u2581coneixes": 4248, "\u2581meua": 4249, "\u2581navegador": 4250, "\u2581quality": 4251, "\u2581throw": 4252, "bra": 4253, "objectiu": 4254, "\u25812009": 4255, "\u2581Command": 4256, "\u2581Julie": 4257, "\u2581banc": 4258, "\u2581cares": 4259, "\u2581clipboard": 4260, "\u2581finish": 4261, "\u2581kstars": 4262, "\u2581lecci\u00f3": 4263, "\u2581mad": 4264, "\u2581sorpresa": 4265, "let": 4266, "\u00e0vem": 4267, "\u00e1": 4268, "\u2581Realment": 4269, "\u2581canvia": 4270, "\u2581connect": 4271, "\u2581par": 4272, "\u2581reality": 4273, "\u2581secrets": 4274, "\u2581shell": 4275, "her": 4276, "ser": 4277, "sos": 4278, "\u2581Ko": 4279, "\u2581Mama": 4280, "\u2581Press": 4281, "\u2581Properties": 4282, "\u2581enemics": 4283, "\u2581features": 4284, "\u2581fets": 4285, "\u2581movie": 4286, "\u2581protecci\u00f3": 4287, "\u2581records": 4288, "\u2581Kate": 4289, "\u2581ROMEO": 4290, "\u2581condicions": 4291, "\u2581dispositius": 4292, "\u2581however": 4293, "\u2581issues": 4294, "\u2581packages": 4295, "\u2581primers": 4296, "\u2581respostes": 4297, "\u2581Original": 4298, "\u2581Sara": 4299, "\u2581creaci\u00f3": 4300, "\u2581customer": 4301, "\u2581dig": 4302, "\u2581mass": 4303, "\u2581reis": 4304, "\u2581tells": 4305, "\u2581usar\u00e0": 4306, "\u2581victims": 4307, "\u2581\u2022": 4308, "En": 4309, "estan": 4310, "\u00fc": 4311, "\u2581Center": 4312, "\u2581Europa": 4313, "\u2581Rachel": 4314, "\u2581barres": 4315, "\u2581coffee": 4316, "\u2581estaves": 4317, "\u2581false": 4318, "\u2581fields": 4319, "\u2581knowledge": 4320, "\u2581metres": 4321, "\u2581pell": 4322, "\u2581speech": 4323, "Ho": 4324, "integer": 4325, "\u25812004": 4326, "\u2581Baixa": 4327, "\u2581Comen\u00e7a": 4328, "\u2581Day": 4329, "\u2581Morgan": 4330, "\u2581Tim": 4331, "\u2581apart": 4332, "\u2581apar\u00e8ixer": 4333, "\u2581investigaci\u00f3": 4334, "\u2581learning": 4335, "\u2581marcat": 4336, "\u2581sobte": 4337, "\u2581ta": 4338, "arribar": 4339, "\u2581acceptar": 4340, "\u2581attribute": 4341, "\u2581connected": 4342, "\u2581magic": 4343, "\u2581plus": 4344, "\u2581training": 4345, "\u25812003": 4346, "\u2581Draw": 4347, "\u2581billion": 4348, "\u2581bosc": 4349, "\u2581empresa": 4350, "\u2581llest": 4351, "\u2581movement": 4352, "\u2581opportunity": 4353, "\u2581pilot": 4354, "\u2581pobre": 4355, "\u2581study": 4356, "\u2581xarxes": 4357, "vol": 4358, "\u2581Gestor": 4359, "\u2581Japan": 4360, "\u2581Useu": 4361, "\u2581charge": 4362, "\u2581fool": 4363, "\u2581gift": 4364, "\u2581grid": 4365, "\u2581separate": 4366, "\u2581trans": 4367, "\u2581trobo": 4368, "\u2581Lo": 4369, "\u2581absolut": 4370, "\u2581easier": 4371, "\u2581marcada": 4372, "\u2581tracte": 4373, "\u2581violence": 4374, "gan": 4375, "white": 4376, "\u2581Casa": 4377, "\u2581Ethan": 4378, "\u2581bear": 4379, "\u2581boss": 4380, "\u2581conversation": 4381, "\u2581creating": 4382, "\u2581desig": 4383, "\u2581digu\u00e9": 4384, "\u2581enlloc": 4385, "\u2581oberta": 4386, "\u2581period": 4387, "\u2581player": 4388, "\u2581weird": 4389, "\u2581wine": 4390, "del": 4391, "name": 4392, "\u2581Brody": 4393, "\u2581Selection": 4394, "\u2581Son": 4395, "\u2581estaria": 4396, "\u2581feed": 4397, "\u2581fotografia": 4398, "\u2581gesti\u00f3": 4399, "\u2581importar": 4400, "\u2581laci\u00f3": 4401, "\u2581m\u00f2bil": 4402, "\u2581purpose": 4403, "\u2581recently": 4404, "day": 4405, "\u2581Eva": 4406, "\u2581Japanese": 4407, "\u2581Pi": 4408, "\u2581Thomas": 4409, "\u2581amiga": 4410, "\u2581capa": 4411, "\u2581honey": 4412, "\u2581issue": 4413, "\u2581m\u00e0quines": 4414, "\u2581papers": 4415, "\u2581pol\u00edtic": 4416, "\u2581senyors": 4417, "\u2581stars": 4418, "\u2581vermell": 4419, "ance": 4420, "ban": 4421, "\u2581Member": 4422, "\u2581Sun": 4423, "\u2581Video": 4424, "\u2581escapar": 4425, "\u2581population": 4426, "\u2581ruta": 4427, "\u2581salut": 4428, "\u2581scripts": 4429, "Un": 4430, "ating": 4431, "v\u00edem": 4432, "\u2581Lu": 4433, "\u2581Maggie": 4434, "\u2581provides": 4435, "\u2581suddenly": 4436, "berg": 4437, "br": 4438, "dre": 4439, "ligent": 4440, "\u2581Before": 4441, "\u2581Lance": 4442, "\u2581PC": 4443, "\u2581Quants": 4444, "\u2581estrelles": 4445, "\u2581hole": 4446, "\u2581marriage": 4447, "\u2581requereix": 4448, "\u2581serve": 4449, "\u2581voldria": 4450, "ick": 4451, "\u2581Tingueu": 4452, "\u2581arguments": 4453, "\u2581dibuixar": 4454, "\u2581dimonis": 4455, "\u2581expected": 4456, "\u2581remain": 4457, "\u2581senzill": 4458, "\u2581tall": 4459, "\u2581tancat": 4460, "\u2581victim": 4461, "\u2581vulgui": 4462, "su": 4463, "\u2581Passa": 4464, "\u2581all\u00ed": 4465, "\u2581anir\u00e0": 4466, "\u2581necessitat": 4467, "dora": 4468, "hmm": 4469, "\u2581Filtre": 4470, "\u2581Spanish": 4471, "\u2581Today": 4472, "\u2581aware": 4473, "\u2581descripci\u00f3": 4474, "\u2581destroy": 4475, "\u2581gira": 4476, "\u2581listening": 4477, "\u2581pols": 4478, "\u2581practice": 4479, "\u2581published": 4480, "\u2581structure": 4481, "ated": 4482, "way": 4483, "\u2581Queda": 4484, "\u2581Zoom": 4485, "\u2581apartment": 4486, "\u2581corre": 4487, "\u2581shared": 4488, "\u2581troben": 4489, "\u2581utilitza": 4490, "\u2581variables": 4491, "ible": 4492, "\u2581Address": 4493, "\u2581FBI": 4494, "\u2581Part": 4495, "\u2581Sal": 4496, "\u2581Surt": 4497, "\u2581Wilson": 4498, "\u2581basat": 4499, "\u2581columnes": 4500, "\u2581conduir": 4501, "\u2581patr\u00f3": 4502, "\u2581price": 4503, "\u2581shape": 4504, "\u2581station": 4505, "\u2581trobes": 4506, "caracter\u00edstiques": 4507, "\u25812005": 4508, "\u2581Antoni": 4509, "\u2581absolutely": 4510, "\u2581actiu": 4511, "\u2581guanyat": 4512, "\u2581ice": 4513, "\u2581letters": 4514, "\u2581petites": 4515, "\u2581pol\u00edtics": 4516, "\u2581ring": 4517, "\u2581sight": 4518, "\u2581sons": 4519, "\u2581totally": 4520, "ville": 4521, "\u2581Mail": 4522, "\u2581battle": 4523, "\u2581bridge": 4524, "\u2581distance": 4525, "\u2581languages": 4526, "\u2581mor": 4527, "\u2581sat": 4528, "\u2581teach": 4529, "\u2581wrap": 4530, "\u25812000": 4531, "\u2581Easy": 4532, "\u2581End": 4533, "\u2581Millor": 4534, "\u2581Molts": 4535, "\u2581border": 4536, "\u2581coi": 4537, "\u2581driver": 4538, "\u2581esperava": 4539, "\u2581fugir": 4540, "\u2581gel": 4541, "\u2581llegit": 4542, "\u2581m\u00e8tode": 4543, "\u2581reached": 4544, "\u2581snow": 4545, "\u2581spoke": 4546, "\u2581walking": 4547, "\u2581www": 4548, "And": 4549, "vis": 4550, "\u2581Custom": 4551, "\u2581Ga": 4552, "\u2581Main": 4553, "\u2581Necessitem": 4554, "\u2581Still": 4555, "\u2581Turn": 4556, "\u2581arxiu": 4557, "\u2581constant": 4558, "\u2581modificar": 4559, "\u2581oblidat": 4560, "\u2581positive": 4561, "\u2581property": 4562, "\u2581returned": 4563, "\u2581sword": 4564, "estava": 4565, "star": 4566, "ung": 4567, "\u25810,": 4568, "\u2581Diego": 4569, "\u2581Ne": 4570, "\u2581Sou": 4571, "\u2581mm": 4572, "\u2581sending": 4573, "\u2581v\u00e9s": 4574, "#": 4575, "\u2581Connector": 4576, "\u2581Eina": 4577, "\u2581Force": 4578, "\u2581Mur": 4579, "\u2581Parla": 4580, "\u2581Pila": 4581, "\u2581burn": 4582, "\u2581can\u00e7\u00f3": 4583, "\u2581correcta": 4584, "\u2581jobs": 4585, "\u2581kpresenter": 4586, "\u2581pis": 4587, "\u2581pren": 4588, "\u2581sona": 4589, "\u2581term": 4590, "ou": 4591, "van": 4592, "\u25811%": 4593, "\u25811,": 4594, "\u2581Bye": 4595, "\u2581Double": 4596, "\u2581Eric": 4597, "\u2581Source": 4598, "\u2581economic": 4599, "\u2581judici": 4600, "\u2581photos": 4601, "\u2581puguin": 4602, "pot": 4603, "\u2581Comprova": 4604, "\u2581Felicity": 4605, "\u2581afternoon": 4606, "\u2581distribuci\u00f3": 4607, "\u2581probable": 4608, "\u2581reports": 4609, "\u2581trucada": 4610, "Do": 4611, "cul": 4612, "kde": 4613, "ph": 4614, "\u25814,": 4615, "\u2581Washington": 4616, "\u2581areas": 4617, "\u2581bigger": 4618, "\u2581comentaris": 4619, "\u2581devices": 4620, "\u2581digues": 4621, "\u2581disposici\u00f3": 4622, "\u2581enemies": 4623, "\u2581foreign": 4624, "\u2581formes": 4625, "\u2581perfecte": 4626, "\u2581protection": 4627, "\u2581p\u00fablica": 4628, "mail": 4629, "pt": 4630, "\u00e8ncia": 4631, "\u2581Hauries": 4632, "\u2581agafa": 4633, "\u2581amable": 4634, "\u2581ci\u00e8ncia": 4635, "\u2581considered": 4636, "\u2581internacional": 4637, "\u2581mitjana": 4638, "\u2581officer": 4639, "\u2581sad": 4640, "\u2581tallar": 4641, "\u2581temporal": 4642, "RA": 4643, "\u2581Far": 4644, "\u2581Monroe": 4645, "\u2581Night": 4646, "\u2581Romeo": 4647, "\u2581Tool": 4648, "\u2581led": 4649, "\u2581perill\u00f3s": 4650, "\u2581pont": 4651, "\u2581tercer": 4652, "gue": 4653, "\u2581Five": 4654, "\u2581HTTP": 4655, "\u2581Toggle": 4656, "\u2581atac": 4657, "\u2581category": 4658, "\u2581continuaci\u00f3": 4659, "\u2581depend": 4660, "\u2581encoding": 4661, "\u2581escape": 4662, "\u2581especials": 4663, "\u2581especificat": 4664, "\u2581foundation": 4665, "\u2581gr\u00e0fica": 4666, "\u2581hero": 4667, "\u2581murdered": 4668, "\u2581necessiten": 4669, "\u2581quedat": 4670, "\u2581representa": 4671, "\u2581symbol": 4672, ";}": 4673, "\u2581Client": 4674, "\u2581Propietats": 4675, "\u2581calma": 4676, "\u2581capacitat": 4677, "\u2581demana": 4678, "\u2581dreams": 4679, "\u2581dreceres": 4680, "\u2581driving": 4681, "\u2581everywhere": 4682, "\u2581missi\u00f3": 4683, "\u2581penseu": 4684, "\u2581perform": 4685, "\u2581represent": 4686, "Iran": 4687, "oportunitat": 4688, "{": 4689, "\u00e8s": 4690, "\u25812014": 4691, "\u2581Descripci\u00f3": 4692, "\u2581Massa": 4693, "\u2581Pod": 4694, "\u2581Tranquil": 4695, "\u2581credit": 4696, "\u2581earlier": 4697, "\u2581enlla\u00e7os": 4698, "\u2581escolliu": 4699, "\u2581feels": 4700, "\u2581matrimoni": 4701, "\u2581mireu": 4702, "\u2581otherwise": 4703, "\u2581permeten": 4704, "\u2581rows": 4705, "\u2581salt": 4706, "\u2581spread": 4707, "\u2581tirar": 4708, "\u2581trade": 4709, "\u2581wind": 4710, "ep": 4711, "locar": 4712, "ob": 4713, "\u25815.": 4714, "\u2581calm": 4715, "\u2581drunk": 4716, "\u2581orders": 4717, "\u2581seat": 4718, "\u2581televisi\u00f3": 4719, "\u2581volum": 4720, "\u2581Selecci\u00f3": 4721, "\u2581Simplement": 4722, "\u2581donar\u00e9": 4723, "\u2581favorite": 4724, "\u2581marry": 4725, "\u2581ministre": 4726, "\u2581startup": 4727, "\u2581strength": 4728, "\u2581surprise": 4729, "\u2581visi\u00f3": 4730, "\u2581width": 4731, "nc": 4732, "\u2581London": 4733, "\u2581Treu": 4734, "\u2581aixecar": 4735, "\u2581browser": 4736, "\u2581entens": 4737, "\u2581indeed": 4738, "\u2581resulta": 4739, "\u2581rock": 4740, "\u2581vote": 4741, "encanta": 4742, "tur": 4743, "\u2581Amy": 4744, "\u2581Fitxers": 4745, "\u2581cavall": 4746, "\u2581cuina": 4747, "\u2581equivocat": 4748, "\u2581havies": 4749, "\u2581pocs": 4750, "\u2581pop": 4751, "\u2581showed": 4752, "\u2581trucat": 4753, "Cause": 4754, "edat": 4755, "elles": 4756, "itzaci\u00f3": 4757, "om": 4758, "ring": 4759, "use": 4760, "\u2581Cor": 4761, "\u2581Negre": 4762, "\u2581arms": 4763, "\u2581arrived": 4764, "\u2581blind": 4765, "\u2581direct": 4766, "\u2581enemic": 4767, "\u2581estructura": 4768, "\u2581funcions": 4769, "\u2581hungry": 4770, "\u2581malalt": 4771, "\u2581response": 4772, "\u2581soroll": 4773, "\u2581visita": 4774, "\u2581v\u00edctima": 4775, "chi": 4776, "oficina": 4777, "sim": 4778, "space": 4779, "\u2581Mmm": 4780, "\u2581Update": 4781, "\u2581basic": 4782, "\u2581curs": 4783, "\u2581reasons": 4784, "\u2581sheet": 4785, "\u2581trip": 4786, "20": 4787, "equip": 4788, "hu": 4789, "lat": 4790, "set": 4791, "\u25812008": 4792, "\u2581construcci\u00f3": 4793, "\u2581haig": 4794, "\u2581independent": 4795, "\u2581intentat": 4796, "\u2581millorar": 4797, "\u2581pertany": 4798, "\u2581responsable": 4799, "\u2581visualitzaci\u00f3": 4800, "cc": 4801, "ex\u00e8rcit": 4802, "sin": 4803, "\u2581Diu": 4804, "\u2581Permet": 4805, "\u2581aquelles": 4806, "\u2581bra\u00e7": 4807, "\u2581deixar\u00e9": 4808, "\u2581meaning": 4809, "\u2581netejar": 4810, "\u2581occurred": 4811, "\u2581per\u00edode": 4812, "\u2581prefer": 4813, "\u2581quins": 4814, "\u2581replace": 4815, "ized": 4816, "je": 4817, "lit": 4818, "vin": 4819, "\u2581Dem\u00e0": 4820, "\u2581Los": 4821, "\u2581amagar": 4822, "\u2581cliqueu": 4823, "\u2581gt": 4824, "\u2581indica": 4825, "\u2581layout": 4826, "\u2581prometre": 4827, "\u2581promised": 4828, "\u2581push": 4829, "\u2581p\u00e8rdua": 4830, "\u2581regi\u00f3": 4831, "\u2581saltar": 4832, "\u2581smell": 4833, "tan": 4834, "\u2581Always": 4835, "\u2581Fe": 4836, "\u2581Green": 4837, "\u2581Robb": 4838, "\u2581alhora": 4839, "\u2581companys": 4840, "\u2581generaci\u00f3": 4841, "\u2581interior": 4842, "\u2581oncle": 4843, "\u2581possibly": 4844, "\u2581rare": 4845, "ham": 4846, "ira": 4847, "pl": 4848, "\u00e0ria": 4849, "\u2581Access": 4850, "\u2581East": 4851, "\u2581chosen": 4852, "\u2581export": 4853, "\u2581faith": 4854, "\u2581moviments": 4855, "\u2581prevent": 4856, "\u2581printing": 4857, "\u2581streets": 4858, "\u2581utilitzant": 4859, "dy": 4860, "tiu": 4861, "ular": 4862, "\u2581Carl": 4863, "\u2581Havi": 4864, "\u2581Kings": 4865, "\u2581Wi": 4866, "\u2581blau": 4867, "\u2581certificats": 4868, "\u2581liked": 4869, "\u2581north": 4870, "\u2581older": 4871, "\u2581prove": 4872, "\u2581ya": 4873, "That": 4874, "ica": 4875, "\u2581Pensa": 4876, "\u2581definir": 4877, "\u2581moral": 4878, "\u2581responsabilitat": 4879, "\u2581twice": 4880, "\u2581worst": 4881, "ani": 4882, "mb": 4883, "uri": 4884, "usa": 4885, "\u2581GUI": 4886, "\u2581Hodor": 4887, "\u2581JavaScript": 4888, "\u2581Maximum": 4889, "\u2581agafat": 4890, "\u2581avoid": 4891, "\u2581concert": 4892, "\u2581controls": 4893, "\u2581dimoni": 4894, "\u2581heavy": 4895, "\u2581imp": 4896, "\u2581mission": 4897, "\u2581partner": 4898, "\u2581scale": 4899, "\u2581vost\u00e8s": 4900, "gin": 4901, "ue": 4902, "\u2581Gordon": 4903, "\u2581Handbook": 4904, "\u2581Jones": 4905, "\u2581Su": 4906, "\u2581Whoa": 4907, "\u2581coneixement": 4908, "\u2581difer\u00e8ncies": 4909, "\u2581nor": 4910, "\u2581pes": 4911, "\u2581premsa": 4912, "\u2581sec": 4913, "\u2581stored": 4914, "Ma": 4915, "ach": 4916, "gueu": 4917, "\u2581Bring": 4918, "\u2581GNOME": 4919, "\u2581bomb": 4920, "\u2581brothers": 4921, "\u2581feelings": 4922, "\u2581greater": 4923, "\u2581helped": 4924, "\u2581programs": 4925, "\u2581segle": 4926, "\u2581thou": 4927, "\u2581vius": 4928, "\u2581whenever": 4929, "dir": 4930, "eh": 4931, "tre": 4932, "\u2581Air": 4933, "\u2581Bi": 4934, "\u2581Digue": 4935, "\u2581additional": 4936, "\u2581changing": 4937, "\u2581domini": 4938, "\u2581duty": 4939, "\u2581excuse": 4940, "\u2581intenta": 4941, "\u2581lock": 4942, "\u2581matters": 4943, "\u2581nota": 4944, "\u2581tape": 4945, "\u2581village": 4946, "cha": 4947, "entre": 4948, "guem": 4949, "rat": 4950, "\u2581Background": 4951, "\u2581Everybody": 4952, "\u2581Jeeves": 4953, "\u2581Missatge": 4954, "\u2581Veus": 4955, "\u2581ability": 4956, "\u2581agradable": 4957, "\u2581anomenada": 4958, "\u2581antic": 4959, "\u2581arc": 4960, "\u2581containing": 4961, "\u2581customers": 4962, "\u2581desaparegut": 4963, "\u2581desert": 4964, "\u2581disabled": 4965, "\u2581factor": 4966, "\u2581invalid": 4967, "\u2581universal": 4968, "\u2581veurem": 4969, "IC": 4970, "\u2581Player": 4971, "\u2581Teniu": 4972, "\u2581Winter": 4973, "\u2581bi": 4974, "\u2581bought": 4975, "\u2581clock": 4976, "\u2581convertit": 4977, "\u2581lovely": 4978, "\u2581pet": 4979, "\u2581pistola": 4980, "\u2581semblant": 4981, "\u2581viva": 4982, "IS": 4983, "dar": 4984, "essin": 4985, "oses": 4986, "\u2581Also": 4987, "\u2581Blood": 4988, "\u2581CA": 4989, "\u2581Jap\u00f3": 4990, "\u2581N\u00famero": 4991, "\u2581Shift": 4992, "\u2581copiar": 4993, "\u2581idiota": 4994, "\u2581primeres": 4995, "\u2581related": 4996, "\u2581rid": 4997, "\u2581sencer": 4998, "\u2581solution": 4999, "ek": 5000, "file": 5001, "\u258128": 5002, "\u2581Dis": 5003, "\u2581Inicia": 5004, "\u2581covered": 5005, "\u2581elles": 5006, "\u2581esbrinar": 5007, "\u2581filtres": 5008, "\u2581leader": 5009, "\u2581permetr\u00e0": 5010, "\u2581safata": 5011, "\u2581somnis": 5012, "\u2581w": 5013, "\u2581Jesse": 5014, "\u2581LDAP": 5015, "\u2581OpenPGP": 5016, "\u2581Pan": 5017, "\u2581Paper": 5018, "\u2581cancer": 5019, "\u2581comen\u00e7ant": 5020, "\u2581decidit": 5021, "\u2581despertar": 5022, "\u2581fosc": 5023, "\u2581management": 5024, "\u2581neither": 5025, "\u2581projects": 5026, "\u2581solar": 5027, "\u2581soldats": 5028, "\u2581solve": 5029, "\u2581states": 5030, "\u2581syn": 5031, "\u2581willing": 5032, "Description": 5033, "cap": 5034, "nu": 5035, "teu": 5036, "\u2581(#": 5037, "\u2581Da": 5038, "\u2581Job": 5039, "\u2581Rock": 5040, "\u2581Screen": 5041, "\u2581Too": 5042, "\u2581considerar": 5043, "\u2581coordenades": 5044, "\u2581esquema": 5045, "\u2581feines": 5046, "\u2581fly": 5047, "\u2581graus": 5048, "\u2581petici\u00f3": 5049, "\u2581restaurant": 5050, "\u2581tea": 5051, "\u2581walked": 5052, "als": 5053, "heu": 5054, "\u2581(1": 5055, "\u2581Audio": 5056, "\u2581assumpte": 5057, "\u2581clearly": 5058, "\u2581district": 5059, "\u2581horse": 5060, "\u2581imprimir": 5061, "\u2581length": 5062, "\u2581l\u00edder": 5063, "\u2581marcar": 5064, "\u2581monitor": 5065, "OL": 5066, "alegro": 5067, "entrada": 5068, "lent": 5069, "\u25812001": 5070, "\u25812007": 5071, "\u2581Anyway": 5072, "\u2581Du": 5073, "\u2581TED": 5074, "\u2581apply": 5075, "\u2581autom\u00e0tic": 5076, "\u2581breath": 5077, "\u2581budget": 5078, "\u2581existent": 5079, "\u2581fat": 5080, "\u2581jail": 5081, "\u2581oblidar": 5082, "\u2581provided": 5083, "\u2581region": 5084, "\u2581reunir": 5085, "\u2581selecting": 5086, "\u2581targeta": 5087, "\u2581trial": 5088, "\u2581weapon": 5089, "atching": 5090, "ins": 5091, "nia": 5092, "\u25812012": 5093, "\u2581According": 5094, "\u2581Clar": 5095, "\u2581c\u00e0rrega": 5096, "\u2581frame": 5097, "\u2581km": 5098, "\u2581parlem": 5099, "\u2581par\u00e0metre": 5100, "\u2581perque": 5101, "\u2581sentence": 5102, "\u2581sobreviure": 5103, "\u2581tri": 5104, "\u2581\u00edtem": 5105, "TRANSLATORS": 5106, "az": 5107, "\u2581Aquell": 5108, "\u2581Dona": 5109, "\u2581Er": 5110, "\u2581Huh": 5111, "\u2581Reina": 5112, "\u2581apareix": 5113, "\u2581cotxes": 5114, "\u2581families": 5115, "\u2581filename": 5116, "\u2581funcionar": 5117, "\u2581individualment": 5118, "\u2581joke": 5119, "\u2581kidding": 5120, "\u2581ladies": 5121, "\u2581prefix": 5122, "\u2581treballa": 5123, "Why": 5124, "ai": 5125, "part": 5126, "reg": 5127, "\u2581Chi": 5128, "\u2581Kong": 5129, "\u2581Leo": 5130, "\u2581Total": 5131, "\u2581Tri": 5132, "\u2581arreglar": 5133, "\u2581demostrar": 5134, "\u2581male\u00eft": 5135, "\u2581negative": 5136, "\u2581paret": 5137, "\u2581sake": 5138, "\u2581toca": 5139, "\u2581treat": 5140, "\u2581vella": 5141, "\u2581whom": 5142, "anys": 5143, "estima": 5144, "\u2581Algunes": 5145, "\u2581Putin": 5146, "\u2581Sookie": 5147, "\u2581Star": 5148, "\u2581anteriors": 5149, "\u2581bomba": 5150, "\u2581caminar": 5151, "\u2581caps": 5152, "\u2581efectes": 5153, "\u2581flight": 5154, "\u2581impact": 5155, "\u2581laboratori": 5156, "\u2581mention": 5157, "\u2581moon": 5158, "\u2581not\u00edcia": 5159, "\u2581peces": 5160, "\u2581properties": 5161, "\u2581sensaci\u00f3": 5162, "\u2581tornar\u00e9": 5163, "\u2581trist": 5164, "\u2581universitat": 5165, "\u2581%2.": 5166, "\u2581Akonadi": 5167, "\u2581FOR": 5168, "\u2581Python": 5169, "\u2581Switch": 5170, "\u2581bag": 5171, "\u2581bany": 5172, "\u2581brillant": 5173, "\u2581graella": 5174, "\u2581growing": 5175, "\u2581lies": 5176, "\u2581llibreta": 5177, "\u2581medi": 5178, "\u2581passada": 5179, "\u2581pressure": 5180, "\u2581smoke": 5181, "\u2581tanta": 5182, "\u2581truly": 5183, "assassinat": 5184, "bus": 5185, "ite": 5186, "onyms": 5187, "www": 5188, "\u258170": 5189, "\u2581Code": 5190, "\u2581Download": 5191, "\u2581Grup": 5192, "\u2581Hu": 5193, "\u2581Johnny": 5194, "\u2581cr\u00e9ixer": 5195, "\u2581destruir": 5196, "\u2581donen": 5197, "\u2581eleccions": 5198, "\u2581gr\u00e0fic": 5199, "\u2581insert": 5200, "\u2581lletres": 5201, "\u2581nivells": 5202, "\u2581operacions": 5203, "\u2581partition": 5204, "\u2581pi": 5205, "\u2581porto": 5206, "\u2581shortcut": 5207, "\u2581sing": 5208, "\u2581temporary": 5209, "\u2581veieu": 5210, "This": 5211, "xi": 5212, "zo": 5213, "\u258127": 5214, "\u2581Advanced": 5215, "\u2581Ku": 5216, "\u2581encryption": 5217, "\u2581ended": 5218, "\u2581esquerre": 5219, "\u2581haur\u00edeu": 5220, "\u2581lleis": 5221, "\u2581opinion": 5222, "\u2581split": 5223, ");": 5224, "all\u00e0": 5225, "atge": 5226, "bb": 5227, "espera": 5228, "ker": 5229, "like": 5230, "red": 5231, "\u2581Doc": 5232, "\u2581Professor": 5233, "\u2581Rain": 5234, "\u2581assass\u00ed": 5235, "\u2581carrers": 5236, "\u2581copyright": 5237, "\u2581equals": 5238, "\u2581fotografies": 5239, "\u2581heads": 5240, "\u2581quasi": 5241, "\u2581ra": 5242, "\u2581seriously": 5243, "\u2581weapons": 5244, "empresa": 5245, "\u2581Albert": 5246, "\u2581Alex": 5247, "\u2581Ask": 5248, "\u2581Catalan": 5249, "\u2581Imprimeix": 5250, "\u2581Level": 5251, "\u2581Londres": 5252, "\u2581Mi": 5253, "\u2581Slade": 5254, "\u2581average": 5255, "\u2581continguts": 5256, "\u2581presentaci\u00f3": 5257, "\u2581produ\u00eft": 5258, "\u2581recollir": 5259, "\u2581surprised": 5260, "\u2581terror": 5261, "\u2581volar": 5262, "\u2581wiki": 5263, "iv": 5264, "text": 5265, "\u2581India": 5266, "\u2581Pe": 5267, "\u2581arribi": 5268, "\u2581associated": 5269, "\u2581c\u00e0ncer": 5270, "\u2581danger": 5271, "\u2581faran": 5272, "\u2581intenci\u00f3": 5273, "\u2581kdeprint": 5274, "\u2581mess": 5275, "\u2581n\u00e9ixer": 5276, "\u2581olor": 5277, "\u2581theory": 5278, "wood": 5279, "\u2581Application": 5280, "\u2581Christian": 5281, "\u2581Link": 5282, "\u2581Podries": 5283, "\u2581ju": 5284, "\u2581lab": 5285, "\u2581marked": 5286, "\u2581physical": 5287, "\u2581reported": 5288, "\u2581spot": 5289, "Ha": 5290, "top": 5291, "\u2581Hora": 5292, "\u2581Malcolm": 5293, "\u2581Pas": 5294, "\u2581cinta": 5295, "\u2581establert": 5296, "\u2581famous": 5297, "\u2581habilitat": 5298, "\u2581knife": 5299, "\u2581loaded": 5300, "\u2581noticed": 5301, "\u2581pendent": 5302, "\u2581permisos": 5303, "\u2581puguis": 5304, "\u2581tableau": 5305, "\u2581tenies": 5306, "fu": 5307, "\u00e7a": 5308, "\u2581Salem": 5309, "\u2581Stannis": 5310, "\u2581believed": 5311, "\u2581closer": 5312, "\u2581c\u00e8l": 5313, "\u2581defensa": 5314, "\u2581directe": 5315, "\u2581donant": 5316, "\u2581estalvi": 5317, "\u2581frase": 5318, "\u2581levels": 5319, "\u2581mentir": 5320, "\u2581sentia": 5321, "\u2581seriosament": 5322, "\u2581volgut": 5323, "Hi": 5324, "ces": 5325, "\u2581Ordre": 5326, "\u2581Premeu": 5327, "\u2581Using": 5328, "\u2581alternant": 5329, "\u2581cames": 5330, "\u2581college": 5331, "\u2581c\u00e0lcul": 5332, "\u2581external": 5333, "\u2581ex\u00e8rcit": 5334, "\u2581formula": 5335, "\u2581guard": 5336, "\u2581jump": 5337, "\u2581privat": 5338, "\u2581quines": 5339, "\u2581realized": 5340, "\u2581seleccionades": 5341, "\u2581survive": 5342, "\u2581teoria": 5343, "ug": 5344, "\u2581Jaime": 5345, "\u2581SSL": 5346, "\u2581Tenen": 5347, "\u2581atacar": 5348, "\u2581becomes": 5349, "\u2581casament": 5350, "\u2581empreses": 5351, "\u2581flag": 5352, "\u2581forgive": 5353, "\u2581girlfriend": 5354, "\u2581links": 5355, "\u2581maximum": 5356, "\u2581ofereix": 5357, "\u2581scheme": 5358, "://": 5359, "oc": 5360, "ule": 5361, "\u2581Altres": 5362, "\u2581Autor": 5363, "\u2581Mon": 5364, "\u2581Sha": 5365, "\u2581Status": 5366, "\u2581Tota": 5367, "\u2581attempt": 5368, "\u2581companies": 5369, "\u2581definit": 5370, "\u2581desapar\u00e8ixer": 5371, "\u2581drawn": 5372, "\u2581grew": 5373, "ctor": 5374, "pp": 5375, "\u00cdndia": 5376, "\u2581Model": 5377, "\u2581Printer": 5378, "\u2581birthday": 5379, "\u2581estranya": 5380, "\u2581estris": 5381, "\u2581fuckin": 5382, "\u2581greatest": 5383, "\u2581hadn": 5384, "\u2581realitzar": 5385, "\u2581score": 5386, "\u2581success": 5387, "\u2581trencat": 5388, "arma": 5389, "ima": 5390, "uk": 5391, "\u2581Compte": 5392, "\u2581Martha": 5393, "\u2581Seria": 5394, "\u2581antiga": 5395, "\u2581certa": 5396, "\u2581defend": 5397, "\u2581define": 5398, "\u2581forgot": 5399, "\u2581fully": 5400, "\u2581goal": 5401, "\u2581goddamn": 5402, "\u2581legs": 5403, "\u2581lent": 5404, "\u2581powers": 5405, "\u2581requires": 5406, "\u2581steps": 5407, "\u2581veuen": 5408, "AC": 5409, "Em": 5410, "dia": 5411, "itzar": 5412, "qua": 5413, "\u2581Jacob": 5414, "\u2581Necessita": 5415, "\u2581Neil": 5416, "\u2581Russia": 5417, "\u2581Step": 5418, "\u2581Ten": 5419, "\u2581botiga": 5420, "\u2581concerned": 5421, "\u2581integration": 5422, "\u2581pobres": 5423, "\u2581propietari": 5424, "\u2581province": 5425, "\u2581wondering": 5426, "\u2581Action": 5427, "\u2581Hong": 5428, "\u2581NO": 5429, "\u2581PDF": 5430, "\u2581Post": 5431, "\u2581bringing": 5432, "\u2581challenge": 5433, "\u2581comment": 5434, "\u2581configured": 5435, "\u2581generar": 5436, "\u2581hagis": 5437, "\u2581nad\u00f3": 5438, "\u2581nas": 5439, "\u2581oficina": 5440, "\u2581operations": 5441, "\u2581prepared": 5442, "\u2581signal": 5443, "bu": 5444, "ik": 5445, "\u2581Activa": 5446, "\u2581Collons": 5447, "\u2581Old": 5448, "\u2581categoria": 5449, "\u2581despla\u00e7ament": 5450, "\u2581evil": 5451, "\u2581helping": 5452, "\u2581serveix": 5453, "\u2581taught": 5454, "\u2581\u00e9sser": 5455, "200": 5456, "agent": 5457, "\u2581360": 5458, "\u2581CAR": 5459, "\u2581Calendar": 5460, "\u2581Damon": 5461, "\u2581Device": 5462, "\u2581Moveu": 5463, "\u2581Output": 5464, "\u2581Watson": 5465, "\u2581cossos": 5466, "\u2581engine": 5467, "\u2581raise": 5468, "\u2581repositori": 5469, "\u2581somehow": 5470, "\u2581trick": 5471, "\u2581uncle": 5472, "\u2581understanding": 5473, "\u2581x\u00e8rif": 5474, "ally": 5475, "esquena": 5476, "\u2581Mc": 5477, "\u2581Media": 5478, "\u2581autoritats": 5479, "\u2581edge": 5480, "\u2581engegar": 5481, "\u2581expressions": 5482, "\u2581fl": 5483, "\u2581loss": 5484, "\u2581min": 5485, "\u2581prop\u00f2sit": 5486, "\u2581v\u00e0re": 5487, "gh": 5488, "my": 5489, "tant": 5490, "\u258126": 5491, "\u2581Actualitza": 5492, "\u2581Fi": 5493, "\u2581Gaireb\u00e9": 5494, "\u2581Ki": 5495, "\u2581Merlyn": 5496, "\u2581Ned": 5497, "\u2581Password": 5498, "\u2581Ves": 5499, "\u2581Winterfell": 5500, "\u2581ciutats": 5501, "\u2581darrer": 5502, "\u2581deixes": 5503, "\u2581descobert": 5504, "\u2581eating": 5505, "\u2581former": 5506, "\u2581funeral": 5507, "\u2581pulled": 5508, "\u2581signed": 5509, "\u2581st": 5510, "\u2581stuck": 5511, "\u2581successful": 5512, "\u2581teacher": 5513, "\u2581vot": 5514, "15": 5515, "Pa": 5516, "tiva": 5517, "\u2581Acaba": 5518, "\u2581Arrow": 5519, "\u2581Benvingut": 5520, "\u2581Charles": 5521, "\u2581Marvel": 5522, "\u2581Plugin": 5523, "\u2581Shh": 5524, "\u2581Sort": 5525, "\u2581Work": 5526, "\u2581atribut": 5527, "\u2581belong": 5528, "\u2581estudi": 5529, "\u2581fam\u00edlies": 5530, "\u2581ganivet": 5531, "\u2581lex": 5532, "\u2581lli\u00e7\u00f3": 5533, "\u2581login": 5534, "\u2581m\u00e0gia": 5535, "\u2581owe": 5536, "\u2581pair": 5537, "\u2581pieces": 5538, "\u2581preocupa": 5539, "\u2581temo": 5540, "\u2581teua": 5541, "\u2581tinguis": 5542, "\u2581walls": 5543, "\u00c0frica": 5544, "\u2581Al\u00edcia": 5545, "\u2581Dana": 5546, "\u2581GNU": 5547, "\u2581Normalment": 5548, "\u2581Point": 5549, "\u2581Sabeu": 5550, "\u2581Sta": 5551, "\u2581Word": 5552, "\u2581cap\u00e7alera": 5553, "\u2581completed": 5554, "\u2581dits": 5555, "\u2581loves": 5556, "\u2581micro": 5557, "\u2581propis": 5558, "\u2581reference": 5559, "\u2581sabut": 5560, "\u2581ubicaci\u00f3": 5561, "\u2581warm": 5562, "ator": 5563, "ero": 5564, "rt": 5565, "si\u00f3": 5566, "\u2581BE": 5567, "\u2581Dia": 5568, "\u2581Minister": 5569, "\u2581Report": 5570, "\u2581carrera": 5571, "\u2581converteix": 5572, "\u2581dare": 5573, "\u2581definici\u00f3": 5574, "\u2581lack": 5575, "\u2581militar": 5576, "\u2581p\u00e8l": 5577, "\u2581recognize": 5578, "\u2581sobretot": 5579, "\u2581soldat": 5580, "\u2581unique": 5581, "\u2581vinc": 5582, "af": 5583, "bil": 5584, "log": 5585, "\u2581Bad": 5586, "\u2581Baratheon": 5587, "\u2581Club": 5588, "\u2581Genial": 5589, "\u2581Read": 5590, "\u2581addition": 5591, "\u2581backend": 5592, "\u2581blame": 5593, "\u2581chat": 5594, "\u2581deserve": 5595, "\u2581elecci\u00f3": 5596, "\u2581estiguin": 5597, "\u2581estudiants": 5598, "\u2581explica": 5599, "\u2581faster": 5600, "\u2581glass": 5601, "\u2581historial": 5602, "\u2581invisible": 5603, "\u2581kinds": 5604, "\u2581mirada": 5605, "\u2581p\u00edxels": 5606, "\u2581q": 5607, "\u2581quit": 5608, "\u2581riure": 5609, "\u2581sal": 5610, "\u2581therefore": 5611, "\u2581verd": 5612, "\u2581weak": 5613, "esperan\u00e7a": 5614, "lot": 5615, "\u2581Anything": 5616, "\u2581Quanta": 5617, "\u2581Title": 5618, "\u2581desfer": 5619, "\u2581est\u00e0vem": 5620, "\u2581finding": 5621, "\u2581refer": 5622, "\u2581spirit": 5623, "\u2581vector": 5624, "\u2581\u00edndex": 5625, "box": 5626, "\u258132": 5627, "\u2581Commander": 5628, "\u2581Oi": 5629, "\u2581Sit": 5630, "\u2581Their": 5631, "\u2581Vertical": 5632, "\u2581accent": 5633, "\u2581assume": 5634, "\u2581backup": 5635, "\u2581cry": 5636, "\u2581desat": 5637, "\u2581distribution": 5638, "\u2581dress": 5639, "\u2581height": 5640, "\u2581lunch": 5641, "\u2581manualment": 5642, "\u2581meta": 5643, "\u2581parameter": 5644, "\u2581pressing": 5645, "\u2581pressi\u00f3": 5646, "\u2581sets": 5647, "\u2581soldiers": 5648, "\u2581species": 5649, "\u2581termes": 5650, "\u2581tingueu": 5651, "\u2581treballadors": 5652, "But": 5653, "ice": 5654, "tis": 5655, "\u2581400": 5656, "\u2581Enganxa": 5657, "\u2581Island": 5658, "\u2581Lothbrok": 5659, "\u2581Marty": 5660, "\u2581Scott": 5661, "\u2581Ve": 5662, "\u2581advice": 5663, "\u2581agradaria": 5664, "\u2581agreement": 5665, "\u2581audience": 5666, "\u2581authorities": 5667, "\u2581bra\u00e7os": 5668, "\u2581century": 5669, "\u2581church": 5670, "\u2581deixis": 5671, "\u2581determinar": 5672, "\u2581entra": 5673, "\u2581generation": 5674, "\u2581library": 5675, "\u2581license": 5676, "\u2581puguem": 5677, "\u2581south": 5678, "\u2581tantes": 5679, "\u2581treballs": 5680, "\u2581vespre": 5681, "ID": 5682, "acaba": 5683, "ey": 5684, "\u258135": 5685, "\u2581CC": 5686, "\u2581Cha": 5687, "\u2581Christmas": 5688, "\u2581Daddy": 5689, "\u2581Jes\u00fas": 5690, "\u2581Rabbit": 5691, "\u2581Reial": 5692, "\u2581Sheriff": 5693, "\u2581Yo": 5694, "\u2581autor": 5695, "\u2581bro": 5696, "\u2581centenars": 5697, "\u2581crisis": 5698, "\u2581demano": 5699, "\u2581ganes": 5700, "\u2581girar": 5701, "\u2581hat": 5702, "\u2581llar": 5703, "\u2581male\u00efda": 5704, "\u2581seek": 5705, "\u2581testimoni": 5706, "\u2581translate": 5707, "map": 5708, "ssa": 5709, "\u2581August": 5710, "\u2581Gu\u00e0rdia": 5711, "\u2581Previous": 5712, "\u2581Walker": 5713, "\u2581archive": 5714, "\u2581esp\u00e8cie": 5715, "\u2581fum": 5716, "\u2581keeps": 5717, "\u2581mili\u00f3": 5718, "\u2581obviously": 5719, "\u2581periodista": 5720, "\u2581principals": 5721, "\u2581universe": 5722, "\u2581vint": 5723, "[": 5724, "assass\u00ed": 5725, "atenci\u00f3": 5726, "\u2581Beth": 5727, "\u2581Count": 5728, "\u2581Database": 5729, "\u2581Fem": 5730, "\u2581Instal": 5731, "\u2581Kirk": 5732, "\u2581LexUriServ": 5733, "\u2581Test": 5734, "\u2581Valor": 5735, "\u2581bossa": 5736, "\u2581cremar": 5737, "\u2581cruel": 5738, "\u2581estrella": 5739, "\u2581forced": 5740, "\u2581heroi": 5741, "\u2581hurry": 5742, "\u2581mant\u00e9": 5743, "\u2581mitj\u00e0": 5744, "\u2581modified": 5745, "\u2581noble": 5746, "\u2581queden": 5747, "\u2581relative": 5748, "\u2581statement": 5749, "\u2581talent": 5750, "\u2581ten\u00edem": 5751, "\u2581unir": 5752, "atac": 5753, "select": 5754, "wi": 5755, "\u00eds": 5756, "\u2581Bu": 5757, "\u2581Laura": 5758, "\u2581Preview": 5759, "\u2581Sue": 5760, "\u2581Tra": 5761, "\u2581bella": 5762, "\u2581buddy": 5763, "\u2581bunch": 5764, "\u2581cercant": 5765, "\u2581consulta": 5766, "\u2581definitely": 5767, "\u2581drecera": 5768, "\u2581incloent": 5769, "\u2581juro": 5770, "\u2581poques": 5771, "\u2581preparar": 5772, "\u2581quart": 5773, "\u2581veient": 5774, "US": 5775, "ath": 5776, "bin": 5777, "edifici": 5778, "ji": 5779, "that": 5780, "\u2581Centre": 5781, "\u2581France": 5782, "\u2581Gi": 5783, "\u2581Haur\u00edem": 5784, "\u2581Nota": 5785, "\u2581Sud": 5786, "\u2581answers": 5787, "\u2581caracter\u00edstica": 5788, "\u2581comandament": 5789, "\u2581declaraci\u00f3": 5790, "\u2581executant": 5791, "\u2581f\u00e0cilment": 5792, "\u2581integraci\u00f3": 5793, "\u2581mental": 5794, "\u2581pe": 5795, "\u2581ru": 5796, "\u2581signar": 5797, "\u2581wide": 5798, "cle": 5799, "cre": 5800, "ile": 5801, "ions": 5802, "ization": 5803, "tres": 5804, "tri": 5805, "\u2581Allow": 5806, "\u2581Amarok": 5807, "\u2581Arranjaments": 5808, "\u2581Bud": 5809, "\u2581Entre": 5810, "\u2581Jan": 5811, "\u2581Mu": 5812, "\u2581Park": 5813, "\u2581Sebastian": 5814, "\u2581accounts": 5815, "\u2581activar": 5816, "\u2581boja": 5817, "\u2581designed": 5818, "\u2581differences": 5819, "\u2581effects": 5820, "\u2581ends": 5821, "\u2581faces": 5822, "\u2581foscor": 5823, "\u2581fresh": 5824, "\u2581hundreds": 5825, "\u2581installation": 5826, "\u2581taxi": 5827, "\u2581tresor": 5828, "bles": 5829, "gra": 5830, "its": 5831, "ses": 5832, "\u2581Adam": 5833, "\u2581Entesos": 5834, "\u2581Path": 5835, "\u2581R\u00fassia": 5836, "\u2581Starling": 5837, "\u2581apareixer\u00e0": 5838, "\u2581ba": 5839, "\u2581crea": 5840, "\u2581desenvolupar": 5841, "\u2581execute": 5842, "\u2581fr": 5843, "\u2581importaci\u00f3": 5844, "\u2581independentment": 5845, "\u2581individuals": 5846, "\u2581parent": 5847, "\u2581ressaltat": 5848, "\u2581searching": 5849, "\u2581s\u00edmbol": 5850, "Oliver": 5851, "ora": 5852, "val": 5853, "\u2581DPI": 5854, "\u2581Finestra": 5855, "\u2581caigut": 5856, "\u2581creation": 5857, "\u2581fellow": 5858, "\u2581inlistbox": 5859, "\u2581llan\u00e7ar": 5860, "\u2581marques": 5861, "\u2581mu": 5862, "\u2581planning": 5863, "\u2581plorar": 5864, "\u2581recentment": 5865, "\u2581servidors": 5866, "\u2581s\u00e0piga": 5867, "\u2581wallet": 5868, "\u2581xat": 5869, "aba": 5870, "ever": 5871, "rre": 5872, "view": 5873, "\u2581Author": 5874, "\u2581Build": 5875, "\u2581LaTeX": 5876, "\u2581Men": 5877, "\u2581Penso": 5878, "\u2581Replace": 5879, "\u2581Uncle": 5880, "\u2581amplada": 5881, "\u2581autom\u00e0tica": 5882, "\u2581esperan\u00e7a": 5883, "\u2581finger": 5884, "\u2581header": 5885, "\u2581negres": 5886, "\u2581sentiments": 5887, "\u2581seure": 5888, "\u2581sisplau": 5889, "\u2581tenint": 5890, "\u2581volies": 5891, "\u2581watched": 5892, "cia": 5893, "cs": 5894, "sc": 5895, "\u25812011": 5896, "\u2581Dibuixa": 5897, "\u2581Intenteu": 5898, "\u2581June": 5899, "\u2581Lester": 5900, "\u2581Ooh": 5901, "\u2581Sento": 5902, "\u2581Times": 5903, "\u2581Velocitat": 5904, "\u2581americans": 5905, "\u2581arrow": 5906, "\u2581bother": 5907, "\u2581captain": 5908, "\u2581discurs": 5909, "\u2581edat": 5910, "\u2581enorme": 5911, "\u2581ent\u00e8s": 5912, "\u2581figures": 5913, "\u2581hoping": 5914, "\u2581informar": 5915, "\u2581materials": 5916, "\u2581necessiteu": 5917, "\u2581regardless": 5918, "\u2581summer": 5919, "\u2581suprimir": 5920, "\u2581ull": 5921, "On": 5922, "ants": 5923, "i\u00f3": 5924, "ning": 5925, "pat": 5926, "rus": 5927, "\u00f6": 5928, "\u2581CO": 5929, "\u2581Elena": 5930, "\u2581Kai": 5931, "\u2581March": 5932, "\u2581Reid": 5933, "\u2581Sabia": 5934, "\u2581anir\u00e9": 5935, "\u2581capable": 5936, "\u2581career": 5937, "\u2581cre": 5938, "\u2581gener": 5939, "\u2581horitzontal": 5940, "\u2581leading": 5941, "\u2581particularly": 5942, "\u2581peix": 5943, "\u2581scores": 5944, "\u2581vine": 5945, "How": 5946, "ft": 5947, "\u2581Dialog": 5948, "\u2581Maj": 5949, "\u2581Mor": 5950, "\u2581Paste": 5951, "\u2581aid": 5952, "\u2581biggest": 5953, "\u2581chart": 5954, "\u2581comandant": 5955, "\u2581connectors": 5956, "\u2581cu": 5957, "\u2581gestionar": 5958, "\u2581inclou": 5959, "\u2581miracle": 5960, "\u2581preocupar": 5961, "\u2581staying": 5962, "\u2581understood": 5963, "Ja": 5964, "informaci\u00f3": 5965, "ola": 5966, "ping": 5967, "vers": 5968, "\u2581Ad": 5969, "\u2581Looks": 5970, "\u2581Rick": 5971, "\u2581Unit": 5972, "\u2581appreciate": 5973, "\u2581arrested": 5974, "\u2581artist": 5975, "\u2581chose": 5976, "\u2581concern": 5977, "\u2581deleted": 5978, "\u2581doc": 5979, "\u2581dropped": 5980, "\u2581instant": 5981, "\u2581jard\u00ed": 5982, "\u2581milles": 5983, "\u2581petroli": 5984, "\u2581pregunto": 5985, "\u2581profund": 5986, "\u2581race": 5987, "\u2581raised": 5988, "\u2581smaller": 5989, "My": 5990, "OF": 5991, "lis": 5992, "oest": 5993, "type": 5994, "uck": 5995, "\u2581Cat": 5996, "\u2581Comproveu": 5997, "\u2581January": 5998, "\u2581cartera": 5999, "\u2581fant\u00e0stic": 6000, "\u2581felicitat": 6001, "\u2581maca": 6002, "\u2581mata": 6003, "\u2581medical": 6004, "\u2581mentida": 6005, "\u2581monster": 6006, "\u2581pr\u00e0ctica": 6007, "\u2581raons": 6008, "\u2581selecciona": 6009, "\u2581stage": 6010, "\u2581tingu\u00e9s": 6011, "UR": 6012, "ami": 6013, "cor": 6014, "dic": 6015, "ius": 6016, "ok": 6017, "\u2581Dick": 6018, "\u2581Follow": 6019, "\u2581Pla": 6020, "\u2581bogeria": 6021, "\u2581cervisia": 6022, "\u2581codificaci\u00f3": 6023, "\u2581debat": 6024, "\u2581ficat": 6025, "\u2581financial": 6026, "\u2581functions": 6027, "\u2581informes": 6028, "\u2581investigation": 6029, "\u2581jugador": 6030, "\u2581managed": 6031, "\u2581medium": 6032, "\u2581regla": 6033, "\u2581river": 6034, "\u2581suffering": 6035, "\u2581suggest": 6036, "\u2581taste": 6037, "\u2581tough": 6038, "ens": 6039, "hagi": 6040, "\u2581Boy": 6041, "\u2581Continua": 6042, "\u2581Pero": 6043, "\u2581Remote": 6044, "\u2581Special": 6045, "\u2581advocat": 6046, "\u2581curt": 6047, "\u2581dibuix": 6048, "\u2581exit": 6049, "\u2581kiss": 6050, "\u2581losing": 6051, "\u2581neck": 6052, "\u2581park": 6053, "\u2581perfectly": 6054, "\u2581preocupis": 6055, "\u2581priority": 6056, "\u2581tants": 6057, "\u2581truck": 6058, "\u2581urgent": 6059, "All": 6060, "book": 6061, "guessin": 6062, "list": 6063, "l\u00edcules": 6064, "\u2581Che": 6065, "\u2581Gideon": 6066, "\u2581Ren": 6067, "\u2581Without": 6068, "\u2581basically": 6069, "\u2581canals": 6070, "\u2581carretera": 6071, "\u2581desconeguda": 6072, "\u2581destroyed": 6073, "\u2581emergent": 6074, "\u2581est\u00fapid": 6075, "\u2581haurem": 6076, "\u2581passes": 6077, "\u2581proporciona": 6078, "\u2581rec": 6079, "\u2581shop": 6080, "\u2581slide": 6081, "\u2581traducci\u00f3": 6082, "\u2581unitats": 6083, "\u2581wikipedia": 6084, "\u2581workers": 6085, "18": 6086, "Els": 6087, "fo": 6088, "form": 6089, "ide": 6090, "sky": 6091, "win": 6092, "\u2581Load": 6093, "\u2581Ri": 6094, "\u2581Samba": 6095, "\u2581acte": 6096, "\u2581bloody": 6097, "\u2581bytes": 6098, "\u2581comentari": 6099, "\u2581described": 6100, "\u2581formulari": 6101, "\u2581increase": 6102, "\u2581invitaci\u00f3": 6103, "\u2581manually": 6104, "\u2581productes": 6105, "\u2581retorn": 6106, "\u2581warning": 6107, "01": 6108, "lNG": 6109, "war": 6110, "\u2581Community": 6111, "\u2581Punt": 6112, "\u2581Quick": 6113, "\u2581admit": 6114, "\u2581cab": 6115, "\u2581conditions": 6116, "\u2581diaris": 6117, "\u2581domain": 6118, "\u2581drawing": 6119, "\u2581emprant": 6120, "\u2581extremely": 6121, "\u2581j": 6122, "\u2581missenyor": 6123, "\u2581monstre": 6124, "\u2581responsibility": 6125, "\u2581ser\u00e0s": 6126, "\u2581sold": 6127, "\u2581stranger": 6128, "\u2581upset": 6129, "ENT": 6130, "ama": 6131, "based": 6132, "cent": 6133, "eja": 6134, "ejar": 6135, "lules": 6136, "nom": 6137, "rk": 6138, "\u258145": 6139, "\u2581Ana": 6140, "\u2581Dur": 6141, "\u2581Entra": 6142, "\u2581Perdoni": 6143, "\u2581Waldo": 6144, "\u2581cantonada": 6145, "\u2581crash": 6146, "\u2581creuen": 6147, "\u2581dep\u00e8n": 6148, "\u2581descarregar": 6149, "\u2581estiguis": 6150, "\u2581guia": 6151, "\u2581invitation": 6152, "\u2581malaltia": 6153, "\u2581obvious": 6154, "\u2581roof": 6155, "\u2581seleccionant": 6156, "\u2581sh": 6157, "\u2581sleeping": 6158, "\u2581steal": 6159, "lig\u00e8ncia": 6160, "tori": 6161, "\u2581600": 6162, "\u2581Carpeta": 6163, "\u2581Info": 6164, "\u2581Sigui": 6165, "\u2581Square": 6166, "\u2581anomenar": 6167, "\u2581chair": 6168, "\u2581claim": 6169, "\u2581damage": 6170, "\u2581dents": 6171, "\u2581dorsal": 6172, "\u2581drinking": 6173, "\u2581explicat": 6174, "\u2581female": 6175, "\u2581fil": 6176, "\u2581flat": 6177, "\u2581hall": 6178, "\u2581hearing": 6179, "\u2581larger": 6180, "\u2581llic\u00e8ncia": 6181, "\u2581oculta": 6182, "\u2581potential": 6183, "\u2581preciosa": 6184, "\u2581pr\u00e9mer": 6185, "\u2581pr\u00edncep": 6186, "\u2581reals": 6187, "\u2581slots": 6188, "\u2581transaction": 6189, "\u2581volume": 6190, "\u2581weight": 6191, "\u2581\u00e0lbum": 6192, "ass": 6193, "avi\u00f3": 6194, "ks": 6195, "right": 6196, "uff": 6197, "\u25811/": 6198, "\u2581Carlos": 6199, "\u2581Cut": 6200, "\u2581Ed": 6201, "\u2581Probably": 6202, "\u2581Support": 6203, "\u2581Ti": 6204, "\u2581awful": 6205, "\u2581barret": 6206, "\u2581beauty": 6207, "\u2581bellesa": 6208, "\u2581calent": 6209, "\u2581cercle": 6210, "\u2581cup": 6211, "\u2581definition": 6212, "\u2581expert": 6213, "\u2581gossos": 6214, "\u2581properly": 6215, "\u2581religious": 6216, "\u2581segment": 6217, "\u2581somriure": 6218, "\u2581successfully": 6219, "\u2581tar": 6220, "\u2581transfer": 6221, "IT": 6222, "OS": 6223, "Que": 6224, "agraden": 6225, "alt": 6226, "bre": 6227, "cen": 6228, "esa": 6229, "kin": 6230, "lla": 6231, "ordinador": 6232, "r\u00ed": 6233, "\u25815,": 6234, "\u2581Art": 6235, "\u2581Dave": 6236, "\u2581Email": 6237, "\u2581Nois": 6238, "\u2581Sent": 6239, "\u2581Shall": 6240, "\u2581Truca": 6241, "\u2581agreed": 6242, "\u2581ambient": 6243, "\u2581arrel": 6244, "\u2581basa": 6245, "\u2581birth": 6246, "\u2581developed": 6247, "\u2581devil": 6248, "\u2581discutir": 6249, "\u2581displays": 6250, "\u2581effort": 6251, "\u2581extension": 6252, "\u2581hardly": 6253, "\u2581laws": 6254, "\u2581lied": 6255, "\u2581normes": 6256, "\u2581pan": 6257, "\u2581tinguin": 6258, "\u2581translated": 6259, "\u2581v\u00e9nen": 6260, "RO": 6261, "fin": 6262, "well": 6263, "\u2581Table": 6264, "\u2581afegit": 6265, "\u2581apr\u00e8s": 6266, "\u2581breakfast": 6267, "\u2581corba": 6268, "\u2581cub": 6269, "\u2581detectiu": 6270, "\u2581discovered": 6271, "\u2581doors": 6272, "\u2581equivalent": 6273, "\u2581escola": 6274, "\u2581matches": 6275, "\u2581modify": 6276, "\u2581torno": 6277, "aconseguir": 6278, "ical": 6279, "ists": 6280, "len": 6281, "pu": 6282, "var": 6283, "\u2581Book": 6284, "\u2581Rebecca": 6285, "\u2581Sant": 6286, "\u2581Simon": 6287, "\u2581Tyrion": 6288, "\u2581biblioteca": 6289, "\u2581connexions": 6290, "\u2581darling": 6291, "\u2581d\u00e9u": 6292, "\u2581grand": 6293, "\u2581judge": 6294, "\u2581jugant": 6295, "\u2581jutge": 6296, "\u2581knowing": 6297, "\u2581limited": 6298, "\u2581mateixes": 6299, "\u2581nose": 6300, "\u2581obra": 6301, "\u2581picked": 6302, "\u2581vagis": 6303, "\u2581zoom": 6304, "side": 6305, "\u25816.": 6306, "\u2581Billy": 6307, "\u2581GnuPG": 6308, "\u2581LA": 6309, "\u2581Track": 6310, "\u2581Vosaltres": 6311, "\u2581adults": 6312, "\u2581buried": 6313, "\u2581cities": 6314, "\u2581deixant": 6315, "\u2581deixi": 6316, "\u2581escrivint": 6317, "\u2581exterior": 6318, "\u2581import\u00e0ncia": 6319, "\u2581lawyer": 6320, "\u2581objectius": 6321, "\u2581partici\u00f3": 6322, "\u2581pool": 6323, "\u2581produir": 6324, "\u2581proposta": 6325, "\u2581tia": 6326, "\u2581vehicle": 6327, "\u2581\u00faltimes": 6328, "Noun": 6329, "avui": 6330, "\u2581ASCII": 6331, "\u2581Bonnie": 6332, "\u2581For\u00e7a": 6333, "\u2581Po": 6334, "\u2581Police": 6335, "\u2581Quiet": 6336, "\u2581cantar": 6337, "\u2581dec": 6338, "\u2581desire": 6339, "\u2581detall": 6340, "\u2581fixed": 6341, "\u2581fought": 6342, "\u2581fruit": 6343, "\u2581intent": 6344, "\u2581mo": 6345, "\u2581plantilles": 6346, "\u2581possibles": 6347, "\u2581sites": 6348, "\u2581usual": 6349, "\u2581utilitat": 6350, "\u2581vaixells": 6351, "\u2581\u00e0nima": 6352, "++": 6353, "For": 6354, "To": 6355, "acci\u00f3": 6356, "per\u00f2": 6357, "\u2581Als": 6358, "\u2581Carrega": 6359, "\u2581Diuen": 6360, "\u2581Latin": 6361, "\u2581Lieutenant": 6362, "\u2581Quit": 6363, "\u2581Recorda": 6364, "\u2581Ru": 6365, "\u2581Seu": 6366, "\u2581Social": 6367, "\u2581Suprimiu": 6368, "\u2581Template": 6369, "\u2581Theme": 6370, "\u2581administrador": 6371, "\u2581attacked": 6372, "\u2581cvs": 6373, "\u2581dono": 6374, "\u2581espasa": 6375, "\u2581exact": 6376, "\u2581flors": 6377, "\u2581garden": 6378, "\u2581laugh": 6379, "\u2581mentioned": 6380, "\u2581motius": 6381, "\u2581ought": 6382, "\u2581runs": 6383, "\u2581sheriff": 6384, "\u2581tro": 6385, "\u2581turning": 6386, "bel": 6387, "esperar": 6388, "hagu\u00e9s": 6389, "oh": 6390, "stic": 6391, "\u2581Although": 6392, "\u2581Aplica": 6393, "\u2581Blue": 6394, "\u2581Eight": 6395, "\u2581Hang": 6396, "\u2581Hotch": 6397, "\u2581Language": 6398, "\u2581MP": 6399, "\u2581Men\u00fa": 6400, "\u2581Nepomuk": 6401, "\u2581Nivell": 6402, "\u2581Par\u00eds": 6403, "\u2581T\u00edtol": 6404, "\u2581Ya": 6405, "\u2581boyfriend": 6406, "\u2581cache": 6407, "\u2581cooperation": 6408, "\u2581creia": 6409, "\u2581crisi": 6410, "\u2581cubic": 6411, "\u2581degrees": 6412, "\u2581digiKam": 6413, "\u2581estigu\u00e9s": 6414, "\u2581estudiant": 6415, "\u2581mundial": 6416, "\u2581possibilitats": 6417, "\u2581puntua": 6418, "\u2581receive": 6419, "\u2581soc": 6420, "\u2581tornis": 6421, "\u2581travel": 6422, "led": 6423, "\u2581150": 6424, "\u2581Allende": 6425, "\u2581Card": 6426, "\u2581Mal": 6427, "\u2581OR": 6428, "\u2581Small": 6429, "\u2581William": 6430, "\u2581abandonar": 6431, "\u2581addicional": 6432, "\u2581although": 6433, "\u2581amena\u00e7a": 6434, "\u2581assegut": 6435, "\u2581beg": 6436, "\u2581conflict": 6437, "\u2581cony": 6438, "\u2581crew": 6439, "\u2581cups": 6440, "\u2581discuss": 6441, "\u2581extensi\u00f3": 6442, "\u2581flux": 6443, "\u2581habilitar": 6444, "\u2581habilitats": 6445, "\u2581marxat": 6446, "\u2581matching": 6447, "\u2581na": 6448, "\u2581paga": 6449, "\u2581repository": 6450, "\u2581resum": 6451, "\u2581rise": 6452, "\u2581tractament": 6453, "\u2581vampire": 6454, "\u2581vells": 6455, "cher": 6456, "field": 6457, "mic": 6458, "what": 6459, "\u2581Corre": 6460, "\u2581Foto": 6461, "\u2581Iron": 6462, "\u2581Lock": 6463, "\u2581Podr\u00edem": 6464, "\u2581Prova": 6465, "\u2581True": 6466, "\u2581asos": 6467, "\u2581bala": 6468, "\u2581burning": 6469, "\u2581circle": 6470, "\u2581conflicte": 6471, "\u2581contrast": 6472, "\u2581drogues": 6473, "\u2581drug": 6474, "\u2581est": 6475, "\u2581leg": 6476, "\u2581negra": 6477, "\u2581pedra": 6478, "\u2581pensament": 6479, "\u2581pensen": 6480, "\u2581po": 6481, "\u2581produce": 6482, "\u2581proxy": 6483, "\u2581sagnat": 6484, "\u2581schedule": 6485, "\u2581tercera": 6486, "\u2581usen": 6487, "bye": 6488, "ities": 6489, "nna": 6490, "\u2581Aneu": 6491, "\u2581Asia": 6492, "\u2581Cinc": 6493, "\u2581Digui": 6494, "\u2581Hal": 6495, "\u2581Haur": 6496, "\u2581Icon": 6497, "\u2581Microsoft": 6498, "\u2581PPP": 6499, "\u2581Sh": 6500, "\u2581aplicar": 6501, "\u2581applied": 6502, "\u2581cabells": 6503, "\u2581cansat": 6504, "\u2581coincideix": 6505, "\u2581consci\u00e8ncia": 6506, "\u2581cook": 6507, "\u2581correus": 6508, "\u2581decimal": 6509, "\u2581excel": 6510, "\u2581feta": 6511, "\u2581gra": 6512, "\u2581incloure": 6513, "\u2581instant\u00e0nia": 6514, "\u2581longitud": 6515, "\u2581l\u00edmits": 6516, "\u2581opposite": 6517, "\u2581progr\u00e9s": 6518, "\u2581tha": 6519, "\u2581thy": 6520, "\u2581tip": 6521, "\u2581tornem": 6522, "\u2581violent": 6523, "\u2581voluntat": 6524, "\u2581ximple": 6525, "SA": 6526, "ise": 6527, "vor": 6528, "\u2581British": 6529, "\u2581Daisy": 6530, "\u2581Emma": 6531, "\u2581IRC": 6532, "\u2581Kurt": 6533, "\u2581adjunt": 6534, "\u2581atributs": 6535, "\u2581determine": 6536, "\u2581exchange": 6537, "\u2581lib": 6538, "\u2581necessitava": 6539, "\u2581patir": 6540, "\u2581sincronitzaci\u00f3": 6541, "\u2581suma": 6542, "\u2581tiny": 6543, "\u2581traditional": 6544, "\u2581treatment": 6545, "\u2581trees": 6546, "\u2581ven": 6547, "usuari": 6548, "\u258131": 6549, "\u2581Apply": 6550, "\u2581Congratulations": 6551, "\u2581EUA": 6552, "\u2581FTP": 6553, "\u2581Haig": 6554, "\u2581Josefine": 6555, "\u2581Karl": 6556, "\u2581Marca": 6557, "\u2581Ms": 6558, "\u2581Republic": 6559, "\u2581creixement": 6560, "\u2581entirely": 6561, "\u2581entrat": 6562, "\u2581gay": 6563, "\u2581kitchen": 6564, "\u2581navegaci\u00f3": 6565, "\u2581necessitats": 6566, "\u2581origen": 6567, "\u2581prioritat": 6568, "\u2581protest": 6569, "\u2581query": 6570, "\u2581secure": 6571, "\u2581singly": 6572, "\u2581storm": 6573, "\u2581tindrem": 6574, "LL": 6575, "alg\u00fa": 6576, "back": 6577, "inter": 6578, "loque": 6579, "til": 6580, "yo": 6581, "\u25811'.": 6582, "\u25816,": 6583, "\u2581Sabem": 6584, "\u2581Tyrell": 6585, "\u2581leaders": 6586, "\u2581nation": 6587, "\u2581ous": 6588, "\u2581sources": 6589, "\u2581triangle": 6590, "\u2581veia": 6591, "\u2581views": 6592, "\u2581v\u00eddeos": 6593, "\u2581wild": 6594, "60": 6595, "ative": 6596, "tat": 6597, "\u2581Bran": 6598, "\u2581Fort": 6599, "\u2581Jamie": 6600, "\u2581Ray": 6601, "\u2581Rename": 6602, "\u2581Roman": 6603, "\u2581Targaryen": 6604, "\u2581aparen\u00e7a": 6605, "\u2581arranjaments": 6606, "\u2581bio": 6607, "\u2581correctly": 6608, "\u2581dirigir": 6609, "\u2581feien": 6610, "\u2581figured": 6611, "\u2581interview": 6612, "\u2581podien": 6613, "\u2581refugiats": 6614, "\u2581robat": 6615, "\u2581sum": 6616, "\u2581suspect": 6617, "\u2581torneu": 6618, "\u2581visitar": 6619, "So": 6620, "\u2581Boston": 6621, "\u2581Both": 6622, "\u2581Bottom": 6623, "\u2581Detective": 6624, "\u2581Instead": 6625, "\u2581Syria": 6626, "\u2581Texas": 6627, "\u2581actuals": 6628, "\u2581approach": 6629, "\u2581apropiada": 6630, "\u2581calor": 6631, "\u2581contenir": 6632, "\u2581controlador": 6633, "\u2581deus": 6634, "\u2581ensure": 6635, "\u2581fired": 6636, "\u2581illa": 6637, "\u2581intermediari": 6638, "\u2581random": 6639, "\u2581released": 6640, "\u2581requested": 6641, "\u2581r\u00e0dio": 6642, "\u2581safety": 6643, "\u2581shift": 6644, "\u2581silence": 6645, "\u2581threat": 6646, "\u2581unicode": 6647, "\u2581vindr\u00e0": 6648, "nar": 6649, "sca": 6650, "\u2581EN": 6651, "\u2581Gold": 6652, "\u2581Images": 6653, "\u2581Kill": 6654, "\u2581ON": 6655, "\u2581activitats": 6656, "\u2581bound": 6657, "\u2581brave": 6658, "\u2581construeix": 6659, "\u2581dogs": 6660, "\u2581estimar": 6661, "\u2581expensive": 6662, "\u2581grab": 6663, "\u2581idiot": 6664, "\u2581malgrat": 6665, "\u2581moneda": 6666, "\u2581permanent": 6667, "\u2581soldier": 6668, "\u2581tray": 6669, "\u2581vingui": 6670, "educaci\u00f3": 6671, "quen": 6672, "\u2581Constituci\u00f3": 6673, "\u2581Somebody": 6674, "\u2581Watts": 6675, "\u2581ad\u00e9u": 6676, "\u2581caixes": 6677, "\u2581checking": 6678, "\u2581curious": 6679, "\u2581harm": 6680, "\u2581impressores": 6681, "\u2581incident": 6682, "\u2581normally": 6683, "\u2581pensem": 6684, "\u2581supply": 6685, "\u2581tindria": 6686, "\u2581tio": 6687, "\u2581widgets": 6688, "\u2581witch": 6689, "\";": 6690, "40": 6691, "Con": 6692, "i\u00e0": 6693, "sta": 6694, "twitter": 6695, "\u2581AT": 6696, "\u2581Aye": 6697, "\u2581Dues": 6698, "\u2581Hand": 6699, "\u2581Human": 6700, "\u2581International": 6701, "\u2581Lucy": 6702, "\u2581Ready": 6703, "\u2581Tinent": 6704, "\u2581Want": 6705, "\u2581blanca": 6706, "\u2581castell": 6707, "\u2581coma": 6708, "\u2581comencen": 6709, "\u2581contacts": 6710, "\u2581disappeared": 6711, "\u2581facin": 6712, "\u2581ferit": 6713, "\u2581formar": 6714, "\u2581hello": 6715, "\u2581llistes": 6716, "\u2581lluna": 6717, "\u2581noise": 6718, "\u2581opini\u00f3": 6719, "\u2581perfectament": 6720, "\u2581pinta": 6721, "\u2581quadrat": 6722, "\u2581segurs": 6723, "\u2581stone": 6724, "\u2581subjects": 6725, "\u2581suportar": 6726, "\u2581tabs": 6727, "\u2581veureu": 6728, "anomena": 6729, "ez": 6730, "france": 6731, "ides": 6732, "\u2581Bruno": 6733, "\u2581Contact": 6734, "\u2581Emile": 6735, "\u2581Gira": 6736, "\u2581Marco": 6737, "\u2581Miles": 6738, "\u2581Neu": 6739, "\u2581Palmer": 6740, "\u2581Power": 6741, "\u2581Roma": 6742, "\u2581Second": 6743, "\u2581Session": 6744, "\u2581University": 6745, "\u2581addicionals": 6746, "\u2581arbres": 6747, "\u2581cadira": 6748, "\u2581comptar": 6749, "\u2581drugs": 6750, "\u2581dry": 6751, "\u2581grown": 6752, "\u2581gr\u00e0cia": 6753, "\u2581illegal": 6754, "\u2581mat\u00e8ria": 6755, "\u2581pack": 6756, "\u2581respon": 6757, "\u2581sorprenent": 6758, "\u2581witness": 6759, "\u2581woods": 6760, "informe": 6761, "lia": 6762, "lle": 6763, "ments": 6764, "\u258175": 6765, "\u2581Cert": 6766, "\u2581Nit": 6767, "\u2581ROLE": 6768, "\u2581Raj": 6769, "\u2581Salut": 6770, "\u2581Sisplau": 6771, "\u2581Veig": 6772, "\u2581aniversari": 6773, "\u2581cash": 6774, "\u2581caused": 6775, "\u2581causes": 6776, "\u2581compassi\u00f3": 6777, "\u2581crying": 6778, "\u2581diumenge": 6779, "\u2581dura": 6780, "\u2581escoltat": 6781, "\u2581freda": 6782, "\u2581included": 6783, "\u2581mobile": 6784, "\u2581offered": 6785, "\u2581parelles": 6786, "\u2581parlava": 6787, "\u2581plenty": 6788, "\u2581pres\u00e8ncia": 6789, "\u2581ro": 6790, "\u2581ships": 6791, "\u2581upload": 6792, "aquell": 6793, "down": 6794, "guen": 6795, "gu\u00e9s": 6796, "ight": 6797, "pes": 6798, "with": 6799, "\u00e8ncies": 6800, "\u2581AS": 6801, "\u2581Aces": 6802, "\u2581Cursor": 6803, "\u2581DTD": 6804, "\u2581Element": 6805, "\u2581Inspector": 6806, "\u2581KPilot": 6807, "\u2581Love": 6808, "\u2581Pregunta": 6809, "\u2581September": 6810, "\u2581Space": 6811, "\u2581Tor": 6812, "\u2581actualitzaci\u00f3": 6813, "\u2581aixo": 6814, "\u2581cervesa": 6815, "\u2581coat": 6816, "\u2581columns": 6817, "\u2581degut": 6818, "\u2581dotze": 6819, "\u2581election": 6820, "\u2581exp": 6821, "\u2581fals": 6822, "\u2581leaves": 6823, "\u2581neteja": 6824, "\u2581oberts": 6825, "\u2581parameters": 6826, "\u2581porten": 6827, "\u2581preguntat": 6828, "\u2581regne": 6829, "\u2581utilitzat": 6830, "\u2581vergonya": 6831, "alta": 6832, "uns": 6833, "\u2581Account": 6834, "\u2581Adre\u00e7a": 6835, "\u2581Amplada": 6836, "\u2581Deva": 6837, "\u2581Diggle": 6838, "\u2581Fiona": 6839, "\u2581Harry": 6840, "\u2581Ollie": 6841, "\u2581Protocol": 6842, "\u2581River": 6843, "\u2581Same": 6844, "\u2581Servidor": 6845, "\u2581Standard": 6846, "\u2581afford": 6847, "\u2581juny": 6848, "\u2581lights": 6849, "\u2581natura": 6850, "\u2581possibility": 6851, "\u2581publicat": 6852, "\u2581quedi": 6853, "\u2581ratio": 6854, "\u2581reduir": 6855, "\u2581tanca": 6856, "\u2581tornant": 6857, "\u2581usr": 6858, "\u2581valent": 6859, "\u2581vampir": 6860, "\u2581vision": 6861, "16": 6862, "CE": 6863, "ient": 6864, "\u258129": 6865, "\u2581Illes": 6866, "\u2581Major": 6867, "\u2581Nadal": 6868, "\u2581News": 6869, "\u2581Puntuaci\u00f3": 6870, "\u2581Spain": 6871, "\u2581accepta": 6872, "\u2581arrossegar": 6873, "\u2581ballar": 6874, "\u2581brings": 6875, "\u2581donar\u00e0": 6876, "\u2581escollit": 6877, "\u2581farm": 6878, "\u2581forgotten": 6879, "\u2581iguals": 6880, "\u2581internal": 6881, "\u2581letting": 6882, "\u2581principis": 6883, "\u2581quot": 6884, "\u2581redeals": 6885, "\u2581shooting": 6886, "\u2581skills": 6887, "\u2581slowly": 6888, "\u2581tractant": 6889, "\u2581vulgueu": 6890, "\u2581whoa": 6891, "\u2581wizard": 6892, "\u2581yellow": 6893, "19": 6894, "Est": 6895, "app": 6896, "nda": 6897, "rop": 6898, "rri": 6899, "\u2581Constitution": 6900, "\u2581Gra": 6901, "\u2581Groups": 6902, "\u2581Hell": 6903, "\u2581Jimmy": 6904, "\u2581Puja": 6905, "\u2581RAW": 6906, "\u2581Reanomena": 6907, "\u2581Warning": 6908, "\u2581activities": 6909, "\u2581adequat": 6910, "\u2581config": 6911, "\u2581continent": 6912, "\u2581filters": 6913, "\u2581hiding": 6914, "\u2581launch": 6915, "\u2581menor": 6916, "\u2581owner": 6917, "\u2581parlo": 6918, "\u2581pray": 6919, "\u2581premi": 6920, "\u2581sentiment": 6921, "\u2581student": 6922, "\u2581tasks": 6923, "\u2581vistes": 6924, "explicar": 6925, "\u2581CPU": 6926, "\u2581Floki": 6927, "\u2581Goodbye": 6928, "\u2581Monitor": 6929, "\u2581Perd\u00f3": 6930, "\u2581Plan": 6931, "\u2581Theon": 6932, "\u2581activity": 6933, "\u2581crims": 6934, "\u2581desplegable": 6935, "\u2581hagin": 6936, "\u2581modes": 6937, "\u2581plegat": 6938, "\u2581poca": 6939, "\u2581quil\u00f2metres": 6940, "\u2581ridiculous": 6941, "\u2581served": 6942, "\u2581superar": 6943, "\u2581thoughts": 6944, "30": 6945, "?,\"": 6946, "If": 6947, "ino": 6948, "udi": 6949, "\u2581Cersei": 6950, "\u2581Cu": 6951, "\u2581Danny": 6952, "\u2581Finalment": 6953, "\u2581Little": 6954, "\u2581Middle": 6955, "\u2581Mouse": 6956, "\u2581Viewer": 6957, "\u2581avi\u00f3": 6958, "\u2581babies": 6959, "\u2581boom": 6960, "\u2581cars": 6961, "\u2581consells": 6962, "\u2581costs": 6963, "\u2581crowd": 6964, "\u2581detail": 6965, "\u2581dinar": 6966, "\u2581guns": 6967, "\u2581ideal": 6968, "\u2581int": 6969, "\u2581patient": 6970, "\u2581quadre": 6971, "\u2581slave": 6972, "\u2581smile": 6973, "\u2581stole": 6974, "\u2581throat": 6975, "\u2581throughout": 6976, "\u2581truca": 6977, "\u2581venen": 6978, "\u2581vocabulari": 6979, "amo": 6980, "burg": 6981, "most": 6982, "\u2581April": 6983, "\u2581Bor": 6984, "\u2581Di\u00e0leg": 6985, "\u2581England": 6986, "\u2581Islands": 6987, "\u2581Stand": 6988, "\u2581Sunday": 6989, "\u2581Utilitza": 6990, "\u2581Vuit": 6991, "\u2581adonat": 6992, "\u2581at\u00e8s": 6993, "\u2581beer": 6994, "\u2581bin": 6995, "\u2581choosing": 6996, "\u2581committed": 6997, "\u2581directoris": 6998, "\u2581editing": 6999, "\u2581gotten": 7000, "\u2581industry": 7001, "\u2581manca": 7002, "\u2581millions": 7003, "\u2581nbsp": 7004, "\u2581paying": 7005, "\u2581podr\u00edeu": 7006, "\u2581prime": 7007, "\u2581suposat": 7008, "\u2581threw": 7009, "card": 7010, "ern": 7011, "gre": 7012, "honor": 7013, "ill": 7014, "\u2581BY": 7015, "\u2581Connection": 7016, "\u2581Continue": 7017, "\u2581Howard": 7018, "\u2581Indiqueu": 7019, "\u2581Mahfouf": 7020, "\u2581NOT": 7021, "\u2581Pen": 7022, "\u2581WAS": 7023, "\u2581Write": 7024, "\u2581Yep": 7025, "\u2581balls": 7026, "\u2581basis": 7027, "\u2581capa\u00e7os": 7028, "\u2581comments": 7029, "\u2581criminals": 7030, "\u2581disable": 7031, "\u2581exportaci\u00f3": 7032, "\u2581fancy": 7033, "\u2581forms": 7034, "\u2581geni": 7035, "\u2581grave": 7036, "\u2581remains": 7037, "\u2581segurament": 7038, "\u2581semblen": 7039, "\u2581sync": 7040, "\u2581television": 7041, "\u2581treu": 7042, "\u2581typing": 7043, "UM": 7044, "apa": 7045, "jan": 7046, "laci\u00f3": 7047, "sol": 7048, "\u2581Andy": 7049, "\u2581Bay": 7050, "\u2581Conec": 7051, "\u2581JPEG": 7052, "\u2581Madison": 7053, "\u2581Matthias": 7054, "\u2581Miri": 7055, "\u2581Ram": 7056, "\u2581Selected": 7057, "\u2581Tywin": 7058, "\u2581Unless": 7059, "\u2581alternative": 7060, "\u2581antics": 7061, "\u2581appeared": 7062, "\u2581benvinguda": 7063, "\u2581bullet": 7064, "\u2581ch": 7065, "\u2581deure": 7066, "\u2581feble": 7067, "\u2581incredible": 7068, "\u2581indicar": 7069, "\u2581kexi": 7070, "\u2581llet": 7071, "\u2581machines": 7072, "\u2581march": 7073, "\u2581massive": 7074, "\u2581obre": 7075, "\u2581paios": 7076, "\u2581penjar": 7077, "\u2581ric": 7078, "\u2581sabies": 7079, "\u2581signe": 7080, "\u2581traductor": 7081, "\u2581xicot": 7082, "auto": 7083, "bri": 7084, "cri": 7085, "havien": 7086, "pel": 7087, "\u2581(%1)": 7088, "\u2581Ai": 7089, "\u2581Dig": 7090, "\u2581Inici": 7091, "\u2581July": 7092, "\u2581Mata": 7093, "\u2581Party": 7094, "\u2581Rep\u00fablica": 7095, "\u2581Terry": 7096, "\u2581Were": 7097, "\u2581alarmes": 7098, "\u2581alemany": 7099, "\u2581burned": 7100, "\u2581cadenes": 7101, "\u2581comfortable": 7102, "\u2581connections": 7103, "\u2581copa": 7104, "\u2581creant": 7105, "\u2581defensar": 7106, "\u2581depends": 7107, "\u2581esfor\u00e7": 7108, "\u2581fletxa": 7109, "\u2581highly": 7110, "\u2581kick": 7111, "\u2581le": 7112, "\u2581pacient": 7113, "\u2581permissions": 7114, "\u2581planificaci\u00f3": 7115, "Va": 7116, "acabar": 7117, "bat": 7118, "bro": 7119, "cy": 7120, "entendre": 7121, "gut": 7122, "nic": 7123, "oli": 7124, "pas": 7125, "\u00edeu": 7126, "\u2581Albizzi": 7127, "\u2581Album": 7128, "\u2581Ge": 7129, "\u2581Germany": 7130, "\u2581Har": 7131, "\u2581History": 7132, "\u2581Inter": 7133, "\u2581Josep": 7134, "\u2581Master": 7135, "\u2581Outlook": 7136, "\u2581Public": 7137, "\u2581Sounds": 7138, "\u2581UN": 7139, "\u2581apologize": 7140, "\u2581autenticaci\u00f3": 7141, "\u2581cavaller": 7142, "\u2581complir": 7143, "\u2581cooperaci\u00f3": 7144, "\u2581experiments": 7145, "\u2581literally": 7146, "\u2581lleng\u00fces": 7147, "\u2581located": 7148, "\u2581pr\u00f2pies": 7149, "\u2581pure": 7150, "\u2581viscut": 7151, "\u2581xml": 7152, "\u2581\u00e0rees": 7153, "$": 7154, "1:": 7155, "autor": 7156, "ei": 7157, "ini": 7158, "post": 7159, "rin": 7160, "ward": 7161, "\u2581African": 7162, "\u2581Baden": 7163, "\u2581Committee": 7164, "\u2581DOCUMENT": 7165, "\u2581Horizontal": 7166, "\u2581Lake": 7167, "\u2581Pren": 7168, "\u2581Sistema": 7169, "\u2581Style": 7170, "\u2581blank": 7171, "\u2581comuna": 7172, "\u2581darkness": 7173, "\u2581disease": 7174, "\u2581especifica": 7175, "\u2581esposa": 7176, "\u2581humanitat": 7177, "\u2581identificar": 7178, "\u2581ill": 7179, "\u2581podrem": 7180, "\u2581popup": 7181, "\u2581protests": 7182, "\u2581separar": 7183, "\u2581spell": 7184, "\u2581tempesta": 7185, "\u2581zones": 7186, "\u2581\u00e9rem": 7187, "Per\u00f2": 7188, "ters": 7189, "\u00f8": 7190, "\u258100": 7191, "\u2581Bank": 7192, "\u2581Commuta": 7193, "\u2581Contrasenya": 7194, "\u2581Landing": 7195, "\u2581Life": 7196, "\u2581Otherwise": 7197, "\u2581Security": 7198, "\u2581Tony": 7199, "\u2581Uns": 7200, "\u2581carried": 7201, "\u2581certificates": 7202, "\u2581er": 7203, "\u2581flipped": 7204, "\u2581heading": 7205, "\u2581male": 7206, "\u2581pretend": 7207, "\u2581printers": 7208, "\u2581repetir": 7209, "\u2581ronda": 7210, "\u2581screenshot": 7211, "\u2581selling": 7212, "\u2581sides": 7213, "\u2581significat": 7214, "\u2581tone": 7215, "\u2581whore": 7216, "Estat": 7217, "Internet": 7218, "ef": 7219, "ians": 7220, "legal": 7221, "sen": 7222, "sp": 7223, "\u00efn": 7224, "\u25812010": 7225, "\u2581Bolton": 7226, "\u2581October": 7227, "\u2581RE": 7228, "\u2581Renly": 7229, "\u2581Ryan": 7230, "\u2581Service": 7231, "\u2581Tag": 7232, "\u2581Tara": 7233, "\u2581afegeix": 7234, "\u2581alternating": 7235, "\u2581bord": 7236, "\u2581campament": 7237, "\u2581conscient": 7238, "\u2581hunt": 7239, "\u2581meravell\u00f3s": 7240, "\u2581mostly": 7241, "\u2581novel": 7242, "\u2581pocket": 7243, "\u2581promesa": 7244, "\u2581repeat": 7245, "\u2581resolution": 7246, "\u2581shame": 7247, "\u2581temperature": 7248, "\u2581tornen": 7249, "\u2581tracks": 7250, "\u2581weather": 7251, "Aix\u00f2": 7252, "UN": 7253, "bal": 7254, "ici": 7255, "metre": 7256, "ux": 7257, "\u00e0ries": 7258, "\u25812:": 7259, "\u25817.": 7260, "\u2581Arthur": 7261, "\u2581Better": 7262, "\u2581Bjorn": 7263, "\u2581Comandant": 7264, "\u2581Drop": 7265, "\u2581KOrganizer": 7266, "\u2581Profile": 7267, "\u2581blancs": 7268, "\u2581captura": 7269, "\u2581carrying": 7270, "\u2581castle": 7271, "\u2581desk": 7272, "\u2581elegant": 7273, "\u2581executed": 7274, "\u2581growth": 7275, "\u2581invited": 7276, "\u2581largest": 7277, "\u2581latest": 7278, "\u2581newspaper": 7279, "\u2581participants": 7280, "\u2581participar": 7281, "\u2581past\u00eds": 7282, "\u2581recommended": 7283, "\u2581senyals": 7284, "\u2581tongue": 7285, "\u2581viuen": 7286, "Europa": 7287, "Language": 7288, "acosta": 7289, "ika": 7290, "rg": 7291, "\u2581...\"": 7292, "\u2581Abu": 7293, "\u2581Americans": 7294, "\u2581CIA": 7295, "\u2581Clara": 7296, "\u2581Fan": 7297, "\u2581Friday": 7298, "\u2581Greek": 7299, "\u2581Malgrat": 7300, "\u2581Morning": 7301, "\u2581Object": 7302, "\u2581Position": 7303, "\u2581Sid": 7304, "\u2581Under": 7305, "\u2581causar": 7306, "\u2581considera": 7307, "\u2581conv\u00e8ncer": 7308, "\u2581dirty": 7309, "\u2581estableix": 7310, "\u2581f\u00f3rmula": 7311, "\u2581guanya": 7312, "\u2581inserir": 7313, "\u2581keyword": 7314, "\u2581listed": 7315, "\u2581l\u00edders": 7316, "\u2581ordenar": 7317, "\u2581rates": 7318, "\u2581roll": 7319, "\u2581russos": 7320, "\u2581seq\u00fc\u00e8ncies": 7321, "\u2581servers": 7322, "\u2581setup": 7323, "\u2581tancada": 7324, "\u2581tear": 7325, "\u2581terres": 7326, "\u2581trusted": 7327, "acions": 7328, "eixen": 7329, "pos": 7330, "ray": 7331, "ssin": 7332, "sson": 7333, "\u2581Cho": 7334, "\u2581Except": 7335, "\u2581GPS": 7336, "\u2581Ignora": 7337, "\u2581Jessica": 7338, "\u2581Memory": 7339, "\u2581Order": 7340, "\u2581Par": 7341, "\u2581P\u00e0gina": 7342, "\u2581adding": 7343, "\u2581attributes": 7344, "\u2581bright": 7345, "\u2581celebrar": 7346, "\u2581coincid\u00e8ncia": 7347, "\u2581colpejar": 7348, "\u2581deliver": 7349, "\u2581department": 7350, "\u2581dif\u00edcils": 7351, "\u2581ear": 7352, "\u2581escriu": 7353, "\u2581helps": 7354, "\u2581llums": 7355, "\u2581meat": 7356, "\u2581nacionals": 7357, "\u2581pie": 7358, "\u2581pistes": 7359, "\u2581playlist": 7360, "\u2581poders": 7361, "\u2581puzzle": 7362, "\u2581sens": 7363, "\u2581shoes": 7364, "\u2581substituir": 7365, "\u2581tractat": 7366, "\u2581txe": 7367, "\u2581wash": 7368, "\u2581\u00edtems": 7369, "--\"": 7370, "An": 7371, "ajudar": 7372, "eria": 7373, "esos": 7374, "hy": 7375, "mat": 7376, "pex": 7377, "ski": 7378, "tives": 7379, "\u2581Liam": 7380, "\u2581Sona": 7381, "\u2581Steve": 7382, "\u2581bird": 7383, "\u2581closing": 7384, "\u2581conf": 7385, "\u2581convert": 7386, "\u2581corresponding": 7387, "\u2581demand": 7388, "\u2581disposa": 7389, "\u2581enfadat": 7390, "\u2581galetes": 7391, "\u2581giren": 7392, "\u2581houses": 7393, "\u2581humor": 7394, "\u2581mercy": 7395, "\u2581ordered": 7396, "\u2581parlen": 7397, "\u2581religion": 7398, "\u2581suau": 7399, "\u2581surface": 7400, "\u2581unable": 7401, "\u2581west": 7402, "\u2581\u00e8poca": 7403, "14": 7404, "estil": 7405, "ither": 7406, "tiques": 7407, "\u00e1n": 7408, "\u00e8xit": 7409, "\u2581Acabo": 7410, "\u2581Angle": 7411, "\u2581Barcelona": 7412, "\u2581Bra": 7413, "\u2581Ferrer": 7414, "\u2581INDI": 7415, "\u2581Pat": 7416, "\u2581Recordes": 7417, "\u2581asleep": 7418, "\u2581avi": 7419, "\u2581cama": 7420, "\u2581comencem": 7421, "\u2581complicated": 7422, "\u2581develop": 7423, "\u2581escales": 7424, "\u2581failure": 7425, "\u2581franc\u00e8s": 7426, "\u2581gain": 7427, "\u2581harder": 7428, "\u2581journey": 7429, "\u2581measure": 7430, "\u2581mereix": 7431, "\u2581perd": 7432, "\u2581perm\u00e8s": 7433, "\u2581pet\u00f3": 7434, "\u2581plant": 7435, "\u2581planta": 7436, "\u2581presence": 7437, "\u2581scan": 7438, "\u2581\u00b7": 7439, "MP": 7440, "aven": 7441, "enc": 7442, "hivern": 7443, "uda": 7444, "\u2581Ali": 7445, "\u2581Bal": 7446, "\u2581Details": 7447, "\u2581Escala": 7448, "\u2581February": 7449, "\u2581Harper": 7450, "\u2581Ignore": 7451, "\u2581Intenta": 7452, "\u2581Maxim": 7453, "\u2581Miller": 7454, "\u2581Pol": 7455, "\u2581Rollo": 7456, "\u2581Santa": 7457, "\u2581Simple": 7458, "\u2581Six": 7459, "\u2581Smith": 7460, "\u2581Undo": 7461, "\u2581Until": 7462, "\u2581acabo": 7463, "\u2581assassinar": 7464, "\u2581barely": 7465, "\u2581brown": 7466, "\u2581busca": 7467, "\u2581cadascun": 7468, "\u2581connectat": 7469, "\u2581daily": 7470, "\u2581destination": 7471, "\u2581fingers": 7472, "\u2581guardar": 7473, "\u2581intelligence": 7474, "\u2581mate": 7475, "\u2581movent": 7476, "\u2581officers": 7477, "\u2581oficials": 7478, "\u2581passen": 7479, "\u2581recta": 7480, "\u2581senzilla": 7481, "\u2581tindr\u00e0s": 7482, "\u2581venia": 7483, "\u2581xicota": 7484, "-1": 7485, "CC": 7486, "MA": 7487, "ME": 7488, "article": 7489, "ives": 7490, "\u2581Colonel": 7491, "\u2581Western": 7492, "\u2581bread": 7493, "\u2581cad\u00e0ver": 7494, "\u2581conference": 7495, "\u2581crimes": 7496, "\u2581dolenta": 7497, "\u2581el\u00e8ctrica": 7498, "\u2581evident": 7499, "\u2581excited": 7500, "\u2581flowers": 7501, "\u2581fourth": 7502, "\u2581gat": 7503, "\u2581guide": 7504, "\u2581joy": 7505, "\u2581ocean": 7506, "\u2581organitzar": 7507, "\u2581pati": 7508, "\u2581performance": 7509, "\u2581portava": 7510, "\u2581presentation": 7511, "\u2581traffic": 7512, "\u2581trobada": 7513, "\u2581winter": 7514, "2;": 7515, "Es": 7516, "NC": 7517, "ND": 7518, "ake": 7519, "new": 7520, "script": 7521, "wrap": 7522, "\u00edn": 7523, "\u2581Ahir": 7524, "\u2581Alexander": 7525, "\u2581Algun": 7526, "\u2581Fas": 7527, "\u2581Fire": 7528, "\u2581HP": 7529, "\u2581Trust": 7530, "\u2581activat": 7531, "\u2581agradat": 7532, "\u2581answered": 7533, "\u2581cambra": 7534, "\u2581cient\u00edfics": 7535, "\u2581circumstances": 7536, "\u2581compatible": 7537, "\u2581concret": 7538, "\u2581council": 7539, "\u2581ei": 7540, "\u2581experts": 7541, "\u2581men\u00fas": 7542, "\u2581pixels": 7543, "\u2581politics": 7544, "\u2581printed": 7545, "\u2581puntuaci\u00f3": 7546, "\u2581vampirs": 7547, "gram": 7548, "light": 7549, "rar": 7550, "tal": 7551, "tica": 7552, "tit": 7553, "water": 7554, "\u2581Aunt": 7555, "\u2581Besides": 7556, "\u2581Camp": 7557, "\u2581Disable": 7558, "\u2581Frame": 7559, "\u2581Lauri": 7560, "\u2581Modifica": 7561, "\u2581Moriarty": 7562, "\u2581POP": 7563, "\u2581Seg\u00fcent": 7564, "\u2581Sound": 7565, "\u2581Ver": 7566, "\u2581Yet": 7567, "\u2581accessible": 7568, "\u2581alliberar": 7569, "\u2581carb\u00f3": 7570, "\u2581cavalls": 7571, "\u2581corresponent": 7572, "\u2581desenvolupadors": 7573, "\u2581encrypted": 7574, "\u2581heaven": 7575, "\u2581hola": 7576, "\u2581influence": 7577, "\u2581majority": 7578, "\u2581resoluci\u00f3": 7579, "\u2581teeth": 7580, "RI": 7581, "Shortcut": 7582, "dem": 7583, "infern": 7584, "m\u00e9s": 7585, "pr": 7586, "\u258112.": 7587, "\u2581Angeles": 7588, "\u2581Aviat": 7589, "\u2581Class": 7590, "\u2581Developer": 7591, "\u2581EXIF": 7592, "\u2581Greg": 7593, "\u2581Indian": 7594, "\u2581Matthew": 7595, "\u2581Perfecte": 7596, "\u2581Terminal": 7597, "\u2581Vaja": 7598, "\u2581YouTube": 7599, "\u2581ajudant": 7600, "\u2581b\u00e0sicament": 7601, "\u2581cabell": 7602, "\u2581calculate": 7603, "\u2581diem": 7604, "\u2581gu\u00e0rdia": 7605, "\u2581lateral": 7606, "\u2581morint": 7607, "\u2581pir\u00e0mide": 7608, "\u2581plugins": 7609, "\u2581producci\u00f3": 7610, "\u2581rastre": 7611, "\u2581rebel": 7612, "\u2581salvat": 7613, "\u2581salvatges": 7614, "\u2581sostre": 7615, "\u2581truc": 7616, "\u2581vegi": 7617, "AM": 7618, "great": 7619, "iz": 7620, "mm": 7621, "rra": 7622, "ting": 7623, "valor": 7624, "\u00e4": 7625, "\u00eda": 7626, "\u2581Again": 7627, "\u2581Almenys": 7628, "\u2581Borg": 7629, "\u2581Exactly": 7630, "\u2581Mexico": 7631, "\u2581Previously": 7632, "\u2581Srta": 7633, "\u2581Tomorrow": 7634, "\u2581Volem": 7635, "\u2581bat": 7636, "\u2581butxaca": 7637, "\u2581clarament": 7638, "\u2581creixent": 7639, "\u2581ears": 7640, "\u2581exemples": 7641, "\u2581falling": 7642, "\u2581flying": 7643, "\u2581franc": 7644, "\u2581generate": 7645, "\u2581improve": 7646, "\u2581ind\u00fastria": 7647, "\u2581intern": 7648, "\u2581kcontrol": 7649, "\u2581posant": 7650, "\u2581prisoners": 7651, "\u2581shadow": 7652, "\u2581strategy": 7653, "\u2581tria": 7654, "-8": 7655, "3;": 7656, "DR": 7657, "avi": 7658, "control": 7659, "l\u00e0": 7660, "nts": 7661, "quis": 7662, "which": 7663, "\u00f2s": 7664, "\u2581Dades": 7665, "\u2581Directory": 7666, "\u2581Interval": 7667, "\u2581Item": 7668, "\u2581Must": 7669, "\u2581Nacional": 7670, "\u2581Win": 7671, "\u2581abast": 7672, "\u2581actualitzar": 7673, "\u2581apartament": 7674, "\u2581assassinats": 7675, "\u2581bottle": 7676, "\u2581canviant": 7677, "\u2581carbon": 7678, "\u2581chief": 7679, "\u2581complicat": 7680, "\u2581compta": 7681, "\u2581da": 7682, "\u2581defineix": 7683, "\u2581demanant": 7684, "\u2581descans": 7685, "\u2581extensions": 7686, "\u2581freq\u00fc\u00e8ncia": 7687, "\u2581gir": 7688, "\u2581happiness": 7689, "\u2581insult": 7690, "\u2581jack": 7691, "\u2581judicial": 7692, "\u2581mask": 7693, "\u2581mentides": 7694, "\u2581mortal": 7695, "\u2581ordinadors": 7696, "\u2581orgull\u00f3s": 7697, "\u2581pals": 7698, "\u2581periodistes": 7699, "\u2581pregnant": 7700, "\u2581require": 7701, "\u2581seues": 7702, "\u2581thus": 7703, "\u2581trencaclosques": 7704, "\u2581trobarem": 7705, "\u2581viatjar": 7706, "\u2581wise": 7707, "point": 7708, "rac": 7709, "ram": 7710, "\u2581Aixeca": 7711, "\u2581Brock": 7712, "\u2581Dec": 7713, "\u2581Espai": 7714, "\u2581Estil": 7715, "\u2581Fons": 7716, "\u2581Multi": 7717, "\u2581Panel": 7718, "\u2581Quantes": 7719, "\u2581Rome": 7720, "\u2581Supreme": 7721, "\u2581armed": 7722, "\u2581aturat": 7723, "\u2581cap\u00edtol": 7724, "\u2581democr\u00e0cia": 7725, "\u2581departament": 7726, "\u2581dressed": 7727, "\u2581f\u00edsica": 7728, "\u2581generals": 7729, "\u2581logo": 7730, "\u2581muntanya": 7731, "\u2581navegar": 7732, "\u2581painting": 7733, "\u2581photograph": 7734, "\u2581pol": 7735, "\u2581porc": 7736, "\u2581portar\u00e9": 7737, "\u2581pressupost": 7738, "\u2581pyramid": 7739, "\u2581schools": 7740, "\u2581soft": 7741, "\u2581solament": 7742, "\u2581spoken": 7743, "\u2581staff": 7744, "\u2581tags": 7745, "\u2581tocat": 7746, "\u2581tomba": 7747, "hotel": 7748, "just": 7749, "town": 7750, "\u2581Acabe": 7751, "\u2581Broadway": 7752, "\u2581December": 7753, "\u2581Deshabilita": 7754, "\u2581Grand": 7755, "\u2581Guys": 7756, "\u2581Julian": 7757, "\u2581Loras": 7758, "\u2581Members": 7759, "\u2581M\u00e8dici": 7760, "\u2581Repeat": 7761, "\u2581belongs": 7762, "\u2581canviar\u00e0": 7763, "\u2581compra": 7764, "\u2581comprovaci\u00f3": 7765, "\u2581detectat": 7766, "\u2581diagrames": 7767, "\u2581dir\u00e0": 7768, "\u2581estar\u00e9": 7769, "\u2581execution": 7770, "\u2581includes": 7771, "\u2581initial": 7772, "\u2581modificat": 7773, "\u2581nucli": 7774, "\u2581presa": 7775, "\u2581profunditat": 7776, "\u2581proof": 7777, "\u2581refugees": 7778, "\u2581represents": 7779, "\u2581separated": 7780, "\u2581succeeix": 7781, "\u2581suicide": 7782, "\u2581teaching": 7783, "\u2581treated": 7784, "AN": 7785, "Co": 7786, "Please": 7787, "TER": 7788, "atura": 7789, "eres": 7790, "stan": 7791, "t\u00ed": 7792, "veu": 7793, "\u00eft": 7794, "\u2581Bus": 7795, "\u2581Codi": 7796, "\u2581Jane": 7797, "\u2581Layout": 7798, "\u2581Mag": 7799, "\u2581Medici": 7800, "\u2581Opens": 7801, "\u2581Taylor": 7802, "\u2581Troba": 7803, "\u2581alternativa": 7804, "\u2581bandera": 7805, "\u2581bookmark": 7806, "\u2581casat": 7807, "\u2581descriu": 7808, "\u2581developers": 7809, "\u2581examples": 7810, "\u2581exportar": 7811, "\u2581fatal": 7812, "\u2581ignore": 7813, "\u2581igualment": 7814, "\u2581nowhere": 7815, "\u2581pantalons": 7816, "\u2581pits": 7817, "\u2581prince": 7818, "\u2581rus": 7819, "\u2581scientific": 7820, "\u2581segueixen": 7821, "\u2581translations": 7822, "\u2581vacances": 7823, "II": 7824, "ack": 7825, "agafar": 7826, "dge": 7827, "esta": 7828, "estiu": 7829, "mina": 7830, "\u2581Ac": 7831, "\u2581Bell": 7832, "\u2581Example": 7833, "\u2581Fu": 7834, "\u2581Gatsby": 7835, "\u2581KPhotoAlbum": 7836, "\u2581Kexi": 7837, "\u2581Program": 7838, "\u2581Saint": 7839, "\u2581barreja": 7840, "\u2581becoming": 7841, "\u2581bill": 7842, "\u2581cave": 7843, "\u2581deixo": 7844, "\u2581estudiar": 7845, "\u2581fail": 7846, "\u2581fase": 7847, "\u2581hint": 7848, "\u2581introdu\u00eft": 7849, "\u2581loose": 7850, "\u2581mesures": 7851, "\u2581overwrite": 7852, "\u2581podr\u00e0s": 7853, "\u2581preocupat": 7854, "\u2581protected": 7855, "\u2581publicaci\u00f3": 7856, "\u2581replaced": 7857, "\u2581sabates": 7858, "\u2581sobreescriure": 7859, "\u2581venjan\u00e7a": 7860, "\u2581volien": 7861, "ib": 7862, "iem": 7863, "ious": 7864, "king": 7865, "nis": 7866, "opini\u00f3": 7867, "rit": 7868, "ther": 7869, "vell": 7870, "\u2581Bin": 7871, "\u2581Browser": 7872, "\u2581Hurry": 7873, "\u2581IM": 7874, "\u2581Iranian": 7875, "\u2581M\u00e0": 7876, "\u2581anirem": 7877, "\u2581ca\u00e7a": 7878, "\u2581choices": 7879, "\u2581criatura": 7880, "\u2581downloaded": 7881, "\u2581enmig": 7882, "\u2581federal": 7883, "\u2581identificador": 7884, "\u2581implementaci\u00f3": 7885, "\u2581implica": 7886, "\u2581inf": 7887, "\u2581introduce": 7888, "\u2581lesson": 7889, "\u2581mostrat": 7890, "\u2581prisoner": 7891, "\u2581sales": 7892, "\u2581surti": 7893, "\u2581viewer": 7894, "\u2581vigilant": 7895, "\u2581visualitzar": 7896, "DA": 7897, "RT": 7898, "ball": 7899, "homes": 7900, "ras": 7901, "style": 7902, "\u2581Actualment": 7903, "\u2581Ajusta": 7904, "\u2581DEL": 7905, "\u2581Environment": 7906, "\u2581Gar": 7907, "\u2581Lisa": 7908, "\u2581NAME": 7909, "\u2581Ph": 7910, "\u2581Roger": 7911, "\u2581Substitueix": 7912, "\u2581Tree": 7913, "\u2581Warlow": 7914, "\u2581Water": 7915, "\u2581achieve": 7916, "\u2581al\u00e7ada": 7917, "\u2581artificial": 7918, "\u2581consum": 7919, "\u2581crack": 7920, "\u2581culpable": 7921, "\u2581edifici": 7922, "\u2581encriptatge": 7923, "\u2581formaci\u00f3": 7924, "\u2581fot": 7925, "\u2581gaudir": 7926, "\u2581guest": 7927, "\u2581lluitant": 7928, "\u2581magatzem": 7929, "\u2581mixed": 7930, "\u2581naci\u00f3": 7931, "\u2581preparats": 7932, "\u2581reproduir": 7933, "\u2581sudden": 7934, "\u2581temperatura": 7935, "\u2581temple": 7936, "\u2581yo": 7937, "bot": 7938, "uta": 7939, "ye": 7940, "\u2581(1)": 7941, "\u258136": 7942, "\u2581Brown": 7943, "\u2581Cas": 7944, "\u2581Cid": 7945, "\u2581Estar\u00e0": 7946, "\u2581Fran\u00e7a": 7947, "\u2581Joss": 7948, "\u2581Kolab": 7949, "\u2581Lluna": 7950, "\u2581Silenci": 7951, "\u2581ace": 7952, "\u2581ajustar": 7953, "\u2581bojos": 7954, "\u2581curve": 7955, "\u2581desastre": 7956, "\u2581disparat": 7957, "\u2581doni": 7958, "\u2581enganxar": 7959, "\u2581entering": 7960, "\u2581entrevista": 7961, "\u2581explanation": 7962, "\u2581fusi\u00f3": 7963, "\u2581indicat": 7964, "\u2581matem\u00e0tiques": 7965, "\u2581moguis": 7966, "\u2581naturalesa": 7967, "\u2581organitzacions": 7968, "\u2581parties": 7969, "\u2581perd\u00f3": 7970, "\u2581posar\u00e0": 7971, "\u2581reckon": 7972, "\u2581religi\u00f3": 7973, "\u2581shortcuts": 7974, "\u2581strike": 7975, "\u2581teachers": 7976, "25": 7977, "acc\u00e9s": 7978, "alegra": 7979, "escena": 7980, "leg": 7981, "philipp": 7982, "rr": 7983, "\u25817,": 7984, "\u2581Aah": 7985, "\u2581Anir\u00e9": 7986, "\u2581GM": 7987, "\u2581Hard": 7988, "\u2581Jonathan": 7989, "\u2581Mina": 7990, "\u2581Pakistan": 7991, "\u2581SMS": 7992, "\u2581Talla": 7993, "\u2581Tanmateix": 7994, "\u2581Vincent": 7995, "\u2581advanced": 7996, "\u2581atrapat": 7997, "\u2581attachment": 7998, "\u2581authority": 7999, "\u2581bookmarks": 8000, "\u2581convidat": 8001, "\u2581c\u00e0meres": 8002, "\u2581dev": 8003, "\u2581divendres": 8004, "\u2581envia": 8005, "\u2581estad\u00edstiques": 8006, "\u2581ferida": 8007, "\u2581fusta": 8008, "\u2581gal": 8009, "\u2581gate": 8010, "\u2581identify": 8011, "\u2581manner": 8012, "\u2581marge": 8013, "\u2581math": 8014, "\u2581miniatures": 8015, "\u2581oferta": 8016, "\u2581presents": 8017, "\u2581produeix": 8018, "\u2581redeal": 8019, "\u2581remota": 8020, "\u2581rid\u00edcul": 8021, "\u2581rumors": 8022, "\u2581sos": 8023, "\u2581struggle": 8024, "\u2581superf\u00edcie": 8025, "\u2581s\u00edmbols": 8026, "\u2581ti": 8027, "\u2581tradicional": 8028, "ash": 8029, "dent": 8030, "gent": 8031, "lock": 8032, "oo": 8033, "ped": 8034, "tz": 8035, "\u2581(12": 8036, "\u25811.\"": 8037, "\u2581720": 8038, "\u2581Chat": 8039, "\u2581Company": 8040, "\u2581Dark": 8041, "\u2581Dead": 8042, "\u2581Enrere": 8043, "\u2581Glee": 8044, "\u2581KStars": 8045, "\u2581MySQL": 8046, "\u2581Overwrite": 8047, "\u2581Par\u00e0metres": 8048, "\u2581Sets": 8049, "\u2581Software": 8050, "\u2581Suprimeix": 8051, "\u2581Talk": 8052, "\u2581adult": 8053, "\u2581cami\u00f3": 8054, "\u2581carregant": 8055, "\u2581detailed": 8056, "\u2581enamorat": 8057, "\u2581joined": 8058, "\u2581organization": 8059, "\u2581planned": 8060, "\u2581plot": 8061, "\u2581podran": 8062, "\u2581protestes": 8063, "\u2581rics": 8064, "\u2581roda": 8065, "\u2581salvatge": 8066, "\u2581shirt": 8067, "\u2581tretze": 8068, "\u2581trigger": 8069, "\u2581vital": 8070, "\\\\\\\\": 8071, "experi\u00e8ncia": 8072, "interessa": 8073, "ky": 8074, "maq": 8075, "nce": 8076, "only": 8077, "qu\u00e8": 8078, "zh": 8079, "\u2581%4": 8080, "\u258148": 8081, "\u2581Automatically": 8082, "\u2581Canvi": 8083, "\u2581Construeix": 8084, "\u2581Explica": 8085, "\u2581Grant": 8086, "\u2581HE": 8087, "\u2581Manuel": 8088, "\u2581Olivia": 8089, "\u2581Palm": 8090, "\u2581Saudi": 8091, "\u2581Sea": 8092, "\u2581Tru": 8093, "\u2581Wikipedia": 8094, "\u2581actuar": 8095, "\u2581aspectes": 8096, "\u2581automatic": 8097, "\u2581beb\u00e8": 8098, "\u2581bla": 8099, "\u2581branch": 8100, "\u2581bruixa": 8101, "\u2581calcular": 8102, "\u2581clever": 8103, "\u2581confirm": 8104, "\u2581depuraci\u00f3": 8105, "\u2581effective": 8106, "\u2581endur": 8107, "\u2581eventually": 8108, "\u2581fake": 8109, "\u2581fam\u00f3s": 8110, "\u2581fate": 8111, "\u2581groupware": 8112, "\u2581heat": 8113, "\u2581id": 8114, "\u2581journalist": 8115, "\u2581maj\u00fascules": 8116, "\u2581neighborhood": 8117, "\u2581nervous": 8118, "\u2581platform": 8119, "\u2581presoners": 8120, "\u2581privada": 8121, "\u2581pur": 8122, "\u2581supports": 8123, "\u2581toward": 8124, "\u2581upstairs": 8125, "\u2581ver": 8126, "\u2581vores": 8127, "100": 8128, "600": 8129, "FDL": 8130, "gat": 8131, "octubre": 8132, "odi": 8133, "test": 8134, "\u2581Caroline": 8135, "\u2581DNA": 8136, "\u2581Especifica": 8137, "\u2581Forgive": 8138, "\u2581Guess": 8139, "\u2581Margaret": 8140, "\u2581Notes": 8141, "\u2581PPD": 8142, "\u2581Primera": 8143, "\u2581Radio": 8144, "\u2581Real": 8145, "\u2581Such": 8146, "\u2581anomena": 8147, "\u2581bars": 8148, "\u2581catal\u00e0": 8149, "\u2581configurat": 8150, "\u2581efforts": 8151, "\u2581impressionant": 8152, "\u2581motion": 8153, "\u2581nits": 8154, "\u2581nomes": 8155, "\u2581partners": 8156, "\u2581previously": 8157, "\u2581regret": 8158, "\u2581sortint": 8159, "\u2581statistics": 8160, "\u2581trucades": 8161, "\u2581vict\u00f2ria": 8162, "\u2581weekend": 8163, "1,": 8164, "LY": 8165, "SE": 8166, "efecte": 8167, "izing": 8168, "rick": 8169, "table": 8170, "\u2581Actions": 8171, "\u2581Jens": 8172, "\u2581Lawrence": 8173, "\u2581Moon": 8174, "\u2581Reset": 8175, "\u2581Setup": 8176, "\u2581Value": 8177, "\u2581Ye": 8178, "\u2581acabi": 8179, "\u2581acting": 8180, "\u2581artista": 8181, "\u2581boring": 8182, "\u2581cable": 8183, "\u2581circumst\u00e0ncies": 8184, "\u2581communication": 8185, "\u2581drama": 8186, "\u2581exciting": 8187, "\u2581fetch": 8188, "\u2581guilty": 8189, "\u2581intento": 8190, "\u2581interessat": 8191, "\u2581llegint": 8192, "\u2581matar\u00e9": 8193, "\u2581mini": 8194, "\u2581negar": 8195, "\u2581networks": 8196, "\u2581opcional": 8197, "\u2581personals": 8198, "\u2581plat": 8199, "\u2581procedure": 8200, "\u2581rectangle": 8201, "\u2581storage": 8202, "\u2581tend": 8203, "EL": 8204, "free": 8205, "ila": 8206, "interior": 8207, "mark": 8208, "ult": 8209, "zar": 8210, "\u25811000": 8211, "\u258164": 8212, "\u2581Available": 8213, "\u2581Development": 8214, "\u2581Implementaci\u00f3": 8215, "\u2581Ladies": 8216, "\u2581Loading": 8217, "\u2581Meta": 8218, "\u2581M\u00e8xic": 8219, "\u2581Plus": 8220, "\u2581UML": 8221, "\u2581apps": 8222, "\u2581atrapar": 8223, "\u2581birds": 8224, "\u2581channels": 8225, "\u2581chapter": 8226, "\u2581cient\u00edfic": 8227, "\u2581cleaning": 8228, "\u2581coal": 8229, "\u2581condici\u00f3": 8230, "\u2581consola": 8231, "\u2581controla": 8232, "\u2581democracy": 8233, "\u2581eggs": 8234, "\u2581explained": 8235, "\u2581graph": 8236, "\u2581intervals": 8237, "\u2581juliol": 8238, "\u2581mostraran": 8239, "\u2581muntar": 8240, "\u2581naixement": 8241, "\u2581node": 8242, "\u2581podr\u00e9": 8243, "\u2581proporcionar": 8244, "\u2581quarter": 8245, "\u2581rap": 8246, "\u2581recon\u00e8ixer": 8247, "\u2581seguiment": 8248, "\u2581sharing": 8249, "\u2581updated": 8250, "\u2581zone": 8251, "07": 8252, "2)": 8253, "pur": 8254, "\u2581Blanc": 8255, "\u2581Brasil": 8256, "\u2581Finally": 8257, "\u2581Igual": 8258, "\u2581Je": 8259, "\u2581Modify": 8260, "\u2581November": 8261, "\u2581Seguretat": 8262, "\u2581Veure": 8263, "\u2581absolute": 8264, "\u2581album": 8265, "\u2581appearance": 8266, "\u2581aside": 8267, "\u2581begins": 8268, "\u2581branca": 8269, "\u2581cobertura": 8270, "\u2581communities": 8271, "\u2581compassion": 8272, "\u2581core": 8273, "\u2581debate": 8274, "\u2581developing": 8275, "\u2581diapositiva": 8276, "\u2581dictionary": 8277, "\u2581firm": 8278, "\u2581forest": 8279, "\u2581fotut": 8280, "\u2581guards": 8281, "\u2581im": 8282, "\u2581maig": 8283, "\u2581mires": 8284, "\u2581obvi": 8285, "\u2581plac": 8286, "\u2581plataforma": 8287, "\u2581recompensa": 8288, "\u2581reserves": 8289, "\u2581sensitive": 8290, "\u2581sexuals": 8291, "\u2581sintaxi": 8292, "\u2581solucionar": 8293, "\u2581s\u00e0pigues": 8294, "\u2581textbox": 8295, "\u2581vermella": 8296, "0,000": 8297, "cast": 8298, "encia": 8299, "ford": 8300, "ico": 8301, "iya": 8302, "univers": 8303, "\u2581Bro": 8304, "\u2581Calma": 8305, "\u2581Column": 8306, "\u2581Escolteu": 8307, "\u2581Forget": 8308, "\u2581Franc": 8309, "\u2581KDevelop": 8310, "\u2581Nu": 8311, "\u2581PGP": 8312, "\u2581Specify": 8313, "\u2581Ter": 8314, "\u2581Things": 8315, "\u2581Tortosa": 8316, "\u2581apparently": 8317, "\u2581atacs": 8318, "\u2581bow": 8319, "\u2581breathe": 8320, "\u2581caldr\u00e0": 8321, "\u2581convenient": 8322, "\u2581demanda": 8323, "\u2581descriure": 8324, "\u2581dorm": 8325, "\u2581expecting": 8326, "\u2581fax": 8327, "\u2581figura": 8328, "\u2581highest": 8329, "\u2581informat": 8330, "\u2581maco": 8331, "\u2581mar\u00e7": 8332, "\u2581matriu": 8333, "\u2581medicine": 8334, "\u2581paperera": 8335, "\u2581patrons": 8336, "\u2581prement": 8337, "\u2581programaci\u00f3": 8338, "\u2581slightly": 8339, "\u2581spin": 8340, "\u2581stronger": 8341, "\u2581succeir": 8342, "\u2581telescopi": 8343, "\u2581trace": 8344, "\u2581videos": 8345, "aeroport": 8346, "aturar": 8347, "ken": 8348, "pan": 8349, "\u2581CRL": 8350, "\u2581Court": 8351, "\u2581Enough": 8352, "\u2581Entenc": 8353, "\u2581Enterprise": 8354, "\u2581Eren": 8355, "\u2581Focus": 8356, "\u2581Greyjoy": 8357, "\u2581Keyboard": 8358, "\u2581Lin": 8359, "\u2581Perdoneu": 8360, "\u2581Pu": 8361, "\u2581Qu": 8362, "\u2581RGB": 8363, "\u2581Sign": 8364, "\u2581Trans": 8365, "\u2581Universitat": 8366, "\u2581acceptat": 8367, "\u2581advantage": 8368, "\u2581aim": 8369, "\u2581analitzar": 8370, "\u2581boxes": 8371, "\u2581comercial": 8372, "\u2581crap": 8373, "\u2581cure": 8374, "\u2581curiositat": 8375, "\u2581cute": 8376, "\u2581despatx": 8377, "\u2581division": 8378, "\u2581economy": 8379, "\u2581esperem": 8380, "\u2581framework": 8381, "\u2581fulls": 8382, "\u2581instruccions": 8383, "\u2581loud": 8384, "\u2581nenes": 8385, "\u2581parc": 8386, "\u2581pausa": 8387, "\u2581pointer": 8388, "\u2581porti": 8389, "\u2581quadrats": 8390, "\u2581radi": 8391, "\u2581relax": 8392, "\u2581retirar": 8393, "\u2581revenge": 8394, "\u2581sencera": 8395, "\u2581sentim": 8396, "\u2581silent": 8397, "\u2581sospit\u00f3s": 8398, "\u2581spring": 8399, "\u2581stayed": 8400, "\u2581tears": 8401, "\u2581tight": 8402, "\u2581twenty": 8403, "ANT": 8404, "Don": 8405, "TS": 8406, "adors": 8407, "cho": 8408, "object": 8409, "\u258152": 8410, "\u2581Aren": 8411, "\u2581Conte": 8412, "\u2581Costa": 8413, "\u2581Exacte": 8414, "\u2581Gal": 8415, "\u2581Input": 8416, "\u2581License": 8417, "\u2581L\u00ednia": 8418, "\u2581Moira": 8419, "\u2581Net": 8420, "\u2581Py": 8421, "\u2581Quins": 8422, "\u2581Rosa": 8423, "\u2581Skyler": 8424, "\u2581Transfer": 8425, "\u2581USB": 8426, "\u2581Zealand": 8427, "\u2581bullshit": 8428, "\u2581cobrir": 8429, "\u2581combinaci\u00f3": 8430, "\u2581comunitats": 8431, "\u2581convidar": 8432, "\u2581cuidar": 8433, "\u2581deixem": 8434, "\u2581desa": 8435, "\u2581express": 8436, "\u2581finals": 8437, "\u2581forts": 8438, "\u2581fossin": 8439, "\u2581hanging": 8440, "\u2581healthy": 8441, "\u2581horses": 8442, "\u2581marks": 8443, "\u2581methods": 8444, "\u2581operating": 8445, "\u2581positions": 8446, "\u2581processos": 8447, "\u2581protesta": 8448, "\u2581provat": 8449, "\u2581pushed": 8450, "\u2581remind": 8451, "\u2581repte": 8452, "\u2581review": 8453, "\u2581revisi\u00f3": 8454, "\u2581signs": 8455, "\u2581slept": 8456, "\u2581tindran": 8457, "\u2581waited": 8458, "Me": 8459, "Region": 8460, "ents": 8461, "ges": 8462, "lacions": 8463, "litat": 8464, "quem": 8465, "\u25818,": 8466, "\u2581Comte": 8467, "\u2581Correcte": 8468, "\u2581Correu": 8469, "\u2581Desenvolupador": 8470, "\u2581Director": 8471, "\u2581Documentation": 8472, "\u2581Frey": 8473, "\u2581Holy": 8474, "\u2581Interf\u00edcie": 8475, "\u2581NASA": 8476, "\u2581Nathan": 8477, "\u2581activitat": 8478, "\u2581addresses": 8479, "\u2581agradar": 8480, "\u2581beneficis": 8481, "\u2581can\u00e7ons": 8482, "\u2581concepte": 8483, "\u2581coneixia": 8484, "\u2581contracte": 8485, "\u2581decent": 8486, "\u2581dut": 8487, "\u2581environmental": 8488, "\u2581highlighted": 8489, "\u2581minister": 8490, "\u2581moveu": 8491, "\u2581perdonar": 8492, "\u2581posi": 8493, "\u2581potencial": 8494, "\u2581professionals": 8495, "\u2581profit": 8496, "\u2581resultar": 8497, "\u2581trap": 8498, "\u2581trigar": 8499, "\u2581vivint": 8500, "IST": 8501, "Pro": 8502, "aka": 8503, "bia": 8504, "estudi": 8505, "institut": 8506, "row": 8507, "zer": 8508, "\u2581ARE": 8509, "\u2581Absolutely": 8510, "\u2581Banshee": 8511, "\u2581Bit": 8512, "\u2581Component": 8513, "\u2581Cooper": 8514, "\u2581Cotton": 8515, "\u2581Had": 8516, "\u2581Layer": 8517, "\u2581Lee": 8518, "\u2581Prime": 8519, "\u2581Rights": 8520, "\u2581VI": 8521, "\u2581alemanys": 8522, "\u2581an\u00e0lisi": 8523, "\u2581arxius": 8524, "\u2581balance": 8525, "\u2581brut": 8526, "\u2581camins": 8527, "\u2581chain": 8528, "\u2581cock": 8529, "\u2581creuar": 8530, "\u2581dancing": 8531, "\u2581desembre": 8532, "\u2581east": 8533, "\u2581episodis": 8534, "\u2581imb\u00e8cil": 8535, "\u2581infermera": 8536, "\u2581maintain": 8537, "\u2581manifestants": 8538, "\u2581nickname": 8539, "\u2581passava": 8540, "\u2581remaining": 8541, "\u2581suffer": 8542, "\u2581testimonis": 8543, "\u2581treballen": 8544, "Part": 8545, "Slade": 8546, "There": 8547, "awa": 8548, "cron": 8549, "inici": 8550, "itzat": 8551, "nal": 8552, "stra": 8553, "wan": 8554, "\u2581Getting": 8555, "\u2581Half": 8556, "\u2581Hiro": 8557, "\u2581Honey": 8558, "\u2581Josh": 8559, "\u2581Malm\u00f6": 8560, "\u2581Recordeu": 8561, "\u2581Segurament": 8562, "\u2581Team": 8563, "\u2581Zawinski": 8564, "\u2581ancient": 8565, "\u2581aqui": 8566, "\u2581barri": 8567, "\u2581clicant": 8568, "\u2581commit": 8569, "\u2581creature": 8570, "\u2581critical": 8571, "\u2581demanar\u00e0": 8572, "\u2581deny": 8573, "\u2581disposat": 8574, "\u2581facts": 8575, "\u2581fils": 8576, "\u2581finalitzat": 8577, "\u2581fotre": 8578, "\u2581f\u00edsic": 8579, "\u2581gegant": 8580, "\u2581identificaci\u00f3": 8581, "\u2581milk": 8582, "\u2581mirat": 8583, "\u2581mis": 8584, "\u2581mountain": 8585, "\u2581nurse": 8586, "\u2581odd": 8587, "\u2581pedres": 8588, "\u2581perspectiva": 8589, "\u2581poli": 8590, "\u2581poses": 8591, "\u2581products": 8592, "\u2581provocar": 8593, "\u2581pr\u00f2xima": 8594, "\u2581q\u00fcestions": 8595, "\u2581reacci\u00f3": 8596, "\u2581taxa": 8597, "\u2581tir": 8598, "\u2581trail": 8599, "\u2581treasure": 8600, "\u2581visor": 8601, "KChar": 8602, "KDEDIR": 8603, "fon": 8604, "gl": 8605, "nch": 8606, "ori": 8607, "\u00c0": 8608, "\u2581Certificate": 8609, "\u2581Hol": 8610, "\u2581Introduction": 8611, "\u2581Isaac": 8612, "\u2581KDEPrint": 8613, "\u2581Monday": 8614, "\u2581Shows": 8615, "\u2581Soon": 8616, "\u2581Sortida": 8617, "\u2581Stephen": 8618, "\u2581Teni": 8619, "\u2581Vo": 8620, "\u2581anant": 8621, "\u2581basada": 8622, "\u2581breu": 8623, "\u2581carefully": 8624, "\u2581crema": 8625, "\u2581cried": 8626, "\u2581elections": 8627, "\u2581est\u00fapida": 8628, "\u2581eu": 8629, "\u2581flor": 8630, "\u2581folks": 8631, "\u2581freak": 8632, "\u2581haur\u00e9": 8633, "\u2581iniciativa": 8634, "\u2581laid": 8635, "\u2581literalment": 8636, "\u2581minds": 8637, "\u2581mori": 8638, "\u2581organized": 8639, "\u2581pairs": 8640, "\u2581paral": 8641, "\u2581personalitzat": 8642, "\u2581rostre": 8643, "\u2581touched": 8644, "\u2581vocabulary": 8645, "As": 8646, "clock": 8647, "hauries": 8648, "ney": 8649, "tura": 8650, "\u2581AB": 8651, "\u2581DCOP": 8652, "\u2581Death": 8653, "\u2581Ernest": 8654, "\u2581Felicitats": 8655, "\u2581Final": 8656, "\u2581Harvard": 8657, "\u2581Helena": 8658, "\u2581H\u00f2stia": 8659, "\u2581Off": 8660, "\u2581Ostres": 8661, "\u2581Punts": 8662, "\u2581Sand": 8663, "\u2581S\u00edria": 8664, "\u2581URI": 8665, "\u2581Volen": 8666, "\u2581Wizard": 8667, "\u2581authentication": 8668, "\u2581breaking": 8669, "\u2581diapositives": 8670, "\u2581diccionari": 8671, "\u2581esborrat": 8672, "\u2581fam": 8673, "\u2581f\u00e0brica": 8674, "\u2581highlight": 8675, "\u2581interrupci\u00f3": 8676, "\u2581invite": 8677, "\u2581journal": 8678, "\u2581miserable": 8679, "\u2581mono": 8680, "\u2581m\u00e8todes": 8681, "\u2581perfecta": 8682, "\u2581pin": 8683, "\u2581seguint": 8684, "\u2581silly": 8685, "\u2581tindre": 8686, "\u2581trobareu": 8687, "\u2581twelve": 8688, "\u2581usada": 8689, "\u2581veur\u00e0s": 8690, "1)": 8691, "CH": 8692, "enemic": 8693, "expressi\u00f3": 8694, "ito": 8695, "m\u00e0": 8696, "over": 8697, "quin": 8698, "rien": 8699, "see": 8700, "shire": 8701, "\u2581Capuleto": 8702, "\u2581Detalls": 8703, "\u2581DigiKam": 8704, "\u2581Fant\u00e0stic": 8705, "\u2581Gods": 8706, "\u2581Include": 8707, "\u2581Manage": 8708, "\u2581PNG": 8709, "\u2581Plasma": 8710, "\u2581Posici\u00f3": 8711, "\u2581Tampoc": 8712, "\u2581Tro": 8713, "\u2581absolutament": 8714, "\u2581asseure": 8715, "\u2581asshole": 8716, "\u2581carregat": 8717, "\u2581collect": 8718, "\u2581defense": 8719, "\u2581descansar": 8720, "\u2581desitja": 8721, "\u2581detect": 8722, "\u2581dozen": 8723, "\u2581emergency": 8724, "\u2581ending": 8725, "\u2581familiars": 8726, "\u2581gang": 8727, "\u2581grateful": 8728, "\u2581kmix": 8729, "\u2581knock": 8730, "\u2581mag": 8731, "\u2581nnn": 8732, "\u2581ordinary": 8733, "\u2581prefer\u00e8ncies": 8734, "\u2581prenent": 8735, "\u2581presenta": 8736, "\u2581pugueu": 8737, "\u2581rere": 8738, "\u2581similars": 8739, "Enter": 8740, "ata": 8741, "ington": 8742, "jar": 8743, "ship": 8744, "uit": 8745, "uz": 8746, "\u2581Automatic": 8747, "\u2581A\u00e7\u00f2": 8748, "\u2581Burton": 8749, "\u2581Controlador": 8750, "\u2581Deixi": 8751, "\u2581Forma": 8752, "\u2581Germans": 8753, "\u2581Host": 8754, "\u2581Messages": 8755, "\u2581Min": 8756, "\u2581Pretty": 8757, "\u2581Thatcher": 8758, "\u2581abandonat": 8759, "\u2581acts": 8760, "\u2581agraden": 8761, "\u2581ajust": 8762, "\u2581ci": 8763, "\u2581comuns": 8764, "\u2581coordinates": 8765, "\u2581describe": 8766, "\u2581dol\u00e7": 8767, "\u2581espantat": 8768, "\u2581estarem": 8769, "\u2581flames": 8770, "\u2581institutions": 8771, "\u2581japon\u00e8s": 8772, "\u2581kppp": 8773, "\u2581metadades": 8774, "\u2581neta": 8775, "\u2581passos": 8776, "\u2581percentatge": 8777, "\u2581presented": 8778, "\u2581remembered": 8779, "\u2581revenue": 8780, "\u2581sacrifice": 8781, "\u2581silver": 8782, "\u2581tour": 8783, "Go": 8784, "New": 8785, "boy": 8786, "cop": 8787, "dr": 8788, "iver": 8789, "law": 8790, "poli": 8791, "read": 8792, "tot": 8793, "\u2581(%2)": 8794, "\u2581Alemanya": 8795, "\u2581Av\u00eds": 8796, "\u2581Dorne": 8797, "\u2581Esperi": 8798, "\u2581Evans": 8799, "\u2581Garcia": 8800, "\u2581Luke": 8801, "\u2581Margaery": 8802, "\u2581Meereen": 8803, "\u2581Sally": 8804, "\u2581Seriously": 8805, "\u2581Through": 8806, "\u2581applet": 8807, "\u2581ate": 8808, "\u2581brita": 8809, "\u2581calcula": 8810, "\u2581caption": 8811, "\u2581cl": 8812, "\u2581cousin": 8813, "\u2581desperta": 8814, "\u2581escoltant": 8815, "\u2581factors": 8816, "\u2581formal": 8817, "\u2581kingdom": 8818, "\u2581normals": 8819, "\u2581png": 8820, "\u2581posen": 8821, "\u2581preguntant": 8822, "\u2581restore": 8823, "\u2581treballat": 8824, "\u2581victory": 8825, "17": 8826, "GPL": 8827, "Li": 8828, "They": 8829, "dis": 8830, "guda": 8831, "ised": 8832, "rie": 8833, "tics": 8834, "tiga": 8835, "\u2581Amunt": 8836, "\u2581Best": 8837, "\u2581Char": 8838, "\u2581Earl": 8839, "\u2581Found": 8840, "\u2581IGU": 8841, "\u2581RAM": 8842, "\u2581Saturday": 8843, "\u2581Syrian": 8844, "\u2581Todd": 8845, "\u2581attacks": 8846, "\u2581boira": 8847, "\u2581borders": 8848, "\u2581brossa": 8849, "\u2581checkbox": 8850, "\u2581comprom\u00eds": 8851, "\u2581comproveu": 8852, "\u2581demostra": 8853, "\u2581exercici": 8854, "\u2581funcionar\u00e0": 8855, "\u2581gen": 8856, "\u2581generated": 8857, "\u2581gros": 8858, "\u2581gr\u00e0fics": 8859, "\u2581hunting": 8860, "\u2581interessos": 8861, "\u2581junt": 8862, "\u2581ktouch": 8863, "\u2581menja": 8864, "\u2581obertes": 8865, "\u2581organitzaci\u00f3": 8866, "\u2581platja": 8867, "\u2581pot\u00e8ncia": 8868, "\u2581reactor": 8869, "\u2581relevant": 8870, "\u2581residents": 8871, "\u2581robot": 8872, "\u2581scientists": 8873, "\u2581sobrenom": 8874, "\u2581transfer\u00e8ncia": 8875, "\u2581wh": 8876, "\u2581wound": 8877, "89": 8878, "bert": 8879, "click": 8880, "esgl\u00e9sia": 8881, "fr": 8882, "oma": 8883, "rate": 8884, "ret": 8885, "\u2581Alfred": 8886, "\u2581Anglaterra": 8887, "\u2581Bookmarks": 8888, "\u2581Castle": 8889, "\u2581Creia": 8890, "\u2581Escolti": 8891, "\u2581Kig": 8892, "\u2581Male\u00eft": 8893, "\u2581Meer": 8894, "\u2581PO": 8895, "\u2581Pope": 8896, "\u2581Version": 8897, "\u2581alcohol": 8898, "\u2581boot": 8899, "\u2581bride": 8900, "\u2581brutal": 8901, "\u2581currency": 8902, "\u2581digue": 8903, "\u2581diguem": 8904, "\u2581dimensions": 8905, "\u2581disappear": 8906, "\u2581escoles": 8907, "\u2581exercise": 8908, "\u2581funcionen": 8909, "\u2581indicators": 8910, "\u2581intend": 8911, "\u2581intended": 8912, "\u2581interests": 8913, "\u2581moro": 8914, "\u2581m\u00e0scara": 8915, "\u2581observar": 8916, "\u2581poison": 8917, "\u2581preguntava": 8918, "\u2581reduce": 8919, "\u2581ruin": 8920, "\u2581segments": 8921, "\u2581singing": 8922, "\u2581terreny": 8923, "\u2581trets": 8924, "\u2581trobava": 8925, "21": 8926, "UT": 8927, "WO": 8928, "aquella": 8929, "comp": 8930, "deix": 8931, "din": 8932, "eng": 8933, "flu": 8934, "hand": 8935, "head": 8936, "og": 8937, "ones": 8938, "rum": 8939, "russia": 8940, "this": 8941, "\u2581Anna": 8942, "\u2581Block": 8943, "\u2581Brad": 8944, "\u2581CH": 8945, "\u2581COM": 8946, "\u2581Demana": 8947, "\u2581Drive": 8948, "\u2581Glades": 8949, "\u2581Map": 8950, "\u2581Netscape": 8951, "\u2581Prince": 8952, "\u2581Regne": 8953, "\u2581Secret": 8954, "\u2581Width": 8955, "\u2581Yu": 8956, "\u2581advance": 8957, "\u2581aire": 8958, "\u2581apareixen": 8959, "\u2581arts": 8960, "\u2581badly": 8961, "\u2581daemon": 8962, "\u2581declarar": 8963, "\u2581discover": 8964, "\u2581existents": 8965, "\u2581fucked": 8966, "\u2581ge": 8967, "\u2581launched": 8968, "\u2581leads": 8969, "\u2581lecture": 8970, "\u2581metadata": 8971, "\u2581mur": 8972, "\u2581mystery": 8973, "\u2581nervi\u00f3s": 8974, "\u2581posem": 8975, "\u2581posterior": 8976, "\u2581preci\u00f3s": 8977, "\u2581prom\u00e8s": 8978, "\u2581quedar\u00e0": 8979, "\u2581reserve": 8980, "\u2581romandre": 8981, "\u2581sooner": 8982, "\u2581stands": 8983, "\u2581stolen": 8984, "\u2581tindr\u00e9": 8985, "\u2581upper": 8986, "\u2581warrant": 8987, "\u2581\u00e0via": 8988, "!--": 8989, "enviar": 8990, "far": 8991, "har": 8992, "house": 8993, "meter": 8994, "nova": 8995, "value": 8996, "\u2581Abandona": 8997, "\u2581Archive": 8998, "\u2581Blau": 8999, "\u2581Chief": 9000, "\u2581Convert": 9001, "\u2581Fent": 9002, "\u2581Mance": 9003, "\u2581Mantenidor": 9004, "\u2581Marble": 9005, "\u2581Quines": 9006, "\u2581Though": 9007, "\u2581Tractat": 9008, "\u2581analysis": 9009, "\u2581assassins": 9010, "\u2581buying": 9011, "\u2581cavallers": 9012, "\u2581clicar": 9013, "\u2581contestar": 9014, "\u2581continues": 9015, "\u2581corda": 9016, "\u2581c\u00e0rrecs": 9017, "\u2581daddy": 9018, "\u2581eix": 9019, "\u2581feli\u00e7os": 9020, "\u2581flesh": 9021, "\u2581funcionalitat": 9022, "\u2581gamma": 9023, "\u2581genius": 9024, "\u2581gentleman": 9025, "\u2581graphical": 9026, "\u2581institucions": 9027, "\u2581int\u00e8rpret": 9028, "\u2581krfb": 9029, "\u2581loading": 9030, "\u2581opt": 9031, "\u2581ossos": 9032, "\u2581prepare": 9033, "\u2581quedo": 9034, "\u2581refuse": 9035, "\u2581reproductor": 9036, "\u2581requests": 9037, "\u2581setembre": 9038, "\u2581sharp": 9039, "\u2581spare": 9040, "\u2581tornes": 9041, "\u2581ullada": 9042, "\u2581unsub": 9043, "\u2581vots": 9044, "\u2581wave": 9045, "\u2581\u00e9ssers": 9046, "90": 9047, "Ah": 9048, "Bus": 9049, "arbre": 9050, "bla": 9051, "dit": 9052, "gle": 9053, "itu": 9054, "omplen": 9055, "tament": 9056, "utilitzar": 9057, "\u2581AN": 9058, "\u2581Amen": 9059, "\u2581Athelstan": 9060, "\u2581Browse": 9061, "\u2581Cel": 9062, "\u2581Esta": 9063, "\u2581Estar": 9064, "\u2581Folders": 9065, "\u2581Fonts": 9066, "\u2581Nor\u00e9n": 9067, "\u2581Porteu": 9068, "\u2581Shortcuts": 9069, "\u2581Susan": 9070, "\u2581Versi\u00f3": 9071, "\u2581aunt": 9072, "\u2581bite": 9073, "\u2581bot": 9074, "\u2581concept": 9075, "\u2581confirmaci\u00f3": 9076, "\u2581contenta": 9077, "\u2581contextual": 9078, "\u2581curta": 9079, "\u2581detectar": 9080, "\u2581espec\u00edfic": 9081, "\u2581exploraci\u00f3": 9082, "\u2581fence": 9083, "\u2581fu": 9084, "\u2581fuel": 9085, "\u2581jurat": 9086, "\u2581localitzar": 9087, "\u2581mel": 9088, "\u2581mirem": 9089, "\u2581preferit": 9090, "\u2581regional": 9091, "\u2581relatives": 9092, "\u2581rough": 9093, "\u2581seient": 9094, "\u2581separat": 9095, "\u2581suposava": 9096, "\u2581talla": 9097, "\u2581telescope": 9098, "\u2581txt": 9099, "\u2581var": 9100, "\u2581venda": 9101, "\u2581ves": 9102, "\u2581vestits": 9103, "\u2581vulnerable": 9104, "\u2581warn": 9105, "\u2581\u00c0frica": 9106, "99": 9107, "Class": 9108, "Ex": 9109, "OT": 9110, "Yeah": 9111, "activitat": 9112, "entrar": 9113, "gir": 9114, "tia": 9115, "vem": 9116, "\u2581Aquella": 9117, "\u2581Bookmark": 9118, "\u2581Brazil": 9119, "\u2581Ce": 9120, "\u2581Comentari": 9121, "\u2581Houston": 9122, "\u2581Jackson": 9123, "\u2581Personal": 9124, "\u2581Scale": 9125, "\u2581Ven": 9126, "\u2581Women": 9127, "\u2581avan\u00e7at": 9128, "\u2581borratxo": 9129, "\u2581carboni": 9130, "\u2581cinema": 9131, "\u2581climb": 9132, "\u2581despert": 9133, "\u2581divided": 9134, "\u2581drove": 9135, "\u2581governs": 9136, "\u2581industrial": 9137, "\u2581loyal": 9138, "\u2581mat": 9139, "\u2581musical": 9140, "\u2581ocultar": 9141, "\u2581offers": 9142, "\u2581pounds": 9143, "\u2581poverty": 9144, "\u2581preparada": 9145, "\u2581rebels": 9146, "\u2581revolution": 9147, "\u2581rosa": 9148, "\u2581r\u00e8gim": 9149, "\u2581sp": 9150, "\u2581stream": 9151, "\u2581trash": 9152, "\u2581tries": 9153, "Ia": 9154, "ado": 9155, "ar\u00e9": 9156, "bs": 9157, "ejant": 9158, "kh": 9159, "posi": 9160, "\u25812006": 9161, "\u2581Australia": 9162, "\u2581Documents": 9163, "\u2581Euro": 9164, "\u2581Fals": 9165, "\u2581Guerra": 9166, "\u2581Haur\u00e0": 9167, "\u2581IPP": 9168, "\u2581KOffice": 9169, "\u2581Management": 9170, "\u2581Nazir": 9171, "\u2581Policy": 9172, "\u2581Sergent": 9173, "\u2581Shape": 9174, "\u2581activated": 9175, "\u2581charges": 9176, "\u2581computers": 9177, "\u2581confer\u00e8ncia": 9178, "\u2581consisteix": 9179, "\u2581contractar": 9180, "\u2581deixen": 9181, "\u2581desgr\u00e0cia": 9182, "\u2581despeses": 9183, "\u2581educaci\u00f3": 9184, "\u2581elevat": 9185, "\u2581embarassada": 9186, "\u2581esfor\u00e7os": 9187, "\u2581estaran": 9188, "\u2581estima": 9189, "\u2581extraordinary": 9190, "\u2581extremadament": 9191, "\u2581facing": 9192, "\u2581factory": 9193, "\u2581flash": 9194, "\u2581funcionament": 9195, "\u2581gris": 9196, "\u2581groc": 9197, "\u2581hauran": 9198, "\u2581mouen": 9199, "\u2581mour\u00e0": 9200, "\u2581offering": 9201, "\u2581orelles": 9202, "\u2581passad\u00eds": 9203, "\u2581pleased": 9204, "\u2581primary": 9205, "\u2581reply": 9206, "\u2581tests": 9207, "\":": 9208, "EX": 9209, "OP": 9210, "Possessi": 9211, "ali": 9212, "ans": 9213, "ead": 9214, "ew": 9215, "istic": 9216, "legi": 9217, "pit": 9218, "room": 9219, "\u2581Alto": 9220, "\u2581Box": 9221, "\u2581Bug": 9222, "\u2581Bur": 9223, "\u2581Disc": 9224, "\u2581Entrada": 9225, "\u2581GV": 9226, "\u2581Gaza": 9227, "\u2581Gus": 9228, "\u2581Install": 9229, "\u2581Ken": 9230, "\u2581Speed": 9231, "\u2581Starting": 9232, "\u2581Tema": 9233, "\u2581Veniu": 9234, "\u2581Za": 9235, "\u2581ah": 9236, "\u2581app": 9237, "\u2581bathroom": 9238, "\u2581beach": 9239, "\u2581calia": 9240, "\u2581cm": 9241, "\u2581comfort": 9242, "\u2581constru\u00eft": 9243, "\u2581deshabilitar": 9244, "\u2581escena": 9245, "\u2581espereu": 9246, "\u2581estats": 9247, "\u2581ext": 9248, "\u2581fans": 9249, "\u2581forth": 9250, "\u2581gap": 9251, "\u2581gig": 9252, "\u2581increased": 9253, "\u2581indicadors": 9254, "\u2581lleuger": 9255, "\u2581marqueu": 9256, "\u2581procediment": 9257, "\u2581proveeix": 9258, "\u2581skip": 9259, "\u2581sorts": 9260, "\u2581spending": 9261, "\u2581tr\u00e0nsit": 9262, "\u2581underneath": 9263, "\u2581verificaci\u00f3": 9264, "\u2581ve\u00efns": 9265, "\u2581woke": 9266, "\u2581youth": 9267, "EM": 9268, "Man": 9269, "RC": 9270, "Stannis": 9271, "aprendre": 9272, "git": 9273, "ology": 9274, "tive": 9275, "unes": 9276, "\u2581\")": 9277, "\u2581Catalunya": 9278, "\u2581Doug": 9279, "\u2581Esperem": 9280, "\u2581Extra": 9281, "\u2581IPTC": 9282, "\u2581Know": 9283, "\u2581Necessites": 9284, "\u2581abuse": 9285, "\u2581adequada": 9286, "\u2581afecta": 9287, "\u2581aproximadament": 9288, "\u2581bales": 9289, "\u2581betrayed": 9290, "\u2581blocs": 9291, "\u2581cast": 9292, "\u2581clara": 9293, "\u2581conseq\u00fc\u00e8ncies": 9294, "\u2581continued": 9295, "\u2581dissabte": 9296, "\u2581emotional": 9297, "\u2581generally": 9298, "\u2581giant": 9299, "\u2581grass": 9300, "\u2581jacket": 9301, "\u2581judgment": 9302, "\u2581limitat": 9303, "\u2581minus": 9304, "\u2581passaria": 9305, "\u2581passing": 9306, "\u2581pla\u00e7a": 9307, "\u2581pobresa": 9308, "\u2581presoner": 9309, "\u2581sectors": 9310, "\u2581shower": 9311, "\u2581torture": 9312, "\u2581wealth": 9313, "\u2581whoever": 9314, "500": 9315, "AND": 9316, "Now": 9317, "VE": 9318, "ations": 9319, "cional": 9320, "dreu": 9321, "escala": 9322, "number": 9323, "true": 9324, "work": 9325, "\u25811998": 9326, "\u2581Anton": 9327, "\u2581Arabic": 9328, "\u2581Artist": 9329, "\u2581Cam\u00ed": 9330, "\u2581Falls": 9331, "\u2581Forward": 9332, "\u2581Intent": 9333, "\u2581Navegador": 9334, "\u2581Programa": 9335, "\u2581Reload": 9336, "\u2581Rio": 9337, "\u2581Rory": 9338, "\u2581R\u00e0pid": 9339, "\u2581Semblava": 9340, "\u2581Senyoria": 9341, "\u2581Thor": 9342, "\u2581Tre": 9343, "\u2581Walk": 9344, "\u2581assigned": 9345, "\u2581assistant": 9346, "\u2581attached": 9347, "\u2581caminant": 9348, "\u2581cometre": 9349, "\u2581coneixem": 9350, "\u2581correcci\u00f3": 9351, "\u2581costum": 9352, "\u2581creix": 9353, "\u2581darrers": 9354, "\u2581dieu": 9355, "\u2581dir\u00e0s": 9356, "\u2581ent\u00e9n": 9357, "\u2581escriviu": 9358, "\u2581espec\u00edfiques": 9359, "\u2581fashion": 9360, "\u2581habitual": 9361, "\u2581layer": 9362, "\u2581lleugera": 9363, "\u2581ll\u00e0stima": 9364, "\u2581memories": 9365, "\u2581mistakes": 9366, "\u2581produced": 9367, "\u2581recall": 9368, "\u2581recipient": 9369, "\u2581reunions": 9370, "\u2581revoluci\u00f3": 9371, "\u2581ritme": 9372, "\u2581sac": 9373, "\u2581sand": 9374, "\u2581shock": 9375, "\u2581significant": 9376, "\u2581thrown": 9377, "\u2581tracking": 9378, "\u2581trobi": 9379, "\u2581tron": 9380, "\u2581votar": 9381, "Be": 9382, "MENT": 9383, "Plugin": 9384, "UP": 9385, "assa": 9386, "exp": 9387, "ging": 9388, "r\u00e8": 9389, "server": 9390, "tab": 9391, "\u25812.0": 9392, "\u2581Act": 9393, "\u2581Answer": 9394, "\u2581Astals": 9395, "\u2581Connect": 9396, "\u2581Espereu": 9397, "\u2581Introducci\u00f3": 9398, "\u2581Ke": 9399, "\u2581Marc": 9400, "\u2581Ruby": 9401, "\u2581Shame": 9402, "\u2581Subject": 9403, "\u2581Tesla": 9404, "\u2581Tonight": 9405, "\u2581Tribunal": 9406, "\u2581alright": 9407, "\u2581awake": 9408, "\u2581begut": 9409, "\u2581beneath": 9410, "\u2581benefit": 9411, "\u2581corona": 9412, "\u2581detallada": 9413, "\u2581ensenya": 9414, "\u2581esperit": 9415, "\u2581febrer": 9416, "\u2581fundamental": 9417, "\u2581lladre": 9418, "\u2581lli\u00e7ons": 9419, "\u2581manutorto": 9420, "\u2581patterns": 9421, "\u2581percentage": 9422, "\u2581recordeu": 9423, "\u2581registres": 9424, "\u2581reporter": 9425, "\u2581rescat": 9426, "\u2581sembli": 9427, "\u2581sexy": 9428, "\u2581soci": 9429, "\u2581torrents": 9430, "\u2581triat": 9431, "\u2581verb": 9432, "\u2581vidre": 9433, "assembla": 9434, "eixi": 9435, "estaci\u00f3": 9436, "estimes": 9437, "ota": 9438, "print": 9439, "\u2581***": 9440, "\u2581.--": 9441, "\u2581==": 9442, "\u2581Baix": 9443, "\u2581Capital": 9444, "\u2581Cos": 9445, "\u2581Egypt": 9446, "\u2581Function": 9447, "\u2581Gracies": 9448, "\u2581Interface": 9449, "\u2581Iraq": 9450, "\u2581Khaleesi": 9451, "\u2581Mentrestant": 9452, "\u2581Operation": 9453, "\u2581Shado": 9454, "\u2581Vanessa": 9455, "\u2581acostar": 9456, "\u2581affect": 9457, "\u2581alumnes": 9458, "\u2581americ\u00e0": 9459, "\u2581awesome": 9460, "\u2581bedroom": 9461, "\u2581blocks": 9462, "\u2581bombin": 9463, "\u2581breast": 9464, "\u2581certes": 9465, "\u2581comenci": 9466, "\u2581comunicar": 9467, "\u2581counter": 9468, "\u2581deals": 9469, "\u2581desired": 9470, "\u2581econ\u00f2mic": 9471, "\u2581espec\u00edfica": 9472, "\u2581estar\u00e0s": 9473, "\u2581executa": 9474, "\u2581graci\u00f3s": 9475, "\u2581instructions": 9476, "\u2581internacionals": 9477, "\u2581kchart": 9478, "\u2581kdesu": 9479, "\u2581mailing": 9480, "\u2581medicina": 9481, "\u2581meetings": 9482, "\u2581millora": 9483, "\u2581misteri": 9484, "\u2581molesta": 9485, "\u2581mood": 9486, "\u2581native": 9487, "\u2581opens": 9488, "\u2581paci\u00e8ncia": 9489, "\u2581pane": 9490, "\u2581parets": 9491, "\u2581plegats": 9492, "\u2581portar\u00e0": 9493, "\u2581propers": 9494, "\u2581provoca": 9495, "\u2581relationships": 9496, "\u2581resolt": 9497, "\u2581revisar": 9498, "\u2581robots": 9499, "\u2581sail": 9500, "\u2581shake": 9501, "\u2581solitari": 9502, "\u2581trampa": 9503, "\u2581usage": 9504, "\u2581vo": 9505, "\u2581\u00f2bviament": 9506, "NYA": 9507, "economia": 9508, "ieu": 9509, "ures": 9510, "\u2581Ag": 9511, "\u2581Align": 9512, "\u2581Anyone": 9513, "\u2581Aparen\u00e7a": 9514, "\u2581Arya": 9515, "\u2581Aw": 9516, "\u2581Beowulf": 9517, "\u2581Castell": 9518, "\u2581Diguem": 9519, "\u2581Esc": 9520, "\u2581Finn": 9521, "\u2581Fot": 9522, "\u2581Horik": 9523, "\u2581Islamic": 9524, "\u2581KB": 9525, "\u2581Kar": 9526, "\u2581Krusader": 9527, "\u2581Lloc": 9528, "\u2581Pacific": 9529, "\u2581Policia": 9530, "\u2581String": 9531, "\u2581Tray": 9532, "\u2581Way": 9533, "\u2581alimentar": 9534, "\u2581assignar": 9535, "\u2581chicken": 9536, "\u2581comprendre": 9537, "\u2581contenen": 9538, "\u2581differently": 9539, "\u2581dip\u00f2sit": 9540, "\u2581engaged": 9541, "\u2581established": 9542, "\u2581estigueu": 9543, "\u2581ferro": 9544, "\u2581frases": 9545, "\u2581golden": 9546, "\u2581increasing": 9547, "\u2581inst\u00e0ncia": 9548, "\u2581llan\u00e7ament": 9549, "\u2581llen\u00e7ar": 9550, "\u2581mile": 9551, "\u2581militars": 9552, "\u2581molestar": 9553, "\u2581pacients": 9554, "\u2581personally": 9555, "\u2581proposal": 9556, "\u2581quote": 9557, "\u2581reaction": 9558, "\u2581refused": 9559, "\u2581repeteix": 9560, "\u2581rifle": 9561, "\u2581solid": 9562, "\u2581travessar": 9563, "\u2581writer": 9564, "\"!": 9565, "Or": 9566, "Riure": 9567, "bol": 9568, "cl": 9569, "cus": 9570, "gal": 9571, "iana": 9572, "iga": 9573, "more": 9574, "tom": 9575, "\u2581Ban": 9576, "\u2581Christine": 9577, "\u2581Civil": 9578, "\u2581Johnson": 9579, "\u2581Krita": 9580, "\u2581Maintainer": 9581, "\u2581Mine": 9582, "\u2581Moscow": 9583, "\u2581Unitat": 9584, "\u2581aprop": 9585, "\u2581arribar\u00e0": 9586, "\u2581arribem": 9587, "\u2581combination": 9588, "\u2581confused": 9589, "\u2581creieu": 9590, "\u2581deixar\u00e0": 9591, "\u2581donem": 9592, "\u2581evolution": 9593, "\u2581filles": 9594, "\u2581futbol": 9595, "\u2581hom": 9596, "\u2581humanity": 9597, "\u2581inclouen": 9598, "\u2581jurar": 9599, "\u2581kwrite": 9600, "\u2581llavis": 9601, "\u2581matar\u00e0": 9602, "\u2581minimum": 9603, "\u2581movies": 9604, "\u2581pagat": 9605, "\u2581participaci\u00f3": 9606, "\u2581perdent": 9607, "\u2581phrase": 9608, "\u2581profundament": 9609, "\u2581retard": 9610, "\u2581romantic": 9611, "\u2581serem": 9612, "\u2581shoulder": 9613, "\u2581siga": 9614, "\u2581templates": 9615, "\u2581utilitzen": 9616, "\u2581vivim": 9617, "24": 9618, ":30": 9619, "Property": 9620, "ameroon": 9621, "atch": 9622, "dament": 9623,
[...]
